#composite_of_5376b = #util.composite<5376xi8, [
    dense<"0x26E9733EC8181D3EA18D17BE3DFDFE3D747CA73CA916753E7724A0BEE399DBBD9A23983D8818483E2781583EE4BF9E3E5C7405BE66A108BE14DA1F3E7360B43D639B853EE1C42C3D25246CBE9FA0F43DCADF34BE569A813E99584ABD175CF93DF867823EF924EABCF77E313E33F75EBECF29E93D4DCD313E2C56943D4A47073D1D330E3D4C230A3E5EFDF0BD28928C3E57CF9FBE927E6BBD6F523F3E2E1A133E996437BE86B2863E663144BE02B97CBE444E7B3E1BCFCABDE9860CBE4DE5423E583371BE6E6E9EBEAC1D62BEEF0DFB3DC08B9E3E0BC9803EFED62C3E7F3B7FBEA4951DBE30053CBE8903EE3D29D655BE897B99BE02EBF0BC5CEBCC3D87C2D93DD4284ABEC0F50E3DD672FCB9B26E6C3E626B77BE45A5803E911E803E2594783EE8EA373E3CC16BBEC9531BBD81998D3C49F21D3EA71AB63D35FB353EAF5DFBBDE3FB7A3E30C504BD63B6C53D476567BEA75B153DAA25253E071063BE3B70933ED3F2BBBDCA9F813E1597933E757738BE943B1CBDBA39AABD9CD79E3DB52B293CD76B2A3EC2CC983EE24E0EBE839E8DBEBACFE23DC62E19BC8D6468BEAAC9463D4F6522BE79930E3E6946073ECE37013EEE6E7ABE2B2366BEFC8A653E0A539FBD9DD3E43C92C1493E71554B3ED22C32BE45E7BC3DF4419EBEEB286F3EA62544BC69B040BE17DEA4BDA646E03D8C5CD6BD5758003E67C471BE5737193E61CD193ED0C29BBE0E4B34BE3CF088BE95DDEFBC65F17A3E25CCA13BBEEC003E61F788BEC5F94EBEB25B9CBDB7BD4FBEB5F6C33D5697923E43081C3E89ADDCBDB68826BE2CC68ABDDB8D5E3E1ACC22BE5AF81DBEB33E8FBE89EA68BEA91B6E3EC4D870BE95DB36BE5AAE97BE7604DABD804F9FBDC52AC13DCB1A83BD1CDC0D3E62E93CBEA7DF5BBE326C1DBE54D98EBE26F78A3D724C123ED9B278BDFA1E92BCBEDC8CBEEB44BBBCC329173E0709373ECECAB2BCB7B227BEFCE6E8BD48F70EBE587E993EFA47543E67E178BE19B129BE4415393ECF4F4EBDCFF12D3D2098A4BDA34415BE8B2F33BEC7A7243E294766BED3C09B3E237C0A3DFBE093BEA11B373DD7BCC3BD000B96BCF200693EADE6923E8CF61C3DE316313D6FD40F3E4A6CF53C8D96FC3D5306BE3D56F47B3E46858B3ED3B7B7BD5D8F1E3E78ABF4BD297A343E3808613E9639983EA4E48B3EA98B42BD16E28D3E8BE34F3E596017BEFD6360BED37A07BE8BEC40BED60173BE9F2C65BEB439A9BD6B8D353E50622A3ED932CA3C0C03423E7A181FBD37409EBED74084BE9B32993D8F1B3FBD086A7E3E69FD5D3E38459BBD7BF75D3E0945923EC60E66BE403D50BEF6C070BE400E8CBEE179813E72406ABE7AEE75BE6AD485BD01B5453D2380EFBB407842BE775E0E3E2E7977BE64FD33BEDC2421BEE66D5E3ED9CD523DAD7A883EA2DBB3BCD5F7593E40B921BDDD498FBE96D69C3E0B7FFEBDB6348BBE37F4793E2B97A63DDFA740BD7D21D93C36007A3EE09540BE6230093E2A12BB3C8548FFBD0D75543EF051F7BCECD3A93D3E9538BE51F7953B7B42653E7A01833D014F85BED1DD92BED2F98BBEDC7B493E77B1653E26F705BE591F68BEE07D7E3E4B6F2EBE3F78A13E0236213EE516F63A06443ABEE2D5233E87D69F3DE591323E91EE30BD4234A13EF48D7CBDBA6C86BE7A53863D2614D93D7CCAEB3D838635BEC2037ABEBCDC963E71E11E3EF9087B3E6985CEBDF725D13D5301EBBD6DE1A0BEE0D8CBBD2A7A8ABE5E7B4E3B1CE63A3E7E23BD3DE5574A3E12AF0C3E4DD679BE15A078BE33B4563E9202813D27A8E43D8F03483E"> : tensor<32x10xf32>,
    dense<"0x5BA03E3C8296C13C6ECED53D0A92C63D7173E2372DE484BD2C317BBC370609BE0A865BBD2F1C053D5FB065BD5D8C863C168C82BD6F25163ED0ADC2BC053B0B3EFFD51E3E7E21B0BD5222183E71C0B3BDB342F6BDF978043DDB24EC3CBF71033ED78E31BE0D9C11BE6E2F96BCCF2014BE178A2FBEED2BC2BC40A2863D064CAF3DDF3D353B7254FCBD462F663CB258033E9F8614BEA944083EF301B83D1D9219BECE9508BED999FB3D2A92B4BD8F18EE3CA733BDBD8B812C3E4142F5BDA6E118BE920E6E3D921D0E3E24DE5F3DDEF1953DD70DEABD44C792BD3B38F53B3D1FB43D7719C83DCED7A3BBF6D67C3C880C043E7AA1ACBDA3642BBE1425203E3FA2043E7F9B07BED5CF2FBE9973173E91712C3E14640B3D021BF1BDA5FC19BE280933BCC25217BEBF9EBD3C69A41BBEE9BD2A3EB86A2ABB07E7393C0726DDBDFA25193D5EE18F3C49F86F3D48720A3E6E7F28BECECBC93C02B29D3D02439E3C2906033E149092BD4F882FBED7D895BD7DB7BABCD48CC3BD733086BDB73D14BE83371ABE9565023DB31864BCE5EB593942C2E53D15572ABE3E8FD7BD972707BE65E3B0BDC694BABD93AD24BDC2C91FBE109CD83CF2AF13BE8F43E6BC91A0403C4BE4553DC0B9D23C7D64ACBDD898C83D2DE4F43C8941F13887C9F6BD1DE621BD4E6AA53DC06A113E1ADEB6BD1601D0BDA090933D3EE368BD2E370A3DB4B12CBE12A3363D7A4F0E3E6E632ABEE1C29F3B0F4DE43DD21F353B284C2B3DBEFAE63DCAFC193E3BF5573D6192063ED39FAB3DF6B9433D2631413D8725EA3D5678CFBC8BAD00BD9C3126BE3C8DF6BBC700E0BD91C3E23DB1D128BE9B289D3B1862EB3DDDD026BE31312C3E1C83E63D3990253E651034BE728F08BDA5AF323D1BFCB5BD4A10293E0F68003E817866BD69DEBDBD0EDB223E50EA96BDE2CF88BCFB2A133E7FC8B13DDB58293E34591DBE683C33BE2BFCE4BD51FB2BBE99D20FBED91AA2BD7808733D28E5873D3581D13C453A93BDC619B33CAFAE34BD94B0283D067AC13D145D0ABE1E9D943D7286833DE907F0BD52B9BFBDE9A00ABEEAE5863D5A3816BE7A6B6C3DF0D4DD3CFFF71F3E20623BB9FDF62ABEC05504BE7010C23DA50E1D3DDD825A3DC06421BEA53EB53DDC83D1BCE329A23B0266EABC34606DBD6ECC2EBE8441183EC3F6063D8A7B943D9DF29ABC76ABCCBD4177FFBD15F2C2BDA67C8FBCE3878DBD6CAA2C3E94F111BC447102BEC46B053E070912BEB8A5803D52BE2ABE259ADCBC5898133E05F5E6BDB90F9EBD30FD323E7BA9963D3A8D19BE7E3B6A3D897FAABD6F3A9EBCA5E614BD9C49F5BDB426483D1D519DBD013404BEE8AD04BEAD62F6BDCB1A023E60FA203E53B2B5BDFB5E27BE3CDD2D3D758C29BECF73B1BCE7FB0EBE8AEA5F3DA190843D0A2CDDBDBBDDC0BB099B63BDB2A917BE35B01BBE290BD2BDD38087BD97002EBDD3DA643D76A32B3E0B482BBB4C0107BE2207CDBD90EAC1BD003933BE5A1F533D1271CCBD2C99283E3D6923BECC59A7BD6804333D3D2C8BBDF7331F3EEB87FD3C163A84BB2C37753C1089C93D78682EBDC66D8ABD8433143E2BC4CEBD1714B6BD52E6D6BD7963093EB5462DBE5FD58FBDDE1C333D550E7E3DDE8EEA3DB11B053E1EE055BD8406CFBD3D5E603D03510EBEC2EC9CBDBB8E113E8A2F3C3CE603DF3D05EA8B3DAC6617BE0F7308BE5AC1BDBC2B51273C4156F2BD099615BE09C4213E6761DFBC4EE21C3EF0E0343EF96A2B3E4211783D02DE2ABE5591783DF38EAEBD834F243E70E76DBD65559EBD9C74D83DDC342BBE8460BEBD031E33BEFC7785BDEF1BD8BDC5FE153E43761ABE4FB0243EB8F9E5BD4564713CB1970ABE6023FD3D6F4F0E3E6139DEBD88AFC1BDCCE1893DF6BF05BE401B41BB2A29F0BDBBB223BE493DCE3DD407CF3DEFFD323D2625163E6B6CEC3D8475D83D8357233EB8F2B03DB41E0DBC0FF3583D76B106BEFCCB2BBE0CFA103D20B3C73D1FB7D6BCFB895EBDD17F983DE59B463DD5CD32BE319B453D34F04DBC4F99A0BB3BC6873CE2A036BD930E24BEDF5199BDA1F5053E559E8CBD094532BE6C4F07BE1FDBA33D9D97233DC2F634BE5FCDB53D2FBEF53C70C6B23D1478303E3B6D333E0DB572BDBB54F23DDA8084BDB9132B3E0CB691BCAF116FBD3819B8BDD814E43D511F0EBE1FB532BEB252023E812573BD017099BDFC8C123E269BA13DC3AA033EFB18283E29103CBC94CFD33D2462513D5D0F09BE0BB8D73D770B1CBDD5853B3B6E7CBB3DA29F1BBCF85427BDE5C687BB84FD753D6A4B14BE857D1E3EF7AA9C3D0B1A3F3DD77A393C2CFF003E7E0700BEACC12D3E7D35913D977077BD75E5253E6669B63DAEF0853DC0FAA83D811D0B3E1BA525BE9656AD3DD34312BD3D1733BEEF04F7BD235FBC3CFDBB29BE9D7D003EC4D28E3C01EE253E5C6C00BE840A9ABD552830BEF42292BDDC0B90BD9058AF3DE1807FBC67F90CBDC0F897BC428FEF3D9C6714BDF21C1CBE339A45BD5CD48E3C436CAFBC7C60BEBD52AFE13D06D297BD7F46A1BDA838C2BD4EC3CEBDE236CD3D2ECD2A3E36B62C3E842A5FBD6386BFBDD07438BD33A0173E0318ED3D0515083E10B42EBD0A61BBBD0B53303CF947FE3D114307BE1247033EA97104BD4F3D503CAC0DDCBD307C183EB78C5B3D473D1BBE0596FABD98FD2BBDE20DDABC76B6CDBDE39F1E3E54CB2FBE8759AA3D5282DC3C5EE91DBE5CE0313E4C7725BD818BA1BD6540303D6687F0BDC4902CBE62D1B9BD5F3200BE6F9014BEDFDF263E13791F3E06E0E7BDD2752B3E138C17BDF74891BD376F9EBD6B2228BEA0F3303D2BBAB9BD829F0A3E0B2F9C3D078C74BD14620CBE2766D93D346B303EC52F10BCED92F8BCD976343E17092CBED18D153E831531BE5DD12C3EDB1314BEE766D33C11D695BD75AE03BE7BF402BE16392A3EF93402BEE8C9343C349D063DDFC027BE158315BE2F53093EFBDE253EF00040BCBD812B3E3B0118BE851AAA3D83F0DE3DE2A7DDBDAF720FBD053F06BEEC5A80BDDE7DCE3D4382CCBD6C3917BEC7612FBE6AEBBFBC959CD6BD0D74073EC2DC98BDC936D13CA4590C3DEB5D303CF227E43C9FAC0B3E19887CBD340D59BDD6EF0DBE544D6E3D99D23BBD61F06ABBC5D9BBBD7AC00ABE8FC3D9BD38F3AD3D6F5D2FBEDC51A0BDB1940CBE07556CBD60F2843D20EA11BE9788123EE9EBF6BDFFE62B3EE106963DC13427BE0F99C3BC2FED1F3E356556BD094A9EBD4E23063E23EDD0BDB8E1873C3CA22A3E0CA3323DB023C8BDAC4C15BE65A72FBB20AEE33DAF430F3D35EE243DEFC544BDA59FD8BCA0C1EC3D34BB793CD969E7BDA66F03BEA6955EBD375BC2BDFB9EEBBD624A063CDE7FD4BD727E493DF35E0B3D15A6DDBDF1ABC13D04BE02BE3A471ABD5B860A3E7284713D5345263E145F29BB5C44583DE3D5C83DFB0BF33D42AC443D0C20A1BDCFF03EBD65606ABCDD348EBC1F09143EB84655BDC6882A3C5EAC4CBD5500023D6BF8933B56E096BC19D7B2BD069D63BD82511CBE7BE816BE4194DEBDC9CEF8BD93F8A3BD6DE4093D084128BDF80C533B34B4973C585A653CFB699BBC5F6CFDBDC57E46BD12C589BB9DE46CBD3F0D083EF8FD193EFF2ABA399A661DBEBAD485BD7EC933BE1408D63DC237E6BD2DEC97BD9B88CA3B51F3F3BCE5EAA83C4CE818BE21D412BE6DF606BEB5737F3B9ACC9F3DBCEA1CBEADDA1E3E27F37DBD818C26BC8BFFAEBC0C801D3EB885173E5FF68D3D6E28843D7CC2923DB8B3883D8F1D213E685F88BDD2C03D3C609CA73D58313D3DFDA5923D2F2DBEBD054D0F3E7230813D12DBBDBDD9DC20BE61EAF5BD52E5D93D10D382BDCBC9D0BDEB28B83DA8C71E3D913064BDE3FA533D77FAF73DCED9363D64D408BEA29253BDE54CD7BD1309C1BD4B6AB4BDEB46AF3D8AD2223E6CA747BD65EFA9BD7865313DAD46CCBD4ADEB4BD3D4E21BCD8A1263E9152F23C6091DFBD59ABCFBD77978FBD9D70983D673623BE1FD9153ECCC5DC3D1328E3BD555AAD3D49D8223E3DAB2FBE860FF2BC898CA0BDBEDA52BDBF557F3DDCBEE83D5C45F73D2A5F7ABD1F6FA93DE367A73DFC95E1BCB05F813DE8CDA33D8D74BBBCFF8523BE4C897BBD53B0293EA6BA94BDC4E28ABDD0DCCBBC824523BECAB0EBBDDCCB283E84B643BD34B3753D183745BDC87931BE2F43EA3C646CF33D896C6D3DCD5871BD9ADDDD3CFC7407BE1847AD3DA5212FBEF32F2FBEA4E624BE825115BE57D016BE2A47233E1A71EABA38F1FFBA40B08EBC076EE83D174E2E3E09F4CFBC2A6733BE835DA53C5A5BE5BDEDEDCBBD4C02B5BCE41518BE48802B3D694CD53D4ADD09BC1151863DDC49DDBD00E9293E275BE7BDFBB40F3E589D803DA00A533DC3D9E23D2219273E3D86213E58C7D13BFFE989BDE64D23BEBC5C323EA84FEC3D84C7913D090A9BBDEFBD55BD04AE3DBD1D8C2EBE710C5FBD4DD6B2BDD886FD3D1B0AFB3BD90B17BE5D9E0C3D92A8153EDC721DBEF9941DBD5E0CF3BD7B934DBCA0D8F73D6C5E183E457B04BD5AC0073DD98D0DBE958CA8BC6A55C83DC121A2BDCD236F3C11EF1F3ECECDB0BDD35F11BD9B58753D2440B6BDF425993D25B3DEBCE4C434BDAA59213DD9D69C3D559C1EBE291D32BE391D1A3DD957A23C998497BD723415BEBC2F303E0F941D3E4D5C7C3DEBF5DD3D7ADBAB3CED65F13D30A1D03DC795303CA63A45BDD021B43DB69B2C3EA9B28E3DE6DDA0BDCCD12D3EF9AFE7BDB574CEBD0F090CBE894CAABD403960BCD95A51BD568E3CBDA884D9BC9C17AD3D49AAE43DA5A5F5BDE2B9143EB338A0BCA87033BEB1B2213D70E12CBE269C09BCCE100ABE921E2F3D46A1C23D6722063E7CA09F3DCAF4E43BA795113E5B02B03D48FA1E3DCE4AA53D74DFD7BD46CB073E69C68F3DA24E0A3E72A474BC708AB1BD560C90BD77EB35BC56DFF6BDA10E67BD873428BD699F303C9B6C1A3E9925E33DD7AF1D3D3EC91D3EF25619BCA0A269BCED120FBEF52A093EA7FA5ABDA2B2F43DC4E60EBE3CF3E93A115ADFBA9A601C3EA9185F3DBFB41D3D11AA853DA58C073D9D80FF3DD71A15BD9BE729BEE4E1DE3D5BA13D3B19EAE3BD8D6C183E88C8703D88BFEFBDA8C6E73D39F2F73DC67D103EA2A341BC2C1698BD047FCABCD72A363C24161D3E50571ABD1ECE113EBC3B92BC53087E3D7A255B3D9320303D9923C6BA342E423D6D8DDA3C9B1AFA3D838627BD4154C4BD73F8CA3DFFAD733D605333BE94C2253E865A1F3E06C0DFBCD6AD853D4C30F13C728D823CEAA1963D9B232FBD1335323EA2C1C0BDF4B014BE6C2CEABC2679AE3CF8CCBABDADD5253D5368ACBDA728B2BCDAA9A43D74E2B0BDBC6F973D6041203E79FFE4BD78EED13DC4B3E6BC0462CBBD33DC173CA3B4333E363E17BEE3BE2C3E87C662BCFFF68CBD52D312BEBBBEC4BC11E0143E4207063E314DFBBC8383BFBC1156D3BD6F3D86BC1185C03D1FC3333E9AC4A33DB1940B3EC23798BDEEF4F73D77D6D43BD8E1DD3CD92F813D1BFE083EBC91243E6EF3E83D0EF920BDD88E9C3D366BC0BD28BC783D01C96EBDADF92C3C938017BE95DA213E5B841ABE4F5529BE894A04BE785F2A3EEBC01C3E292EDD3D957CF23D65E1F13DB50ADDBDDC6D1ABE3F9F2A3E94FFE93DB88AE0BD50C8033E738E7ABC9C2CA7BD73BA0EBEF429EDBDABEAECBC9E37DF3D8421B2BD1744ECBD3B922D3E75B1F53C09E52FBEF59166BDDCE00DBE7E1A9C3C3E611B3E6B961A3EB09DCE3D069A263EB1AFF93D5086C93D05B593BC8A7D6F3DD6CDB9BBAF4E053ECE3A073E638A1ABE"> : tensor<32x32xf32>,
]>
module {
  hal.executable private @mlp_linked {
    hal.executable.binary public @system_elf_x86_64 attributes {data = dense<"0x7F454C4602010100000000000000000003003E000100000000000000000000004000000000000000A02400000000000000000000400038000700400016001400060000000400000040000000000000004000000000000000400000000000000088010000000000008801000000000000080000000000000001000000040000000000000000000000000000000000000000000000000000009809000000000000980900000000000000100000000000000100000005000000A009000000000000A019000000000000A0190000000000006B070000000000006B07000000000000001000000000000001000000060000001011000000000000103100000000000010310000000000001002000000000000F00E00000000000000100000000000000200000006000000701200000000000070320000000000007032000000000000B000000000000000B000000000000000080000000000000052E57464040000001011000000000000103100000000000010310000000000001002000000000000F00E000000000000010000000000000051E57464060000000000000000000000000000000000000000000000000000000000000000000000000000000000000000000000000000000000000000000000000000000000000000000000000000000100000012000700901D00000000000011000000000000000100000001000000010000001A000000000000000001100001000000A99A14D302000000020000000000000001000000000000000000000000697265655F68616C5F65786563757461626C655F6C6962726172795F717565727900000000000018310000000000000800000000000000C00600000000000030310000000000000800000000000000A01900000000000038310000000000000800000000000000E01A00000000000040310000000000000800000000000000301C00000000000050310000000000000800000000000000900700000000000058310000000000000800000000000000C40700000000000060310000000000000800000000000000F807000000000000783100000000000008000000000000002B0800000000000088310000000000000800000000000000A408000000000000983100000000000008000000000000001D09000000000000A83100000000000008000000000000009809000000000000B03100000000000008000000000000009809000000000000C03100000000000008000000000000009809000000000000C83100000000000008000000000000009809000000000000D83100000000000008000000000000009809000000000000E03100000000000008000000000000009809000000000000F0310000000000000800000000000000103100000000000010320000000000000800000000000000303100000000000018320000000000000800000000000000D00600000000000030320000000000000800000000000000503100000000000048320000000000000800000000000000703100000000000050320000000000000800000000000000A0310000000000000000000000000000000000000000000000000000000000001A34C53D9BA81FBE992A88BE6AB681BE75D473BEDE4F51BEBCE80C3AB20F7DBE3B65E4BD02E84CBE3AED9DBE47321F3EBE5F5F3D1A59223D8063153E6AC8883E7693A03E23FB70BD7F2E75BE7DCC9F3D403CA03E0F79853EEECECE3CBD6A7A3EF96A593D0421C9BDDE4A6E3E8F4178BB05A597BE779586BE567896BDB4782B3E3766263E773BA4BDF3A21D3E6C7FB33CB37D0FBEDDE4FEBDF37D19BE0A06263EA020D73DD4FFAFBDD1A48E3D7B9910BE6E8608BDA4311EBDBA51B3BC654F253E1F5640BD061AD4BB9E330E3EB1EFC13DA10FF3BDEE9E003E11FB113E3EBECF3D28DF073E1F63C1BDF4B4243EB404BEBDE2FA05BEB2579BBD7C77343ED7CDB2BD709D193E23F9E5BD00000000000000000000000000000000000000000000000000000000000000000000000000000000000000000000000000000000000000006C3E18BEFB3103BC885A1EBE215C923D4F9122BEF676CCBD6E0D53BD8D22193D9F08673C3E8CDABDB425313E995023BE456509BE1C2080BD3FFB9B3C1D672BBE3FE5F2BDF7EA18BE514801BE4963063D2F3C253E79502A3E86C5D73D4D80A3BCF848B0BD065A213E8EFEF93D4931D5BC60A26F3D40544F3D4BFE26BEE91001BD7DC4D23D9F95113E37F99DBD3B4D633C77A8CF3B5B3393BD98500A3E0D94313DA9E1BA3D46B526BD25C0073ED5C103BE49465C3D31D34C3DEBDC843D9D4831BE5871323E752F9DBD6DF119BE63F0A1BCEF83EBBD40593D3D2F51A0BC4D0579BD2665EEBB27D6D93BFF76343CD4010C37930DA9BD841D32BD5538023E09513CBD6D6C705F6C696E6B65640000000000000000000000000000000002030100000001000000010000000000000000000000000000000000000000000000000000000000000000000000000000000000000000000000000000000000040301000000010000000100000000000000000000000000000000000000000000000000000000000000000000000000000000000000000000000000000000000402010000000100000001000000000000000000000000000000000000000000000000000000000000000000000000000000000000006D61696E5F6772617068246173796E635F64697370617463685F305F6D61746D756C5F6C696B655F447833327831305F663332006D61696E5F6772617068246173796E635F64697370617463685F315F6D61746D756C5F6C696B655F447833327833325F663332006D61696E5F6772617068246173796E635F64697370617463685F325F6D61746D756C5F6C696B655F4478327833325F663332002F73637261746368322F6D65726C696E2F73616D706C65732F636F72655F70696E6E696E675F73696E676C655F776F726B6C6F61642F6D6F64656C732F636F6E666967732F2F636F6E666967757265645F6D6F64756C655F6D61696E5F6772617068246173796E635F64697370617463685F302E6D6C6972002F73637261746368322F6D65726C696E2F73616D706C65732F636F72655F70696E6E696E675F73696E676C655F776F726B6C6F61642F6D6F64656C732F636F6E666967732F2F636F6E666967757265645F6D6F64756C655F6D61696E5F6772617068246173796E635F64697370617463685F312E6D6C6972002F73637261746368322F6D65726C696E2F73616D706C65732F636F72655F70696E6E696E675F73696E676C655F776F726B6C6F61642F6D6F64656C732F636F6E666967732F2F636F6E666967757265645F6D6F64756C655F6D61696E5F6772617068246173796E635F64697370617463685F322E6D6C69720000000000000000000000554889E553488B46184C8B008B024889C148C1E1064929C84D85C00F8E160100004C8B4E204983F840BF40000000C5F857C0490F42F848C1E00D4531C0498B7108498B11490341104C8D0D91EAFFFF4883C620666666662E0F1F8400000000004D8D14084989F331DB49C1E2034F8D14926666666666662E0F1F840000000000C4C17A104BE0C4C17A1053E4C4C17A105BE8C4C17A1063ECC4C17A106BF0C4C17A1073F4C4C17A107BF8C4417A1043FCC4A279990C12C4A269B94C1204C4C17B10134983C328C4A261B94C1208C4A259B94C120CC5FA16DAC4A251B94C1210C4A249B94C1214C4A241B94C1218C4A239B94C121CC4A27199541220C4A261B9541224C4A16A580C0BC5F2C2D002C5E855C9C5FA110C184883C3044881FB800000000F8559FFFFFF49FFC04883E8804939F80F8529FFFFFF31C05B5DC3CCCCCCCC554889E54156534C8B4E188B3A4D8B41084889F848C1E0064929C04D85C00F8E20010000488B762048BAFCFFFFFFFFFFFF1F492311B9000500004C8D0DDFE9FFFFC5F857C04C8B1648034E08480356104983F840BE40000000490F42F048C1E70D4531C04A8D7C171C0F1F80000000004D8D14004989CB31DB49C1E2074901D249C7C6F8FFFFFFC5F057C90F1F440000C4817A1054B320C4817A105CB324C4817A1064B328C4817A106CB32CC4817A1074B330C4817A107CB334C4017A1044B338C4017A104CB33CC4A2719954B704C4A261B954B708C4A259B954B70CC4A251B954B710C4A249B954B714C4A241B954B718C4A239B954B71CC5F828CAC4A231B94CB7204983C6084983FE187282C4C172580C994983EB80C5F2C2D002C5E855C9C4C17A110C9A48FFC34883FB200F854CFFFFFF49FFC04883EF804939F00F852CFFFFFF31C05B415E5DC3CCCCCCCCCC554889E54157415653488B4E188B12488B79084889D048C1E0064829C74885FF0F8E26010000488B762041B9023B0000C462B0F7094883FF40B940000000480F42CF48C1E20D4C8B064A8D3C8A488B56084C8D0DF8E8FFFF498D74381C4C8D052CE9FFFF31FF662E0F1F8400000000004C8D14074531DB31DB4E8D14D20F1F004989DE49C1E60749C7C7F8FFFFFFC5F857C04D01C666662E0F1F840000000000C4817A104CBE20C4817A1054BE24C4817A105CBE28C4817A1064BE2CC4817A106CBE30C4817A1074BE34C4817A107CBE38C4017A1044BE3CC4A279994CBE04C4A269B94CBE08C4A261B94CBE0CC4A259B94CBE10C4A251B94CBE14C4A249B94CBE18C4A241B94CBE1CC5F828C1C4A239B944BE204983C7084983FF187282C4C17A580499C4C17A11049ABB0100000041F6C30141B3010F8444FFFFFF48FFC74883EE804839CF0F8524FFFFFF31C05B415E415F5DC3CCCCCCCCCCCCCCCCCCCCCC31C083FF06488D0D54140000480F44C1C3CCCCCCCCCCCCCCCCCCCCCCCCCCCCCC89F8250080000089FA89F981E1FF030000C1E0106681E2007C741D81E7007C000081FF007C000075246685C974360D0000C07FC5F96EC0C30FB7C90D00008033C5822AC1C5F96EC8C5FA59C1C30FB7C90FB7D201CAC1E20D8D840200000038C5F96EC0C30D0000807FC5F96EC0C3CCCCC5F97EC689F0C1E81089F181E10000807F741A89F281E2FFFF7F0081F90000807F751685D2741A0DFF7F0000C389CA09D1250080000009C8C381F9000000477611BA007C000031C909D1250080000009C8C381F900008038730E31C931D209D1250080000009C8C381E600200000C1E91783FE0183DA0081C20010000081FA0000800089D683D9FFC1EE0D31FF81FA000080000F42FEC1E10A89CA81C20040FEFF89F909D1250080000009C8C3CCCCCC89F8250080000089FA89F981E1FF030000C1E0106681E2007C741D81E7007C000081FF007C000075246685C974360D0000C07FC5F96EC0C30FB7C90D00008033C5822AC1C5F96EC8C5FA59C1C30FB7C90FB7D201CAC1E20D8D840200000038C5F96EC0C30D0000807FC5F96EC0C3CCCCC5F97EC189C8C1E01089CA81E2FF03000089CE250000008081E6007C0000741781FE007C000075246685D274340D0000C07FC5F96EC0C30FB7CA0D00008033C5822AC1C5F96EC8C5FA59C1C381E1FF7F0000C1E10D8D840100000038C5F96EC0C30D0000807FC5F96EC0C3CCCCCCCCCCC5F97EC689F0C1E81089F181E10000807F741A89F281E2FFFF7F0081F90000807F751685D2741A0DFF7F0000C389CA09D1250080000009C8C381F9000000477611BA007C000031C909D1250080000009C8C381F900008038730E31C931D209D1250080000009C8C381E600200000C1E91783FE0183DA0081C20010000081FA0000800089D683D9FFC1EE0D31FF81FA000080000F42FEC1E10A89CA81C20040FEFF89F909D1250080000009C8C3CCCCCCC5F97EC689F0C1E81089F181E10000807F742589F281E2FFFF7F0081F90000807F751985D2741D0DFF7F000066894424FCC5FA104424FCC389CAEB5A81F9000000477609BA007C000031C9EB4981F900008038730631C931D2EB3B81E600200000C1E91783FE0183DA0081C20010000081FA0000800089D683D9FFC1EE0D31FF81FA000080000F42FEC1E10A89CA81C20040FEFF89F909D1250080000009C866894424FCC5FA104424FCC3000000000006000000000000000000000000000000000000000000000000000000000000000000000000000000000000000000000000000000000000000000000000000000000000000000000000000000000000000000000000000000000000000000000003000000780000000000000000000000030000007800000000000000000000000300000078000000000000000000000000000000000000000000000000000000000000000000000000000000000000000000000000000000000000000000000000000000000000000000000000000000000000000000000000000000000000000000000000000000000000000000000000000000000000000300000000000000000000000000000000000000000000000000000000000000000000000000000000000000000000000000000000000000000000000000000000000000000000000000000000000000000000000000000000000000000000000000000000000000070000000000000058020000000000000800000000000000100200000000000009000000000000001800000000000000F9FFFF6F0000000016000000000000000600000000000000C8010000000000000B000000000000001800000000000000050000000000000030020000000000000A000000000000002300000000000000F5FEFF6F00000000F8010000000000000400000000000000180200000000000000000000000000000000000000000000011101250E1305030E10171B0EB44219110112060000022E001101120640186E0E030E3A0B3B0B49133F190000032400030E3E0B0B0B0000042E001101120640186E0E030E3A0B3B0B49103F190000004B00000004000000000008017D0100002C0017010000000000009F000000A0190000000000003C01000002A0190000000000003C0100000156000000000000000001014700000003670000000504004400000004000000000008017D0100002C00E4000000AD0000009F000000E01A0000000000004B01000004E01A0000000000004B01000001566B0000006B000000010147000000004400000004000000000008017D0100002C004A010000500100009F000000301C0000000000005501000004301C0000000000005501000001563400000034000000010147000000006D61696E5F6772617068246173796E635F64697370617463685F305F6D61746D756C5F6C696B655F447833327831305F663332006D61696E5F6772617068246173796E635F64697370617463685F325F6D61746D756C5F6C696B655F4478327833325F66333200696E74006D61696E5F6772617068246173796E635F64697370617463685F315F6D61746D756C5F6C696B655F447833327833325F663332002F73637261746368322F6D65726C696E2F73616D706C65732F636F72655F70696E6E696E675F73696E676C655F776F726B6C6F61642F6D6F64656C732F636F6E6669677300636F6E666967757265645F6D6F64756C655F6D61696E5F6772617068246173796E635F64697370617463685F312E6D6C697200636F6E666967757265645F6D6F64756C655F6D61696E5F6772617068246173796E635F64697370617463685F302E6D6C697200636F6E666967757265645F6D6F64756C655F6D61696E5F6772617068246173796E635F64697370617463685F322E6D6C6972004952454500460000000200000000004F0000002A0000006D61696E5F6772617068246173796E635F64697370617463685F305F6D61746D756C5F6C696B655F447833327831305F66333200000000004600000002004F000000480000002A0000006D61696E5F6772617068246173796E635F64697370617463685F315F6D61746D756C5F6C696B655F447833327833325F663332000000000045000000020097000000480000002A0000006D61696E5F6772617068246173796E635F64697370617463685F325F6D61746D756C5F6C696B655F4478327833325F6633320000000000160000000200000000004F00000047000000696E7400000000000E00000002004F00000048000000000000000E00000002009700000048000000000000000000000014000000FFFFFFFF040008000178100C07089001000000002C00000000000000A0190000000000003C01000000000000410E108602430D064183030336010C0708000000000000002C00000000000000E01A0000000000004B01000000000000410E108602430D064383048E030343010C070800000000002C00000000000000301C0000000000005501000000000000410E108602430D064583058E048F03034B010C07080000001400000000000000901D00000000000011000000000000001400000000000000B01D0000000000006E000000000000001400000000000000201E000000000000AD000000000000001400000000000000D01E0000000000006E000000000000001400000000000000401F0000000000006B000000000000001400000000000000B01F000000000000AD0000000000000014000000000000006020000000000000AB00000000000000A900000004004A000000010101FB0E0D00010101010000000100000100636F6E666967757265645F6D6F64756C655F6D61696E5F6772617068246173796E635F64697370617463685F302E6D6C69720000000000000902A0190000000000000105080A030C580310740500060363084A0508031D4A0500036308740508031D740363E4031DC803630812050A060320E40508023D0F050A93023C170508037866030E022F01060B2E02030001019F00000004004A000000010101FB0E0D00010101010000000100000100636F6E666967757265645F6D6F64756C655F6D61696E5F6772617068246173796E635F64697370617463685F312E6D6C69720000000000000902E01A0000000000000105080A030D74031A4A03682E03184A060358082E0328022C01035808820328740358F2050A06032BF2050802740F050AA60508037866030E023001060B2E0205000101B700000004004A000000010101FB0E0D00010101010000000100000100636F6E666967757265645F6D6F64756C655F6D61696E5F6772617068246173796E635F64697370617463685F322E6D6C69720000000000000902301C0000000000000105080A030D9003184A036A2E03164A050006035A082E05080326E40500035A0812050803263C0500035A4A05080326AC035AD603269E035AC8050A060329022301050802740F050AA60508037866030C022801060B2E02070001014C696E6B65723A204C4C442032312E312E38202868747470733A2F2F6769746875622E636F6D2F636F6E64612D666F7267652F6C6C766D6465762D6665656473746F636B20383738663632303362666335653337363161303064303562393338383431643334393339343965302900000000000000000000000000000000000000000000000000000000000000010000000400F1FF000000000000000000000000000000000C00000002000700A0190000000000003C010000000000004000000001000600800400000000000080000000000000005200000002000700E01A0000000000004B010000000000008600000001000600000500000000000080000000000000009A00000002000700301C0000000000005501000000000000CD0000000100060080050000000000000800000000000000DE00000001000600C0050000000000000001000000000000F200000001000800F03100000000000080000000000000001701000002000700B01D0000000000006E000000000000002501000002000700201E000000000000AD000000000000003301000002000700D01E0000000000006E000000000000004201000002000700401F0000000000006B000000000000005001000002000700B01F000000000000AD000000000000005F010000020007006020000000000000AB000000000000006C01000001000600C0060000000000000B00000000000000780100000100080010310000000000001800000000000000A40100000100080030310000000000001800000000000000CF01000001000600D006000000000000C000000000000000FA01000001000600900700000000000034000000000000000602000001000600C40700000000000034000000000000001202000001000600F80700000000000033000000000000001E020000010008005031000000000000180000000000000049020000010006002B0800000000000079000000000000005502000001000600A408000000000000790000000000000061020000010006001D0900000000000079000000000000006D0200000100080070310000000000003000000000000000A30200000100060098090000000000000000000000000000080300000100060098090000000000000000000000000000780300000100060098090000000000000000000000000000DD03000001000600980900000000000000000000000000004D0400000100060098090000000000000000000000000000B104000001000600980900000000000000000000000000002005000001000800A03100000000000048000000000000007D05000000020900703200000000000000000000000000005B05000012000700901D0000000000001100000000000000002E64796E73796D002E676E752E68617368002E68617368002E64796E737472002E72656C612E64796E002E726F64617461002E74657874002E646174612E72656C2E726F002E64796E616D6963002E72656C726F5F70616464696E67002E64656275675F616262726576002E64656275675F696E666F002E64656275675F737472002E64656275675F7075626E616D6573002E64656275675F7075627479706573002E64656275675F6672616D65002E64656275675F6C696E65002E636F6D6D656E74002E73796D746162002E7368737472746162002E73747274616200006D6C705F6C696E6B6564006D61696E5F6772617068246173796E635F64697370617463685F305F6D61746D756C5F6C696B655F447833327831305F663332005F5F636F6E7374616E745F333278663332006D61696E5F6772617068246173796E635F64697370617463685F315F6D61746D756C5F6C696B655F447833327833325F663332005F5F636F6E7374616E745F3332786633325F30006D61696E5F6772617068246173796E635F64697370617463685F325F6D61746D756C5F6C696B655F4478327833325F663332005F5F636F6E7374616E745F3278663332005F5F636F6E7374616E745F327833327866333200697265655F68616C5F65786563757461626C655F6C6962726172795F71756572795F763000697265655F6832665F6965656500697265655F6632685F69656565005F5F676E755F6832665F69656565005F5F657874656E646866736632005F5F676E755F6632685F69656565005F5F7472756E637366686632005F5F756E6E616D65645F3100697265655F68616C5F65786563757461626C655F6C6962726172795F71756572795F76305F68656164657200697265655F68616C5F65786563757461626C655F6C6962726172795F71756572795F76305F66756E637300697265655F68616C5F65786563757461626C655F6C6962726172795F71756572795F76305F6174747273005F5F756E6E616D65645F32005F5F756E6E616D65645F33005F5F756E6E616D65645F3400697265655F68616C5F65786563757461626C655F6C6962726172795F71756572795F76305F6E616D6573005F5F756E6E616D65645F35005F5F756E6E616D65645F36005F5F756E6E616D65645F3700697265655F68616C5F65786563757461626C655F6C6962726172795F71756572795F76305F736F757263655F6C6F636174696F6E7300697265655F68616C5F65786563757461626C655F6C6962726172795F71756572795F76305F6D61696E5F6772617068246173796E635F64697370617463685F305F6D61746D756C5F6C696B655F447833327831305F6633325F73746167655F6E616D657300697265655F68616C5F65786563757461626C655F6C6962726172795F71756572795F76305F6D61696E5F6772617068246173796E635F64697370617463685F305F6D61746D756C5F6C696B655F447833327831305F6633325F73746167655F736F757263655F6C6F636174696F6E7300697265655F68616C5F65786563757461626C655F6C6962726172795F71756572795F76305F6D61696E5F6772617068246173796E635F64697370617463685F315F6D61746D756C5F6C696B655F447833327833325F6633325F73746167655F6E616D657300697265655F68616C5F65786563757461626C655F6C6962726172795F71756572795F76305F6D61696E5F6772617068246173796E635F64697370617463685F315F6D61746D756C5F6C696B655F447833327833325F6633325F73746167655F736F757263655F6C6F636174696F6E7300697265655F68616C5F65786563757461626C655F6C6962726172795F71756572795F76305F6D61696E5F6772617068246173796E635F64697370617463685F325F6D61746D756C5F6C696B655F4478327833325F6633325F73746167655F6E616D657300697265655F68616C5F65786563757461626C655F6C6962726172795F71756572795F76305F6D61696E5F6772617068246173796E635F64697370617463685F325F6D61746D756C5F6C696B655F4478327833325F6633325F73746167655F736F757263655F6C6F636174696F6E7300697265655F68616C5F65786563757461626C655F6C6962726172795F71756572795F76305F73746167655F6C6F636174696F6E5F7461626C657300697265655F68616C5F65786563757461626C655F6C6962726172795F7175657279005F44594E414D49430000000000000000000000000000000000000000000000000000000000000000000000000000000000000000000000000000000000000000000000000000000000000000010000000B0000000200000000000000C801000000000000C801000000000000300000000000000004000000010000000800000000000000180000000000000009000000F6FFFF6F0200000000000000F801000000000000F80100000000000020000000000000000100000000000000080000000000000000000000000000001300000005000000020000000000000018020000000000001802000000000000180000000000000001000000000000000400000000000000040000000000000019000000030000000200000000000000300200000000000030020000000000002300000000000000000000000000000001000000000000000000000000000000210000000400000002000000000000005802000000000000580200000000000010020000000000000100000000000000080000000000000018000000000000002B00000001000000120000000000000080040000000000008004000000000000180500000000000000000000000000004000000000000000000000000000000033000000010000000600000000000000A019000000000000A0090000000000006B07000000000000000000000000000010000000000000000000000000000000390000000100000003000000000000001031000000000000101100000000000060010000000000000000000000000000100000000000000000000000000000004600000006000000030000000000000070320000000000007012000000000000B0000000000000000400000000000000080000000000000010000000000000004F00000008000000030000000000000020330000000000002013000000000000E00C0000000000000000000000000000010000000000000000000000000000005E0000000100000000000000000000000000000000000000201300000000000050000000000000000000000000000000010000000000000000000000000000006C00000001000000000000000000000000000000000000007013000000000000DF000000000000000000000000000000010000000000000000000000000000007800000001000000300000000000000000000000000000004F140000000000008201000000000000000000000000000001000000000000000100000000000000830000000100000000000000000000000000000000000000D115000000000000DD00000000000000000000000000000001000000000000000000000000000000930000000100000000000000000000000000000000000000AE160000000000003E00000000000000000000000000000001000000000000000000000000000000A30000000100000000000000000000000000000000000000F0160000000000005001000000000000000000000000000008000000000000000000000000000000B0000000010000000000000000000000000000000000000040180000000000000B02000000000000000000000000000001000000000000000000000000000000BC00000001000000300000000000000000000000000000004B1A0000000000006F00000000000000000000000000000001000000000000000100000000000000C50000000200000000000000000000000000000000000000C01A0000000000007803000000000000150000002400000008000000000000001800000000000000CD0000000300000000000000000000000000000000000000381E000000000000DF00000000000000000000000000000001000000000000000000000000000000D70000000300000000000000000000000000000000000000171F0000000000008605000000000000000000000000000001000000000000000000000000000000"> : vector<10784xi8>, format = "system-elf-x86_64", mime_type = "application/x-elf"}
  }
  util.global private @__device_0 : !hal.device
  util.initializer {
    %c18_i32 = arith.constant 18 : i32
    %false = arith.constant false
    %c0 = arith.constant 0 : index
    %c1 = arith.constant 1 : index
    %0 = util.null : !hal.device
    %device_count = hal.devices.count : index
    cf.br ^bb1(%c0, %c0, %0 : index, index, !hal.device)
  ^bb1(%1: index, %2: index, %3: !hal.device):  // 2 preds: ^bb0, ^bb4
    %4 = util.cmp.eq %3, %0 : !hal.device
    %5 = arith.cmpi slt, %1, %device_count : index
    %6 = arith.andi %4, %5 : i1
    cf.cond_br %6, ^bb2, ^bb5
  ^bb2:  // pred: ^bb1
    %device_n = hal.devices.get %1 : !hal.device
    %ok, %value = hal.device.query<%device_n : !hal.device> key("hal.device.id" :: "local*") : i1, i1 = false
    cf.cond_br %value, ^bb3, ^bb4(%false : i1)
  ^bb3:  // pred: ^bb2
    %ok_0, %value_1 = hal.device.query<%device_n : !hal.device> key("hal.executable.format" :: "system-elf-x86_64") : i1, i1 = false
    cf.br ^bb4(%value_1 : i1)
  ^bb4(%7: i1):  // 2 preds: ^bb2, ^bb3
    %8 = arith.cmpi eq, %2, %c0 : index
    %9 = arith.select %7, %c1, %c0 : index
    %10 = arith.addi %2, %9 : index
    %11 = arith.andi %7, %8 : i1
    %12 = arith.select %11, %device_n, %0 : !hal.device
    %13 = arith.addi %1, %c1 : index
    cf.br ^bb1(%13, %10, %12 : index, index, !hal.device)
  ^bb5:  // pred: ^bb1
    cf.cond_br %4, ^bb6, ^bb7
  ^bb6:  // pred: ^bb5
    util.status.check_ok %c18_i32, "HAL device `__device_0` not found or unavailable: #hal.device.target<\22local\22, [#hal.executable.target<\22llvm-cpu\22, \22system-elf-x86_64\22, {cpu = \22znver3\22, cpu_features = \22+prfchw,-cldemote,+avx,+aes,+sahf,+pclmul,-xop,+crc32,-amx-fp8,+xsaves,-avx512fp16,-usermsr,-sm4,-egpr,+sse4.1,-avx10.1,-avx512ifma,+xsave,+sse4.2,-tsxldtrk,-sm3,-ptwrite,-widekl,-movrs,+invpcid,+64bit,+xsavec,-avx512vpopcntdq,+cmov,-avx512vp2intersect,-avx512cd,+movbe,-avxvnniint8,-ccmp,-amx-int8,-kl,-sha512,-avxvnni,-rtm,+adx,+avx2,-hreset,-movdiri,-serialize,+vpclmulqdq,-avx512vl,-uintr,-cf,+clflushopt,-raoint,-cmpccxadd,+bmi,-amx-tile,+sse,-gfni,-avxvnniint16,-amx-fp16,-zu,-ndd,+xsaveopt,+rdrnd,-avx512f,-amx-bf16,-avx512bf16,-avx512vnni,-push2pop2,+cx8,-avx512bw,+sse3,+pku,-nf,-amx-tf32,-amx-avx512,+fsgsbase,+clzero,+mwaitx,-lwp,+lzcnt,+sha,-movdir64b,-ppx,+wbnoinvd,-enqcmd,-amx-transpose,-avxneconvert,-tbm,-pconfig,-amx-complex,+ssse3,+cx16,-avx10.2,+bmi2,+fma,+popcnt,-avxifma,+f16c,-avx512bitalg,+rdpru,+clwb,+mmx,+sse2,+rdseed,-avx512vbmi2,-prefetchi,-amx-movrs,+rdpid,-fma4,-avx512vbmi,+shstk,+vaes,-waitpkg,-sgx,+fxsr,-avx512dq,+sse4a\22, data_layout = \22e-m:e-p270:32:32-p271:32:32-p272:64:64-i64:64-i128:128-f80:128-n8:16:32:64-S128\22, iree.encoding.resolver = #iree_cpu.cpu_encoding_resolver<>, link_embedded = false, max_stack_allocation_size = 32768 : i64, native_vector_size = 32 : i64, target_triple = \22x86_64-unknown-linux-gnu\22}>]>"
    cf.br ^bb7
  ^bb7:  // 2 preds: ^bb5, ^bb6
    util.global.store %3, @__device_0 : !hal.device
    util.return
  }
  util.global private @__device_0_query_0_hal_executable_format_system_elf_x86_64 : i1
  util.initializer {
    %__device_0 = util.global.load @__device_0 : !hal.device
    %ok, %value = hal.device.query<%__device_0 : !hal.device> key("hal.executable.format" :: "system-elf-x86_64") : i1, i1 = false
    util.global.store %value, @__device_0_query_0_hal_executable_format_system_elf_x86_64 : i1
    util.return
  }
  util.global private @__device_0_executable_0_mlp_linked : !hal.executable
  util.initializer {
    %0 = util.null : !hal.executable
    %c14_i32 = arith.constant 14 : i32
    %c0 = arith.constant 0 : index
    %c-1 = arith.constant -1 : index
    %c-1_i64 = arith.constant -1 : i64
    %__device_0_query_0_hal_executable_format_system_elf_x86_64 = util.global.load @__device_0_query_0_hal_executable_format_system_elf_x86_64 : i1
    %__device_0 = util.global.load @__device_0 : !hal.device
    %1 = arith.select %__device_0_query_0_hal_executable_format_system_elf_x86_64, %c0, %c-1 : index
    %2 = arith.cmpi eq, %1, %c0 : index
    cf.cond_br %2, ^bb1, ^bb2
  ^bb1:  // pred: ^bb0
    %executable = hal.executable.create device(%__device_0 : !hal.device) affinity(%c-1_i64) target(@mlp_linked::@system_elf_x86_64) : !hal.executable
    cf.br ^bb3(%executable : !hal.executable)
  ^bb2:  // pred: ^bb0
    util.status.check_ok %c14_i32, "HAL device `__device_0` does not support any variant of executable `mlp_linked`; available formats: [system-elf-x86_64]"
    cf.br ^bb3(%0 : !hal.executable)
  ^bb3(%3: !hal.executable):  // 2 preds: ^bb1, ^bb2
    util.global.store %3, @__device_0_executable_0_mlp_linked : !hal.executable
    util.return
  }
  util.global private @__constant_tensor_32x10xf32 : !hal.buffer
  util.initializer {
    %0 = util.null : !hal.fence
    %c5376 = arith.constant 5376 : index
    %c0_i64 = arith.constant 0 : i64
    %c0 = arith.constant 0 : index
    %buffer_usage = hal.buffer_usage<"TransferSource|TransferTarget|Transfer|DispatchStorageRead|DispatchStorageWrite|DispatchStorage|SharingImmutable"> : i32
    %memory_type = hal.memory_type<"DeviceVisible|DeviceLocal"> : i32
    %c-1_i64 = arith.constant -1 : i64
    %c0_i32 = arith.constant 0 : i32
    %c-1_i32 = arith.constant -1 : i32
    %__device_0 = util.global.load immutable @__device_0 : !hal.device
    %buffer_cst = util.buffer.constant {alignment = 64 : index} : !util.buffer = #composite_of_5376b
    %allocator = hal.device.allocator<%__device_0 : !hal.device> : !hal.allocator
    %did_import, %mapped = hal.allocator.import<%allocator : !hal.allocator> source(%buffer_cst : !util.buffer)[%c0, %c5376] affinity(%c-1_i64) type(%memory_type) usage(%buffer_usage) : i1, !hal.buffer
    cf.cond_br %did_import, ^bb2(%0, %mapped : !hal.fence, !hal.buffer), ^bb1
  ^bb1:  // pred: ^bb0
    %buffer = hal.allocator.allocate<%allocator : !hal.allocator> affinity(%c-1_i64) type(%memory_type) usage(%buffer_usage) : !hal.buffer{%c5376}
    %memory_file = hal.ex.file.from_memory device(%__device_0 : !hal.device) affinity(%c-1_i64) access(Read) buffer(%buffer_cst : !util.buffer)[%c0 for %c5376] flags(%c0_i32) : !hal.file
    %fence = hal.fence.create device(%__device_0 : !hal.device) flags("None") : !hal.fence
    hal.device.queue.read<%__device_0 : !hal.device> affinity(%c-1_i64) wait(%0) signal(%fence) source(%memory_file : !hal.file)[%c0_i64] target(%buffer : !hal.buffer)[%c0] length(%c5376) flags("None")
    cf.br ^bb2(%fence, %buffer : !hal.fence, !hal.buffer)
  ^bb2(%1: !hal.fence, %2: !hal.buffer):  // 2 preds: ^bb0, ^bb1
    %status = hal.fence.await until([%1]) timeout_millis(%c-1_i32) flags("None") : i32
    util.status.check_ok %status, "failed to wait on timepoint"
    util.global.store %2, @__constant_tensor_32x10xf32 : !hal.buffer
    util.return
  }
  util.func public @main_graph$async(%arg0: !hal.buffer_view, %arg1: !hal.fence, %arg2: !hal.fence) -> !hal.buffer_view attributes {inlining_policy = #util.inline.never, iree.abi.model = "coarse-fences", iree.abi.stub} {
    %buffer_usage = hal.buffer_usage<"TransferSource|TransferTarget|Transfer|DispatchStorageRead|DispatchStorageWrite|DispatchStorage"> : i32
    %memory_type = hal.memory_type<"DeviceVisible|DeviceLocal"> : i32
    %c32_i64 = arith.constant 32 : i64
    %c8 = arith.constant 8 : index
    %c0 = arith.constant 0 : index
    %c128 = arith.constant 128 : index
    %c40 = arith.constant 40 : index
    %c10 = arith.constant 10 : index
    %c5376 = arith.constant 5376 : index
    %c-1_i64 = arith.constant -1 : i64
    %c0_i64 = arith.constant 0 : i64
    %c64 = arith.constant 64 : index
    %c1 = arith.constant 1 : index
    %c2 = arith.constant 2 : index
    %__constant_tensor_32x10xf32 = util.global.load immutable @__constant_tensor_32x10xf32 : !hal.buffer
    %__device_0 = util.global.load immutable @__device_0 : !hal.device
    %__device_0_executable_0_mlp_linked = util.global.load immutable @__device_0_executable_0_mlp_linked : !hal.executable
    %0 = hal.buffer_view.dim<%arg0 : !hal.buffer_view>[0] : index
    %element_type_f32 = hal.element_type<f32> : i32
    %dense_row_major = hal.encoding_type<dense_row_major> : i32
    hal.buffer_view.assert<%arg0 : !hal.buffer_view> message("tensor") shape([%0, %c10]) type(%element_type_f32) encoding(%dense_row_major)
    %1 = arith.muli %0, %c40 : index
    %buffer = hal.buffer_view.buffer<%arg0 : !hal.buffer_view> : !hal.buffer
    %allocator = hal.device.allocator<%__device_0 : !hal.device> : !hal.allocator
    hal.buffer.assert<%buffer : !hal.buffer> message("tensor") allocator(%allocator : !hal.allocator) minimum_length(%1) type(DeviceVisible) usage("TransferSource|TransferTarget|Transfer|DispatchStorageRead|DispatchStorageWrite|DispatchStorage")
    %2 = arith.muli %0, %c128 : index
    %3 = arith.muli %0, %c8 : index
    %fence = hal.fence.create device(%__device_0 : !hal.device) flags("None") : !hal.fence
    %transient_buffer = hal.device.queue.alloca<%__device_0 : !hal.device> affinity(%c-1_i64) wait(%arg1) signal(%fence) pool(%c0_i64) type(%memory_type) usage(%buffer_usage) flags("None") : !hal.buffer{%3}
    %4 = arith.addi %2, %2 : index
    %fence_0 = hal.fence.create device(%__device_0 : !hal.device) flags("None") : !hal.fence
    %transient_buffer_1 = hal.device.queue.alloca<%__device_0 : !hal.device> affinity(%c-1_i64) wait(%arg1) signal(%fence_0) pool(%c0_i64) type(%memory_type) usage(%buffer_usage) flags("None") : !hal.buffer{%4}
    %fence_2 = hal.fence.join at([%fence, %fence_0]) flags("None") -> !hal.fence
    %5 = arith.index_castui %0 : index to i64
    %6 = arith.index_castui %0 : index to i32
    %7 = arith.shrui %5, %c32_i64 : i64
    %8 = arith.trunci %7 : i64 to i32
    %9 = arith.index_castui %2 : index to i64
    %10 = arith.index_castui %2 : index to i32
    %11 = arith.shrui %9, %c32_i64 : i64
    %12 = arith.trunci %11 : i64 to i32
    %cmd = hal.command_buffer.create device(%__device_0 : !hal.device) mode(OneShot) categories("Transfer|Dispatch") affinity(%c-1_i64) : !hal.command_buffer
    %13 = arith.cmpi sle, %0, %c0 : index
    %14 = arith.subi %c0, %0 : index
    %15 = arith.subi %0, %c1 : index
    %16 = arith.select %13, %14, %15 : index
    %17 = arith.divsi %16, %c64 : index
    %18 = arith.subi %c0, %17 : index
    %19 = arith.addi %17, %c1 : index
    %20 = arith.select %13, %18, %19 : index
    hal.command_buffer.dispatch<%cmd : !hal.command_buffer> target(%__device_0_executable_0_mlp_linked : !hal.executable)[%c0] workgroups([%20, %c1, %c1]) constants([%6, %8]) bindings([
      (%buffer : !hal.buffer)[%c0, %1], 
      (%__constant_tensor_32x10xf32 : !hal.buffer)[%c0, %c5376], 
      (%transient_buffer_1 : !hal.buffer)[%c0, %4]
    ]) flags("None")
    hal.command_buffer.execution_barrier<%cmd : !hal.command_buffer> source("Dispatch|Transfer|CommandRetire") target("CommandIssue|Dispatch|Transfer") flags("None")
    hal.command_buffer.dispatch<%cmd : !hal.command_buffer> target(%__device_0_executable_0_mlp_linked : !hal.executable)[%c1] workgroups([%20, %c1, %c1]) constants([%10, %12, %6, %8]) bindings([
      (%transient_buffer_1 : !hal.buffer)[%c0, %4], 
      (%__constant_tensor_32x10xf32 : !hal.buffer)[%c0, %c5376], 
      (%transient_buffer_1 : !hal.buffer)[%c0, %4]
    ]) flags("None")
    hal.command_buffer.execution_barrier<%cmd : !hal.command_buffer> source("Dispatch|Transfer|CommandRetire") target("CommandIssue|Dispatch|Transfer") flags("None")
    hal.command_buffer.dispatch<%cmd : !hal.command_buffer> target(%__device_0_executable_0_mlp_linked : !hal.executable)[%c2] workgroups([%20, %c1, %c1]) constants([%10, %12, %6, %8]) bindings([
      (%transient_buffer_1 : !hal.buffer)[%c0, %4], 
      (%transient_buffer : !hal.buffer)[%c0, %3]
    ]) flags("None")
    hal.command_buffer.execution_barrier<%cmd : !hal.command_buffer> source("Dispatch|Transfer|CommandRetire") target("CommandIssue|Dispatch|Transfer") flags("None")
    hal.command_buffer.finalize<%cmd : !hal.command_buffer>
    %fence_3 = hal.fence.create device(%__device_0 : !hal.device) flags("None") : !hal.fence
    hal.device.queue.execute<%__device_0 : !hal.device> affinity(%c-1_i64) wait(%fence_2) signal(%fence_3) commands(%cmd) flags("None")
    hal.device.queue.dealloca<%__device_0 : !hal.device> affinity(%c-1_i64) wait(%fence_3) signal(%arg2) buffer(%transient_buffer_1 : !hal.buffer) flags("None")
    %view = hal.buffer_view.create buffer(%transient_buffer : !hal.buffer)[%c0, %3] shape([%0, %c2]) type(%element_type_f32) encoding(%dense_row_major) : !hal.buffer_view
    util.return %view : !hal.buffer_view
  }
  util.func public @main_graph(%arg0: !hal.buffer_view) -> !hal.buffer_view attributes {iree.abi.stub} {
    %0 = util.null : !hal.fence
    %c-1_i32 = arith.constant -1 : i32
    %c0 = arith.constant 0 : index
    %device_0 = hal.devices.get %c0 : !hal.device
    %fence = hal.fence.create device(%device_0 : !hal.device) flags("None") : !hal.fence
    %1 = util.call @main_graph$async(%arg0, %0, %fence) : (!hal.buffer_view, !hal.fence, !hal.fence) -> !hal.buffer_view
    %status = hal.fence.await until([%fence]) timeout_millis(%c-1_i32) flags("None") : i32
    util.return %1 : !hal.buffer_view
  }
}
