module {
  util.global private @__device_0 : !hal.device
  util.initializer {
    %c18_i32 = arith.constant 18 : i32
    %false = arith.constant false
    %c0 = arith.constant 0 : index
    %c1 = arith.constant 1 : index
    %0 = util.null : !hal.device
    %device_count = hal.devices.count : index
    cf.br ^bb1(%c0, %c0, %0 : index, index, !hal.device)
  ^bb1(%1: index, %2: index, %3: !hal.device):  // 2 preds: ^bb0, ^bb4
    %4 = util.cmp.eq %3, %0 : !hal.device
    %5 = arith.cmpi slt, %1, %device_count : index
    %6 = arith.andi %4, %5 : i1
    cf.cond_br %6, ^bb2, ^bb5
  ^bb2:  // pred: ^bb1
    %device_n = hal.devices.get %1 : !hal.device
    %ok, %value = hal.device.query<%device_n : !hal.device> key("hal.device.id" :: "local*") : i1, i1 = false
    cf.cond_br %value, ^bb3, ^bb4(%false : i1)
  ^bb3:  // pred: ^bb2
    %ok_0, %value_1 = hal.device.query<%device_n : !hal.device> key("hal.executable.format" :: "embedded-elf-riscv_64") : i1, i1 = false
    cf.br ^bb4(%value_1 : i1)
  ^bb4(%7: i1):  // 2 preds: ^bb2, ^bb3
    %8 = arith.cmpi eq, %2, %c0 : index
    %9 = arith.select %7, %c1, %c0 : index
    %10 = arith.addi %2, %9 : index
    %11 = arith.andi %7, %8 : i1
    %12 = arith.select %11, %device_n, %0 : !hal.device
    %13 = arith.addi %1, %c1 : index
    cf.br ^bb1(%13, %10, %12 : index, index, !hal.device)
  ^bb5:  // pred: ^bb1
    cf.cond_br %4, ^bb6, ^bb7
  ^bb6:  // pred: ^bb5
    util.status.check_ok %c18_i32, "HAL device `__device_0` not found or unavailable: #hal.device.target<\22local\22, [#hal.executable.target<\22llvm-cpu\22, \22embedded-elf-riscv_64\22, {cpu = \22spacemit-x60\22, cpu_features = \22+m,+a,+f,+d,+c,+v,+zvl256b,+zba,+zbb,+zbc,+zbs,+zicbom,+zicboz,+zicbop,+zihintpause\22, data_layout = \22e-m:e-p:64:64-i64:64-i128:128-n32:64-S128\22, iree.encoding.resolver = #iree_cpu.cpu_encoding_resolver<>, loop_vectorization = true, max_stack_allocation_size = 32768 : i64, native_vector_size = 32 : i64, target_abi = \22lp64d\22, target_triple = \22riscv64-unknown-unknown-eabi-elf\22}>]>"
    cf.br ^bb7
  ^bb7:  // 2 preds: ^bb5, ^bb6
    util.global.store %3, @__device_0 : !hal.device
    util.return
  }
  util.global private @__device_0_query_0_hal_executable_format_embedded_elf_riscv_64 : i1
  util.initializer {
    %__device_0 = util.global.load @__device_0 : !hal.device
    %ok, %value = hal.device.query<%__device_0 : !hal.device> key("hal.executable.format" :: "embedded-elf-riscv_64") : i1, i1 = false
    util.global.store %value, @__device_0_query_0_hal_executable_format_embedded_elf_riscv_64 : i1
    util.return
  }
  util.global private @__device_0_executable_0_main_graph$async_dispatch_11 : !hal.executable
  util.initializer {
    %0 = util.null : !hal.executable
    %c14_i32 = arith.constant 14 : i32
    %c0 = arith.constant 0 : index
    %c-1 = arith.constant -1 : index
    %c-1_i64 = arith.constant -1 : i64
    %__device_0_query_0_hal_executable_format_embedded_elf_riscv_64 = util.global.load @__device_0_query_0_hal_executable_format_embedded_elf_riscv_64 : i1
    %__device_0 = util.global.load @__device_0 : !hal.device
    %1 = arith.select %__device_0_query_0_hal_executable_format_embedded_elf_riscv_64, %c0, %c-1 : index
    %2 = arith.cmpi eq, %1, %c0 : index
    cf.cond_br %2, ^bb1, ^bb2
  ^bb1:  // pred: ^bb0
    %executable = hal.executable.create device(%__device_0 : !hal.device) affinity(%c-1_i64) target(@main_graph$async_dispatch_11::@embedded_elf_riscv_64) : !hal.executable
    cf.br ^bb3(%executable : !hal.executable)
  ^bb2:  // pred: ^bb0
    util.status.check_ok %c14_i32, "HAL device `__device_0` does not support any variant of executable `main_graph$async_dispatch_11`; available formats: [embedded-elf-riscv_64]"
    cf.br ^bb3(%0 : !hal.executable)
  ^bb3(%3: !hal.executable):  // 2 preds: ^bb1, ^bb2
    util.global.store %3, @__device_0_executable_0_main_graph$async_dispatch_11 : !hal.executable
    util.return
  }
  hal.executable private @main_graph$async_dispatch_11 {
    hal.executable.binary public @embedded_elf_riscv_64 attributes {data = dense<"0x7F454C460201010000000000000000000300F3000100000000000000000000004000000000000000C832000000000000050000004000380008004000160014000600000004000000400000000000000040000000000000004000000000000000C001000000000000C001000000000000080000000000000001000000040000000000000000000000000000000000000000000000000000006C0D0000000000006C0D000000000000001000000000000001000000050000006C0D0000000000006C1D0000000000006C1D0000000000009A1D0000000000009A1D00000000000000100000000000000100000006000000102B000000000000104B000000000000104B000000000000A001000000000000F00400000000000000100000000000000200000006000000F02B000000000000F04B000000000000F04B000000000000C000000000000000C000000000000000080000000000000052E5746404000000102B000000000000104B000000000000104B000000000000A001000000000000F004000000000000010000000000000051E57464060000000000000000000000000000000000000000000000000000000000000000000000000000000000000000000000000000000300007004000000622E000000000000000000000000000000000000000000003F020000000000003F0200000000000001000000000000000000000000000000000000000000000000000000000000000100000012000700F63A000000000000100000000000000002000000020000000000000001000000000000000000000000697265655F68616C5F65786563757461626C655F6C6962726172795F7175657279000000000000184B0000000000000300000000000000A00B000000000000284B00000000000003000000000000006C1D000000000000304B0000000000000300000000000000000C000000000000404B0000000000000300000000000000280C000000000000584B0000000000000300000000000000D00C000000000000604B0000000000000300000000000000D00C000000000000704B0000000000000300000000000000104B000000000000904B0000000000000300000000000000284B000000000000984B0000000000000300000000000000C00B000000000000B04B0000000000000300000000000000304B000000000000C84B0000000000000300000000000000384B000000000000D04B0000000000000300000000000000504B0000000000000000000000000000000000000000000000000000000000000000000000000000000000000000000000000000000000000000000000000000000000000000000000000000000000000000000000000000000000000000000000000000000000000000000000000000000000000000000000000000000020000000000000000000000001002100000000000000000000000200220000000000000000000000030023000000000000000000000004002400000000000000000000000500250000000000000000000000060026000000000000000000000007002700000000000000000000000800280000000000000000000000200000000000000000000000010021000000000000000000000002002200000000000000000000000300230000000000000000000000040024000000000000000000000005002500000000000000000000000600260000000000000000000000070027000000000000000000000008002800000000000000000000000900000000000000000000002000000000000000000000000100210000000000000000000000020022000000000000000000000003002300000000000000000000000400240000000000000000000000050025000000000000000000000006002600000000000000000000000700270000000000000000000000080028000000000000000000000000000000000000000000000000000100000000000100000000000000020000000000020000000000000003000000000003000000000000000400000000000000000000000000000000000000000000000000000000000000000000000000000000000000000000000000000000000000000000000000000000003B00000000000000000000001C003C00000000000000000000001D003D00000000000000000000001E003E00000000000000000000001F003F000000000000000000000000000000000000000000000000000000000000000000000000000000000000000000000000000000000000000000000000000000000000000000000000000000000000001C003C00000000000000000000001D003D00000000000000000000001E003E00000000000000000000001F003F00000000000000000000000000000000000000000000000000000000000000000000000000000000000000000000000000000000000000000000000000000000000000000000000000000000001B003B00000000000000000000001C003C00000000000000000000001D003D00000000000000000000001E003E00000000000000000000001F003F00000000000000000000000000000000000000000000000000000000000000000000000000000000000000000000000000000000000000000000000000000000000000120032000000000000000000000013003300000000000000000000001400340000000000000000000000150035000000000000000000000016003600000000000000000000001700370000000000000000000000180038000000000000000000000019003900000000000000000000001A003A00000000000000000000001B000000000000000000000013003300000000000000000000001400340000000000000000000000150035000000000000000000000016003600000000000000000000001700370000000000000000000000180038000000000000000000000019003900000000000000000000001A003A00000000000000000000001B003B00000000000000120032000000000000000000000013003300000000000000000000001400340000000000000000000000150035000000000000000000000016003600000000000000000000001700370000000000000000000000180038000000000000000000000019003900000000000000000000001A003A0000000000000000000000000009000000000009000000000000000A00000000000A000000000000000B00000000000B000000000000000C00000000000C000000000000000D00000000000000000000000000000000000000000000000000000000000000000000000000000000000000000000000000000000000000000000000000000000000000000009002900000000000000000000000A002A00000000000000000000000B002B00000000000000000000000C002C00000000000000000000000D002D00000000000000000000000E002E00000000000000000000000F002F0000000000000000000000100030000000000000000000000011003100000000000000000000002900000000000000000000000A002A00000000000000000000000B002B00000000000000000000000C002C00000000000000000000000D002D00000000000000000000000E002E00000000000000000000000F002F0000000000000000000000100030000000000000000000000011003100000000000000000000001200320000000000000009002900000000000000000000000A002A00000000000000000000000B002B00000000000000000000000C002C00000000000000000000000D002D00000000000000000000000E002E00000000000000000000000F002F00000000000000000000001000300000000000000000000000110031000000000000000000000004000000000000000500000000000500000000000000060000000000060000000000000007000000000007000000000000000800000000000800000030180C0683C16030180C0683C160301820100804028140200C0683C16030180C100804028140201040201008040281400000000000000000000000000000000000000D000000000000000E00000000000E000000000000000F00000000000F006D61696E5F6772617068246173796E635F64697370617463685F313100000000000000000000000000000202010000000100000001000000000000000000000000000000000000000000000000000000000000000000000000000000000000006D61696E5F6772617068246173796E635F64697370617463685F31315F756E7061636B5F663332002F73637261746368322F6D65726C696E2F73616D706C65732F636F72655F70696E6E696E675F73696E676C655F776F726B6C6F61642F6D6F64656C732F676C7064657074682F6D6F64656C732F62656E63686D61726B732F6D6F64756C655F6D61696E5F6772617068246173796E635F64697370617463685F31315F656D6265646465645F656C665F72697363765F36345F62656E63686D61726B2E6D6C697200000000000000001000000000000000017A5200017801011B0C02006C00000018000000801000008A1D000000440E800A0260810188029203930494059506960797089809990A9A0B9B0CA80DA90EB20FB310B411B512B613B714B815B916BA17BB18440C080003BC1C0C02800A0260C1C8D2D3D4D5D6D7D8D9DADBE8E9F2F3F4F5F6F7F8F9FAFB440E000010000000880000009A2D0000100000000000000000000000130101B0233C114E2338814E2334214F2330314F233C414D2338514D2334614D2330714D233C814B2338914B2334A14B2330B14B273C8148273891482734214927303149273C4147273851472734614727307147273C8145273891452734A1452730B14513040150732520C29306600D3305D5023301A140137101F80147886D036606008C718D66854B9386061083680500036545003308D6029C618C65D56293060002938E02700606B2F4719913F6C8FF2E953E96B2F04295AAEC1305000497E5FFFF9385455D17E6FFFF5770A50C07D405029305C66407D6050297F5FFFF938505D117E6FFFF57F080CD07F005029305066B5770A50C07DE050297F5FFFF938585CD17E6FFFF57F080CD87F005029305067157F0960C07D1050297F5FFFF938505CE17E6FFFF57F080CD07F80502F32520C29307D002B385F5028A959385054427888502930506775770A50C07DC0502F32520C213069002B385C5028A9593850544278C856297E5FFFF9385C57A3766301807DC0502F32520C293075002B385F5028A9593850544278C85621309160C97F5FFFF3786C160138325809300663097F5FFFF37160804938525C71606577088CC87D30502130B864017F6FFFFB7C76030930386851386371897F7FFFF13183602138E878C329897F5FFFF97F7FFFF138FA5939387679B57F0960C07DB070297F7FFFF938727C097F5FFFF57F080CD87FA0702732620C2931756003E960A9613060644A70A8602938FA5A197F5FFFF93973002938965A7B38AF00097F5FFFF97F8FFFF138A65AE9385A8BA87FA0502F32520C296058A9593850544A78A850297F5FFFF938525B417F6FFFF57F0960C07DC0502F32520C2F947B385F5028A9593850544278C85229302A6B857F080CD87FA0202F32520C27546B385C5028A9593850544A78A85025770A50C075C0302F32520C26546B385C5028A9593850544278C856207DC0302F32520C25546B385C5028A9593850544278C8562075C0E02F32520C213964500B2958A9593850544278C8562075C0F02F32520C23546B385C5028A9593850544278C856207DC0F02F32520C2B3E5B5208A9593850544278C856207DC0902F32520C2B3C5B5208A9593850544278C856257F080CDD76A0942F32520C2B3C5252093850544A78A85025770A50C075C0A0293050144278C8562F32520C213069003B385C5028A959385054427848562F32520C213065003B385C5028A959385054427868562F32520C21306D008B385C5028A959385054427808502F32520C213061003B385C5028A9593850544278E8562F32520C29205B3A5B5208A9593850544A7808502F32520C21306E002B385C5028A959385054427818522F32520C28A05B3E5B5208A9593850544A7838502F32520C213062002B385C5028A9593850544278B8522DEF89305400C330AB7021583A6754D8F931577002A070D8F06793A99E6652E9AE55957F003CD130C013893080130930201281303012093030118130E0110130F8002930F8049930CD058130DE05B930DF05E57B2C19EF32520C21306D008B385C5028A9593850544078085029D09B3E53921B3C53521A1813387B94062176593BA95E215E9913387D5034A9757F0260D076C0702F32520C213065007B385C5028A9593850544278C85E293050708930B071007E405029305071807E80B02732620C29307E00B3306F6020A9613060644270886E213060720F32720C2930B600AB38777038A9793870744278487E207E805025704085EF32520C29307E00AB385F5028A9593850544278485E2F32520C29307600AB385F5028A9593850544078885E25770350D57CC063BF32520C29307E008B385F5028A9593850544278C85E2F32520C29307E00BB385F5028A9593850544078885E29305072857C8863AF32720C2930BE009B38777038A9793870744278887E257F0260D07640602732620C29307600C3306F6020A9613060644270486E2577035055704823B732620C2930790033306F6020A9613060644070C866257040C39732620C29307D0073306F6020A9613060644270486E257F0260D07EC050293050730732620C21307600B3306E6020A9613060644270C86E2732620C21307600C3306E6020A9613060644070886E25770350D57C8863B732620C2130760093306E6020A9613060644270886E257F0260D07EC0502F32520C21306E00CB385C5028A9593850544278C85E257BC839E5730109EF32520C213061003B385C5028A95938505440784856257703505570C0439F32520C21306E00CB385C5028A9593850544078485E2F32520C21306E00CB385C5028A9593850544278485E257F0B60D5708813AF32520C21306D002B385C5028A9593850544078085025770350D5704885DF32520C213065008B385C5028A9593850544278485E2F32520C21306E00BB385C5028A9593850544078085E257B8019E57F010CD57B4043FD7178042F32520C21306600CB385C5028A9593850544078485E257B4843E571780425734053FD7168042F32520C21306600AB385C5028A9593850544078085E257B4043E57158042F32520C21306E00AB385C5028A9593850544078485E257B4843E57108042F32520C21306600BB385C5028A9593850544078C85E257B4843FD71580425734053E57168042F32520C21306E00CB385C5028A9593850544078885E2F32520C28A05B3E5B5208A9593850544078685025770A8CD5704063BF32520C21306A005B385C5028A9593850544278485E2F32520C213062002B385C5028A9593850544078E852257F0B60D57040E3BF32520C21306D006B385C5028A9593850544278485E257F010CD57B4043FF32520C21306E00CB385C5028A9593850544278885E2D7128042F32520C21306E00AB385C5028A9593850544078485E25734853ED7108042F32520C21306600CB385C5028A9593850544078485E25734853E571180425734853FD71180425734053F5712804257B8019E57B4063FD7138042F32520C21306E00BB385C5028A9593850544078085E257B4063E57138042577004CD57B4003F571F804257B4003ED71F8042F32520C21306E00AB385C5028A9593850544078885E257B4003F57148042F32520C21306600CB385C5028A9593850544078C85E257B4803FD7148042F32520C21306600BB385C5028A9593850544078485E257B4803E57198042F32520C21306E00CB385C5028A9593850544078485E257B4803E571A8042F32520C21306600AB385C5028A9593850544078485E25734823ED71B80425734023ED71980425734023F571B80425734823FD71A8042F32520C21306600BB385C5028A9593850544078485E25734823E571C8042F32520C213065007B385C5028A9593850544078885E257B4003F573F8032573E023F57B4023FF32520C21306B004B385C5028A959385054427848502D7BF023E57B4819FD7BE823E5736033FF32520C21306E004B385C5028A9593850544278685025736033EF32520C213069004B385C5028A9593850544278685025736833EF32520C21306A004B385C5028A95938505442786850257B6033FF32520C213062006B385C5028A95938505442786850257B6033EF32520C213061005B385C5028A95938505442786850257B6833EF32520C213069005B385C5028A95938505442786850257B0819FF32520C21306600AB385C5028A9593850544078485E257BC819E57B4823FF32520C213966500B2958A959385054427848502F32520C21306E00AB385C5028A9593850544078485E257B6823EF32520C213066004B385C5028A9593850544278685025736833FF32520C213067004B385C5028A9593850544278685025736833EF32520C28E05B3E5B5208A95938505442786850257B6833FF32520C21306C004B385C5028A95938505442786850257B6833EF32520C21306D004B385C5028A95938505442786850257F010CD57B6043FF32520C21306B006B385C5028A9593850544278685225736053FF32520C213069006B385C5028A95938505442786852257B6063FF32520C213067006B385C5028A95938505442786852257B7063E5736073FF32520C213065006B385C5028A959385054427868522F32520C21306E00BB385C5028A9593850544078085E25736073EF32520C21306F004B385C5028A95938505442786852257B6073FF32520C213063006B385C5028A95938505442786852257F0260D0C0127E8050257F010CD5733873F8728410C57B6873FF32520C213062004B385C5028A95938505442786852257F0260D276C0C02F32520C21306E00BB385C5028A9593850544078885E257F010CD57B6073FF32520C213064004B385C5028A9593850544278685220728413C57B6863E57F0260D27E8080257F010CD5738873EF32520C21306D003B385C5028A959385054427888522072E413457B8873EF32520C213966500B305B6408A95938505442788852257F0260D27E40202F32520C21306600CB385C5028A9593850544078885E257F010CD5732073F872E412C57B5073F57F0260D27680302F32520C21306E00CB385C5028A9593850544078885E2577004CDD734023FD71C9042D754EF3FF32520C213966500B2958A9507AF0544D7D49F3ED71FF043D754943EF32520C213066004B385C5028A9507A40544D7D4943ED714D043D754993ED7549A3EF32520C21306E00BB385C5028A9593850544A7848502D734C033D7D49B3EF32520C21306600BB385C5028A9593850544078C85E257B0819FD7B5023E5719B042D7D4993ED7549B3ED7B5023F57BC039FD719B042D7D49A3EF32520C213067004B385C5028A9507AA0544D7549C3ED7D49C3EF32520C21306E00AB385C5028A9593850544A7848502F32520C21306B004B385C5028A959385054407848502D7348032F32520C213069004B385C5028A9587AA0544D7549F3EF32520C28E05B3E5B5208A9507AF0544D7D49F3EF32520C21306A004B385C5028A9587AF0544D754943ED7D4943E57B8019ED735033F5714B042D754993ED7D4993EF32520C21306600AB385C5028A9593850544A7848502F32520C21306E004B385C5028A959385054407848502D7348032D7549A3ED735833FD714B042D7D49A3EF32520C21306C004B385C5028A9507A90544D7549F3EF32520C213061005B385C5028A9507AF0544D7D49F3EF32520C21306D004B385C5028A9587AF0544D754943ED7D4943EF32520C213065007B385C5028A9593850544A7848502F32520C213062006B385C5028A959385054407848502D7348032F32520C213069005B385C5028A9507A40544D754993ED7549F3ED7B5033F571FB042D7D49F3ED754943ED7B5833FD71FB042D7549F3EF32520C21306B006B385C5028A959385054407888522D735003357D49F3EF32520C21306B006B385C5028A959385054427848502571FC042D754B53E5715E042D7D4973ED754903E57F010CD57B7063ED717E042577004CDD754973EF32520C213069006B385C5028A959385054407868522D735C032D7D4953E57D4923EF32520C213069006B385C5028A95938505442784850257F010CD57B6863F5717C042577004CDD754B63E57166042D7D4963EF32520C21306F004B385C5028A959385054407868522D716C042D7D4903EF32520C21306D003B385C5028A959385054407868522D715C042D754913E57104042D7D4913EF32520C213067006B385C5028A959385054407868522D735C0325754923EF32520C213067006B385C5028A959385054427848502D7D4B33E57F010CD5736073ED710C042577004CDD754933ED7549F3E57F010CD5736873F5711C042577004CDD754953EF32520C213062004B385C5028A9593850544078685225715C04257D4973EF32520C213065006B385C5028A959385054407868522D734C0325754873EF32520C213065006B385C5028A959385054427848502F32520C213064004B385C5028A959385054407868522D717C0425754963EF32520C213966500B305B6408A9593850544078685225717C04257D4863ED716A04257D4853E5755803E57F010CD57B4073E57168042577004CD57D4A03EF32520C213063006B385C5028A959385054407858522D734A0325754813EF32520C213063006B385C5028A9593850544278485025754953EF32520C213065002B385C5028A959385054407868562F32520C21306E008B385C5028A9593850544078885E257703505570C063BF32520C2B3C525209385054407808502F32520C213069002B385C5028A959385054407868562F32520C21306E009B385C5028A9593850544078885E2570C0639F32520C21306600CB385C5028A9593850544278C85E2577004CD57D4873E5754873E5770900D57E000425770000D57D5863EF32520C21306E00CB385C5028A9593850544078885E257F010CD57B4073FD7178042577004CD5754A63EF32520C26546B385C5028A959385054407868562F32520C213066009B385C5028A9593850544078885E2F32520C21306600CB385C5028A9593850544078C85E257703505570C0639F32520C21306600CB385C5028A9593850544278C85E2577004CD57D4873EF32520C213062006B385C5028A959385054427848502072741245770900D57600B425770000D57D4085EF32520C21306A005B385C5028A9593850544078885E2F32520C21306600CB385C5028A9593850544078C85E25770350D5708885DF32520C21306A005B385C5028A9593850544278885E2F32520C21306600BB385C5028A9593850544078885E257F0260D27E80302577004CD5754883E57548E3E8726411C57D48E3EF32520C21306E00CB385C5028A9593850544078885E257F0B60D27680E028727411457600842577004CD5759873EF32520C213964500B2958A9593850544078A8562F32520C21306E008B385C5028A9593850544078C85E25770350557048A3BF32520C25546B385C5028A9593850544078A8562F32520C21306E009B385C5028A9593850544078C85E257048A39577004CD57D9263F072581148725C1140726811557D8273FF32520C21306600BB385C5028A9593850544278885028727810C8726813C072081348723C10C8721810D0722C10D0728C13C0723813D0727C13D57D9075E57D9263F8726812C8728C134872081358727C1355759203F87228124072EC12C0721812D0720C12D272C010657D9263F872E811C072FC124072081258726C125272ED10657D9223F872FC11C8722811D8726C11D57D92E3F5758253FF32520C213069005B385C5028A95938505442788850257BC839EF32520C21306D008B385C5028A959385054407808502F32520C23546B385C5028A959385054407868562F32520C213066009B385C5028A9593850544078885E257703505570C0639577004CD57D5035EF32520C213965500B2958A959385054407808502F32520C21306D006B385C5028A9593850544078885E25770350D5708885DF32520C213061005B385C5028A9593850544278885E2577004CD5755A83E57D5A83E5755AE3E5755AF3EF32520C21306D007B385C5028A9593850544078885E2577018CD5736073FF32520C21306F004B385C5028A959385054427868522577004CD57D5AF3E577018CD5734863EF32520C21306D006B385C5028A959385054427848522577004CD57D4A53EF32520C21306D007B385C5028A95938505442784850257D4015E5770900D57E00A425770000D575E833EF32520C2B3C5B5208A9593850544078C8562F32520C21306E008B385C5028A9593850544078885E25770350557040C3BF32520C2B3E5B5208A9593850544078C8562F32520C21306E009B385C5028A9593850544078885E257040C39577004CD57DAC03F577018CD57B8863EF32520C21306E009B385C5028A959385054427888522577004CD575E413FF32520C296058A95938505440780850293050144078C8562F32520C213066009B385C5028A9593850544078885E25770350557040C39577004CD575AC03F57DA423FF32520C27946B385C5028A9593850544078B8522F32520C21306E00CB385C5028A9593850544078085E257F0B60D570C0B3AF32520C27546B385C5028A9593850544078085025770350D570C8C5C577004CD5754463FF32520C21306E00CB385C5028A959385054427848502072F411E0725811E072BC11507244116072181160726C116872D410E872A810E8723C10E8725010F072D413E072A813E0728C13E0720013F872C4136872981368728C13687200137072C412E0729812E072EC12E8721012F872B412687248126872EC12687220127D753025E872FC11E0722011F07230117F32520C213065008B385C5028A9593850544078485E257F003CD27640A02577028CD573A883E577034CD9305800357C4853E577004CDD754773EF32520C21306600CB385C5028A9593850544078085E2577018CD57B9053E577004CDD7D4973EF32520C21306600CB385C5028A9593850544A784850293050A621307FA7F57F003CD27E405029305174433C64F21577034CD9307000357C0873F57F003CD27E00502F32520C293071005B385F5028A9593850544078485E2577034CD57408F3EF32520C29307E002B385F5028A95938505440781852257F003CD27600602577028CD573C883FF32520C21306F004B385C5028A959385054407868522577018CD5736413B93058A18577028CD573E883E57F003CD27E60502577018CD57B8423FF32520C29205B3A5B5208A9593850544878085029305CA24732620C29307A0053306F6020A9613060644070486E2577028CD5734883E57F003CD27E80502F32520C21306E009B385C5028A959385054407868522577018CD57B6813B9305D7065735823F57F003CD27E60502F32520C21306D006B385C5028A959385054407868522577018CD5736C23B9305171357B8C13F57F003CD27E5050293055040B3C5452113061775577018CD57B9823A57F003CD27660602577018CD5735813E33C64C2157B4843E57F003CD27E8050227690602B3454D21732620C29307600C3306F6020A961306064487048602577004CD87278107D7D4973E732620C2930750033306F6020A96130606440706866233C64D2157F003CD27E50502577004CD8727C107D7D4973E57F003CD2764060213066043577004CD57D4963EF32520C29307E00BB385F5028A95938505448784850257F003CDD7B4903E93054A0CA7E40502577004CD57548B3EF32520C29307E00AB385F5028A95938505448784850257F003CDD7B4903E93050A31A7E40502577004CDD7D40D5EF32520C29307600AB385F5028A95938505440785850257F003CD57B5A03E93054A3D27E50502577004CDD7549D3EF32520C293075007B385F5028A95938505440785850257F003CD57B5A03E93058A4927E50502577004CDD7D49C3EF32520C29307B006B385F5028A95938505440785850257F003CD57B5A03E9305CA5527E50502577004CDD7549C3EF32520C293079006B385F5028A95938505440785850257F003CD57B5A03E93054A6E27E50502577004CDD7D49B3EF32520C293077006B385F5028A95938505440785850257F003CD57B5A03E93058A7A27E50502577004CDD7549F3EF32520C293075006B385F5028A95938505440785850257F003CD57B5A03E9305571F27E50502577004CDD754943EF32520C293073006B385F5028A95938505440785850257F003CD57B5A03E9305972B27E50502577004CD57D50A5EF32520C293072006B385F5028A95938505448785850257F003CDD7B5B03E9305D737A7E50502577004CD5755AA3EF32520C29307600BB385F5028A95938505448785850257F003CDD7B5B03E93055750A7E50502577004CD57D5A93EF32520C293079005B385F5028A95938505448785850257F003CDD7B5B03E9305975CA7E50502577004CD5755A93EF32520C29307D007B385F5028A95938505448785850257F003CDD7B5B03E9305D768A7E50502577004CD57D5A43E5755A53EB3454621130670465755A13E732720C29307E00C3307F7020A97130707448705870257F003CDD7B5B03EA7E50502577004CDD7D5035ED755B83EB34546211306904CD7D5B83E57F003CD57B4803E27E40502577004CD5754BE3E57D48E3EB34546211306A04F57D48F3E57F003CDD7B4903E577004CD5754863E57F003CDA7E40502577004CDD7D4055EB34546211306B052D754903E57F003CD57B5A03E27E50502577004CDD7D4903ED7D4913EB34546211306C055D7D4923E57F003CD57B4803E27E40502577004CD5754923E5754833EB34546211306A002710A57F003CD57B4803E27E4050263F4C9006FE06FF4C675858913070002814B99C16FE04FEE0145130104B08330814F0334014F0339814E8339014E033A814D833A014D033B814C833B014C033C814B833C014B033D814A833D014A07348149873401490739814887390148073A8147873A0147073B8146873B0146073C8145873C0145073D8144873D01441301015082809715000069359385A50733F5A50E8280000000000000000000000600000000000000000000000000000000000000000000000000000000000000000000000000000005000000A000000000000000000000000000000000000000000000000000000000000000000000000000000000000000000000000000000000000000000000000000000000000000000000000000000001000000000000000000000000000000000000000000000000000000000000000000000000000000000000000000000000000000000000000000000000000000000000000000000000000000000000000000000000000000000000000000000000000000000000001E000000000000000800000000000000FBFFFF6F000000000100000000000000070000000000000070020000000000000800000000000000200100000000000009000000000000001800000000000000F9FFFF6F000000000C00000000000000060000000000000000020000000000000B000000000000001800000000000000050000000000000048020000000000000A0000000000000023000000000000000400000000000000300200000000000000000000000000000000000000000000011101250E1305030E10171B0EB44219110112060000022E001101120640186E0E030E3A0B3B0B49133F190000032400030E3E0B0B0B0000004B0000000400000000000801CD0000002C000000000000000000750000006C1D0000000000008A1D0000026C1D0000000000008A1D000001584D0000004D00000001014700000003490000000504006D6F64756C655F6D61696E5F6772617068246173796E635F64697370617463685F31315F656D6265646465645F656C665F72697363765F36345F62656E63686D61726B2E6D6C697200696E74006D61696E5F6772617068246173796E635F64697370617463685F31315F756E7061636B5F663332002F73637261746368322F6D65726C696E2F73616D706C65732F636F72655F70696E6E696E675F73696E676C655F776F726B6C6F61642F6D6F64656C732F676C7064657074682F6D6F64656C732F62656E63686D61726B730049524545003A0000000200000000004F0000002A0000006D61696E5F6772617068246173796E635F64697370617463685F31315F756E7061636B5F6633320000000000160000000200000000004F00000047000000696E740000000000413E020000726973637600013402000004100572763634693270315F6D3270305F613270315F663270325F643270325F633270305F623170305F763170305F7A69633634623170305F7A6963626F6D3170305F7A6963626F703170305F7A6963626F7A3170305F7A696363616D6F613170305F7A69636369663170305F7A6963636C736D3170305F7A6963637273653170305F7A69636E74723270305F7A69636F6E643170305F7A696373723270305F7A6966656E6365693270305F7A6968696E7470617573653270305F7A6968706D3270305F7A6D6D756C3170305F7A61363472733170305F7A61616D6F3170305F7A616C7273633170305F7A66683170305F7A66686D696E3170305F7A63613170305F7A63643170305F7A62613170305F7A62623170305F7A62633170305F7A626B633170305F7A62733170305F7A6B743170305F7A76653332663170305F7A76653332783170305F7A76653634643170305F7A76653634663170305F7A76653634783170305F7A7666683170305F7A7666686D696E3170305F7A766B743170305F7A766C313238623170305F7A766C323536623170305F7A766C3332623170305F7A766C3634623170305F737363637074723170305F7373636F66706D663170305F7373636F756E746572656E773170305F737374633170305F73737476616C613170305F737374766563643170305F73766164653170305F7376626172653170305F7376696E76616C3170305F73766E61706F743170305F737670626D743170305F78736D7476646F7431703000C6000000040060000000010101FB0E0D000101010100000001000001006D6F64756C655F6D61696E5F6772617068246173796E635F64697370617463685F31315F656D6265646465645F656C665F72697363765F36345F62656E63686D61726B2E6D6C697200000000000009026C1D0000000000000105100A030A027E010515030C2E051003744A0515030C08200510462F0515BD0510472D05154E05102A05154E06036902C6060103172E036902500103170890036902A4310103172E050B06D8060B2E026A00010149524545000000000000000000000000000000000000000000000000002300000000020900F04B00000000000000000000000000000100000012000700F63A0000000000001000000000000000002E64796E73796D002E68617368002E64796E737472002E72656C612E64796E002E726F64617461002E65685F6672616D65002E74657874002E646174612E72656C2E726F002E64796E616D6963002E72656C726F5F70616464696E67002E64656275675F616262726576002E64656275675F696E666F002E64656275675F737472002E64656275675F7075626E616D6573002E64656275675F7075627479706573002E72697363762E61747472696275746573002E64656275675F6C696E65002E636F6D6D656E74002E73796D746162002E7368737472746162002E7374727461620000697265655F68616C5F65786563757461626C655F6C6962726172795F7175657279005F44594E414D49430000000000000000000000000000000000000000000000000000000000000000000000000000000000000000000000000000000000000000000000000000000000010000000B0000000200000000000000000200000000000000020000000000003000000000000000030000000100000008000000000000001800000000000000090000000500000002000000000000003002000000000000300200000000000018000000000000000100000000000000040000000000000004000000000000000F000000030000000200000000000000480200000000000048020000000000002300000000000000000000000000000001000000000000000000000000000000170000000400000002000000000000007002000000000000700200000000000020010000000000000100000000000000080000000000000018000000000000002100000001000000120000000000000000040000000000000004000000000000D00800000000000000000000000000008000000000000000000000000000000029000000010000000200000000000000D00C000000000000D00C0000000000009C00000000000000000000000000000008000000000000000000000000000000330000000100000006000000000000006C1D0000000000006C0D0000000000009A1D00000000000000000000000000000200000000000000000000000000000039000000010000000300000000000000104B000000000000102B000000000000E00000000000000000000000000000001000000000000000000000000000000046000000060000000300000000000000F04B000000000000F02B000000000000C0000000000000000300000000000000080000000000000010000000000000004F000000080000000300000000000000B04C000000000000B02C00000000000050030000000000000000000000000000010000000000000000000000000000005E0000000100000000000000000000000000000000000000B02C00000000000039000000000000000000000000000000010000000000000000000000000000006C0000000100000000000000000000000000000000000000E92C0000000000004F00000000000000000000000000000001000000000000000000000000000000780000000100000030000000000000000000000000000000382D000000000000D2000000000000000000000000000000010000000000000001000000000000008300000001000000000000000000000000000000000000000A2E0000000000003E00000000000000000000000000000001000000000000000000000000000000930000000100000000000000000000000000000000000000482E0000000000001A00000000000000000000000000000001000000000000000000000000000000A30000000300007000000000000000000000000000000000622E0000000000003F02000000000000000000000000000001000000000000000000000000000000B50000000100000000000000000000000000000000000000A130000000000000CA00000000000000000000000000000001000000000000000000000000000000C100000001000000300000000000000000000000000000006B310000000000000500000000000000000000000000000001000000000000000100000000000000CA000000020000000000000000000000000000000000000070310000000000004800000000000000150000000200000008000000000000001800000000000000D20000000300000000000000000000000000000000000000B831000000000000E400000000000000000000000000000001000000000000000000000000000000DC00000003000000000000000000000000000000000000009C320000000000002C00000000000000000000000000000001000000000000000000000000000000"> : vector<14408xi8>, format = "embedded-elf-riscv_64", mime_type = "application/x-elf"}
  }
  util.global private @main_graph$async_dispatch_11_embedded_elf_riscv_64_main_graph$async_dispatch_11_unpack_f32_buffer : !hal.buffer
  util.initializer {
    %memory_type = hal.memory_type<"DeviceVisible|DeviceLocal"> : i32
    %buffer_usage = hal.buffer_usage<"TransferSource|TransferTarget|Transfer|DispatchStorageRead|DispatchStorageWrite|DispatchStorage"> : i32
    %c64344064 = arith.constant 64344064 : index
    %c-1_i64 = arith.constant -1 : i64
    %__device_0 = util.global.load immutable @__device_0 : !hal.device
    %allocator = hal.device.allocator<%__device_0 : !hal.device> : !hal.allocator
    %buffer = hal.allocator.allocate<%allocator : !hal.allocator> affinity(%c-1_i64) type(%memory_type) usage(%buffer_usage) : !hal.buffer{%c64344064}
    util.global.store %buffer, @main_graph$async_dispatch_11_embedded_elf_riscv_64_main_graph$async_dispatch_11_unpack_f32_buffer : !hal.buffer
    util.return
  }
  util.func public @main_graph$async_dispatch_11_embedded_elf_riscv_64_main_graph$async_dispatch_11_unpack_f32(%arg0: i32) attributes {iree.abi.stub, iree.reflection = {iree.benchmark = "dispatch"}} {
    %c-1_i32 = arith.constant -1 : i32
    %0 = util.null : !hal.fence
    %c1 = arith.constant 1 : index
    %c32172032 = arith.constant 32172032 : index
    %c0 = arith.constant 0 : index
    %c420224_i32 = arith.constant 420224 : i32
    %c1204224_i32 = arith.constant 1204224 : i32
    %c-1_i64 = arith.constant -1 : i64
    %c49 = arith.constant 49 : index
    %main_graph$async_dispatch_11_embedded_elf_riscv_64_main_graph$async_dispatch_11_unpack_f32_buffer = util.global.load immutable @main_graph$async_dispatch_11_embedded_elf_riscv_64_main_graph$async_dispatch_11_unpack_f32_buffer : !hal.buffer
    %__device_0 = util.global.load immutable @__device_0 : !hal.device
    %__device_0_executable_0_main_graph$async_dispatch_11 = util.global.load immutable @__device_0_executable_0_main_graph$async_dispatch_11 : !hal.executable
    %1 = arith.index_cast %arg0 : i32 to index
    %cmd = hal.command_buffer.create device(%__device_0 : !hal.device) mode("OneShot|AllowInlineExecution") categories(Dispatch) affinity(%c-1_i64) : !hal.command_buffer
    cf.br ^bb1(%c0 : index)
  ^bb1(%2: index):  // 2 preds: ^bb0, ^bb2
    %3 = arith.cmpi slt, %2, %1 : index
    cf.cond_br %3, ^bb2, ^bb3
  ^bb2:  // pred: ^bb1
    hal.command_buffer.dispatch<%cmd : !hal.command_buffer> target(%__device_0_executable_0_main_graph$async_dispatch_11 : !hal.executable)[%c0] workgroups([%c49, %c1, %c1]) constants([%c1204224_i32, %c420224_i32]) bindings([
      (%main_graph$async_dispatch_11_embedded_elf_riscv_64_main_graph$async_dispatch_11_unpack_f32_buffer : !hal.buffer)[%c0, %c32172032], 
      (%main_graph$async_dispatch_11_embedded_elf_riscv_64_main_graph$async_dispatch_11_unpack_f32_buffer : !hal.buffer)[%c32172032, %c32172032]
    ]) flags("None")
    hal.command_buffer.execution_barrier<%cmd : !hal.command_buffer> source("Dispatch|CommandRetire") target("CommandIssue|Dispatch") flags("None")
    %4 = arith.addi %2, %c1 : index
    cf.br ^bb1(%4 : index)
  ^bb3:  // pred: ^bb1
    hal.command_buffer.finalize<%cmd : !hal.command_buffer>
    %fence = hal.fence.create device(%__device_0 : !hal.device) flags("None") : !hal.fence
    hal.device.queue.execute<%__device_0 : !hal.device> affinity(%c-1_i64) wait(%0) signal(%fence) commands(%cmd) flags("None")
    %status = hal.fence.await until([%fence]) timeout_millis(%c-1_i32) flags("None") : i32
    util.status.check_ok %status, "failed to wait on timepoint"
    util.return
  }
}
