module attributes {vm.toplevel} {
  vm.module public @module {
    vm.global.ref private mutable @__device_0 : !vm.ref<!hal.device>
    vm.rodata private @_utf8_hal_device_id_C1DCB7DBC4F49AE6 {alignment = 1 : i64} "hal.device.id"
    vm.rodata private @_utf8_local_3D3B5147158B235A {alignment = 1 : i64} "local*"
    vm.rodata private @_utf8_hal_executable_format_EAB228F999C2D3A1 {alignment = 1 : i64} "hal.executable.format"
    vm.rodata private @_utf8_embedded_elf_riscv_64_38BEAC1DD46E6154 {alignment = 1 : i64} "embedded-elf-riscv_64"
    vm.rodata private @main_graph_async_dispatch_65_embedded_elf_riscv_64 {alignment = 16 : i64, mime_type = "application/x-elf"} dense<"0x7F454C460201010000000000000000000300F3000100000000000000000000004000000000000000303B000000000000050000004000380008004000160014000600000004000000400000000000000040000000000000004000000000000000C001000000000000C001000000000000080000000000000001000000040000000000000000000000000000000000000000000000000000006C0D0000000000006C0D000000000000001000000000000001000000050000006C0D0000000000006C1D0000000000006C1D0000000000002226000000000000222600000000000000100000000000000100000006000000903300000000000090530000000000009053000000000000A001000000000000700C00000000000000100000000000000200000006000000703400000000000070540000000000007054000000000000C000000000000000C000000000000000080000000000000052E5746404000000903300000000000090530000000000009053000000000000A001000000000000700C000000000000010000000000000051E57464060000000000000000000000000000000000000000000000000000000000000000000000000000000000000000000000000000000300007004000000E236000000000000000000000000000000000000000000003F020000000000003F02000000000000010000000000000000000000000000000000000000000000000000000000000001000000120007007E43000000000000100000000000000002000000020000000000000001000000000000000000000000697265655F68616C5F65786563757461626C655F6C6962726172795F717565727900000000000098530000000000000300000000000000A00B000000000000A85300000000000003000000000000006C1D000000000000B0530000000000000300000000000000000C000000000000C0530000000000000300000000000000280C000000000000D8530000000000000300000000000000D00C000000000000E0530000000000000300000000000000D00C000000000000F0530000000000000300000000000000905300000000000010540000000000000300000000000000A85300000000000018540000000000000300000000000000C00B00000000000030540000000000000300000000000000B05300000000000048540000000000000300000000000000B85300000000000050540000000000000300000000000000D0530000000000000000000000000000000000000000000000000000000000000000000000000000000000000000000000000000000000000000000000000000000000000000000000000000000000000000000000000000000000000000000000000000000000000000000000000000000000000000000000000000000020000000000000000000000001002100000000000000000000000200220000000000000000000000030023000000000000000000000004002400000000000000000000000500250000000000000000000000060026000000000000000000000007002700000000000000000000000800280000000000000000000000200000000000000000000000010021000000000000000000000002002200000000000000000000000300230000000000000000000000040024000000000000000000000005002500000000000000000000000600260000000000000000000000070027000000000000000000000008002800000000000000000000000900000000000000000000002000000000000000000000000100210000000000000000000000020022000000000000000000000003002300000000000000000000000400240000000000000000000000050025000000000000000000000006002600000000000000000000000700270000000000000000000000080028000000000000000000000000000000000000000000000000000100000000000100000000000000020000000000020000000000000003000000000003000000000000000400000000000000000000000000000000000000000000000000000000000000000000000000000000000000000000000000000000000000000000000000000000003B00000000000000000000001C003C00000000000000000000001D003D00000000000000000000001E003E00000000000000000000001F003F000000000000000000000000000000000000000000000000000000000000000000000000000000000000000000000000000000000000000000000000000000000000000000000000000000000000001C003C00000000000000000000001D003D00000000000000000000001E003E00000000000000000000001F003F00000000000000000000000000000000000000000000000000000000000000000000000000000000000000000000000000000000000000000000000000000000000000000000000000000000001B003B00000000000000000000001C003C00000000000000000000001D003D00000000000000000000001E003E00000000000000000000001F003F00000000000000000000000000000000000000000000000000000000000000000000000000000000000000000000000000000000000000000000000000000000000000120032000000000000000000000013003300000000000000000000001400340000000000000000000000150035000000000000000000000016003600000000000000000000001700370000000000000000000000180038000000000000000000000019003900000000000000000000001A003A00000000000000000000001B000000000000000000000013003300000000000000000000001400340000000000000000000000150035000000000000000000000016003600000000000000000000001700370000000000000000000000180038000000000000000000000019003900000000000000000000001A003A00000000000000000000001B003B00000000000000120032000000000000000000000013003300000000000000000000001400340000000000000000000000150035000000000000000000000016003600000000000000000000001700370000000000000000000000180038000000000000000000000019003900000000000000000000001A003A0000000000000000000000000009000000000009000000000000000A00000000000A000000000000000B00000000000B000000000000000C00000000000C000000000000000D00000000000000000000000000000000000000000000000000000000000000000000000000000000000000000000000000000000000000000000000000000000000000000009002900000000000000000000000A002A00000000000000000000000B002B00000000000000000000000C002C00000000000000000000000D002D00000000000000000000000E002E00000000000000000000000F002F0000000000000000000000100030000000000000000000000011003100000000000000000000002900000000000000000000000A002A00000000000000000000000B002B00000000000000000000000C002C00000000000000000000000D002D00000000000000000000000E002E00000000000000000000000F002F0000000000000000000000100030000000000000000000000011003100000000000000000000001200320000000000000009002900000000000000000000000A002A00000000000000000000000B002B00000000000000000000000C002C00000000000000000000000D002D00000000000000000000000E002E00000000000000000000000F002F00000000000000000000001000300000000000000000000000110031000000000000000000000004000000000000000500000000000500000000000000060000000000060000000000000007000000000007000000000000000800000000000800000030180C0683C16030180C0683C160301820100804028140200C0683C16030180C100804028140201040201008040281400000000000000000000000000000000000000D000000000000000E00000000000E000000000000000F00000000000F006D61696E5F6772617068246173796E635F64697370617463685F363500000000000000000000000000000002010000000100000001000000000000000000000000000000000000000000000000000000000000000000000000000000000000006D61696E5F6772617068246173796E635F64697370617463685F36355F756E7061636B5F663332002F73637261746368322F6D65726C696E2F73616D706C65732F636F72655F70696E6E696E675F73696E676C655F776F726B6C6F61642F6D6F64656C732F676C7064657074682F6D6F64656C732F62656E63686D61726B732F6D6F64756C655F6D61696E5F6772617068246173796E635F64697370617463685F36355F656D6265646465645F656C665F72697363765F36345F62656E63686D61726B2E6D6C697200000000000000001000000000000000017A5200017801011B0C02006C00000018000000801000001226000000520E800B0260810188029203930494059506960797089809990A9A0B9B0CA80DA90EB20FB310B411B512B613B714B815B916BA17BB18440C08000334250C02800B0260C1C8D2D3D4D5D6D7D8D9DADBE8E9F2F3F4F5F6F7F8F9FAFB440E00001000000088000000223600001000000000000000000000000365060031466374A6006F204060130101A8233C1156233881562334215723303157233C4155233851552334615523307155233C8153233891532334A1532330B153273C8150273891502734215127303151273C414F2738514F2734614F2730714F273C814D2738914D2734A14D2730B14D13040158732620C29306C00D3306D6023301C140137101F801479071372806009315650093080031930A000493161500B6F4131EE50014621066B7520F0037730F00ED63B385B840930703F013850358AAFCB3C5550B7296C296B6ECB29216E932ED3E9632E5156537663018130905781305160C1306000257F080CD576405421305014C270485023785C160B7160804130A653096061385864057640542732520C2332525201305054C27048502B7C7603093893718930B0130130C0128930C0120130D0118930D800257F063CC5722426E376B0F00E540732520C20A951305054C27028502AEF0814701433388E5409326780193C616005770600C57C4065E573980669326880193C6160057C4065ED73880669326980193C6160057C4065E573880669326A80193C6160057C4065ED73980669326B80193C6160057C4065ED73280669326C80193C6160057C4065ED73680669326D80193C6160057C4065E573780669326E80193C6160057C4065ED73780669326F80193C6160057C4065ED73580669326080293C6160057C4065E57318066D7204962D7A14862D72C486257AD4962BAF893565700D7AD42622675AA9657AC466293987600D72E4762AA0657AF4762B3861641D7AF4562666536952AE157264162732520C2D9453305B5020A951305054C27098502732520C2D5453305B5020A951305054CA7088502732520C20A053345A5200A951305054C27088502732520C2CD453305B5020A951305054CA7098502732520C206053365A5200A951305054CA7028502732520C2931545002E950A951305054CA7068502732520C212050A951305054C27078502732520C2931545003385A5400A951305054CA7078502732520C2B9453305B5020A951305054CA7058502732520C2B5453305B5020A951305054C27018502732520C20A053325A5200A951305054CA7008502732520C2AD453305B5020A951305054CA7018502732520C206053345A5200A951305054CA70C8502732520C23365A5200A951305054C270D8502732520C2336525201305054CA70D8502732520C2931535003385A5400A951305054C270C8502732520C206053325A5200A951305054CA70E8502732520C23345A5200A951305054C270F8502732520C2334525201305054CA70F8502732520C23325A5200A951305054C270685023EF16675B302A3021E030A65AA92E553130E0002AA6E6A6FCA689D03B3E67320B3C67620A182B387D340E217E593BE96E216E992B386260397E7FFFF17E7FFFF97F5FFFF938727291307E73096965770260D07EC060246E4732520C293084009330515030A951305054C270C85E213850608076405021385061007600502732520C29308C00C330515030A951305054C270085E2138506189385259E07680502732520C29308C008330515030A951305054C270485E2732520C29308C00A330515030A951305054C270885E257F03A0D574C863A732520C29308400A330515030A951305054C270C85E257F080CD87F30502732520C29305C0073305B5020A951305054CA703850257B4039E57F03A055744063B732520C29305C00B3305B5020A951305054C270485E20754070207D607025708843B5730709E732520C29305C00B3305B5020A951305054C070C85E257088639732520C2930540083305B5020A951305054C270885E217E5FFFF97F5FFFF1305052613870620938706285770260D076C0702732720C29308400C330717030A971307074C270C87E29385C58907E4070293078003732720C29308400D330717030A971307074C270487E257F080CD07F0050257F03A05574C863AF32520C21307C009B385E5028A959385054C278C85E207580502732520C2930540083305B5020A951305054C070485E25704883917E5FFFF97F5FFFF13058524938606309385C5825770260D07EC06020753050257F080CD07F005025770B60D5708833B57F03A055704885C732520C29305400B3305B5020A951305054C270485E217E5FFFF97E5FFFF1305A52F938565270754050207DE0502732520C29305400A3305B5020A951305054C070085E25708043A1305014C07008502732520C29305C00B3305B5020A951305054C070485E257088E3817E5FFFF1305653297E5FFFF9385E579075E050257F080CD57600A42732520C29306C0093305D5020A951305054C070485E257F03A0557088E38732520C29306C0063305D5020A951305054C270885E25770A8CD07D605025704863B17E5FFFFF32520C2B3A525209385054C0780850257F03A0D5704045DF32520C293064007B385D5028A959385054C278485E21305A53497E5FFFF9385453993963902CE9617E7FFFF57F080CD57E0064257F03A0507D20502075E0502732520C29305400A3305B5020A951305054C070485E25708823A732520C29305C00B3305B5020A951305054C070485E257088E38732520C2930540063305B5020A951305054C270885E213056740075E0502732520C29305C0073305B5020A951305054C07008502732520C29305C0093305B5020A951305054C070485E257088E3817E5FFFF97E5FFFF1305C5649385853E57F080CD077005025770B60D07D305025704833B57F03A0D5704045D732520C29305C0073305B5020A951305054C270485E217E5FFFF1305A54297E5FFFF93163A029385254AD29657F080CD57E0064257F03A0507D20502075E0502732520C29305400A3305B5020A951305054C070485E25708823A732520C29305C00B3305B5020A951305054C070485E257088E385704085E732520C29305C0053305B5020A951305054C270885E217E5FFFF97E5FFFF1305A5579385E54A57F080CD0770050217E5FFFF57F03A0507DE0502F32520C29306C009B385D5028A959385054C078885E257040E391305A551F32520C29306C00BB385D5028A959385054C278C85E297E5FFFF9385A5525770960C0753050257F080CD07F005025770B60D5708833B57F03A0D5704885C732520C29305400A3305B5020A951305054C270485E2B32F000157F063CC57C40F5E930F01381307014014029D4557348066732520C293089004330515030A951305054C2704850213252800134515005744055E57348066732520C29308C004330515030A951305054C2704850213253800134515005744055E57348066732520C29308F004330515030A951305054C2704850213254800134515005744055E57348066732520C29308E004330515030A951305054C2704850213255800134515005744055E57348066732520C29308D004330515030A951305054C2704850213256800134515005744055E57348066732520C212053345A5200A951305054C2704850213257800134515005744055E57348066732520C293081005330515030A951305054C2704850213258800134515005744055E57348066732520C293082005330515030A951305054C2704850213259800134515005744055E57348066732520C293083005330515030A951305054C270485021325A800134515005744055E57348066732520C293084005330515030A951305054C270485021325B800134515005744055E57348066732520C293085005330515030A951305054C270485021325C800134515005744055E57348066732520C293088005330515030A951305054C270485021325D800134515005744055E57348066732520C293087005330515030A951305054C270485021325E800134515005744055E57348066732520C293086005330515030A951305054C270485021325F800134515005744055E57348066732520C293089005330515030A951305054C2704850213250801134515005744055E57348066732520C29308A005330515030A951305054C2704850213251801134515005744055E57348066732520C29308B00533051503A2680A951305054C270485023355BE0A5770900D57A408525745856A732520C2F1453305B5020A951305054C2705850213252801134515005770600C5744055E732520C20E053365A5200A951305054C27048502732520C2930540083305B5020A951305054C070485E2577018CD5738873E732520C29305C0053305B5020A951305054C070485E257BF863E732520C2930540063305B5020A951305054C070485E25734863E732520C2930540063305B5020A951305054C27048522732520C29305C0063305B5020A951305054C070485E257B4853E732520C29305C0093305B5020A951305054C27048522732520C2930540073305B5020A951305054C070485E2577028CD5734883E732520C2930540083305B5020A951305054C27048562732520C29305400B3305B5020A951305054C070485E25734883E577018CD5738813A732520C29305A0043305B5020A951305054C2708852257B4823E732520C29305C0053305B5020A951305054C27048522732520C29305C0083305B5020A951305054C070085E257B4043ED7178042732520C29305C00C3305B5020A951305054C070485E257B4843E57178042732520C29305C00A3305B5020A951305054C070885E257B4043FD7168042732520C29305400C3305B5020A951305054C070485E257B4843E57168042732520C29305400D3305B5020A951305054C070485E257BC819E57B4843F57158042732520C29305C00B3305B5020A951305054C070485E257B4843E571080425734053ED7158042732520C29305C00C3305B5020A951305054C070485E25734853E571180425734053FD7108042732520C29305400C3305B5020A951305054C070485E25734853ED71180425734853F57128042732520C29305C00B3305B5020A951305054C070485E25734853ED7128042732520C29305400A3305B5020A951305054C070485E2577028CD5734883E577018CD57BF813A732520C29305C0063305B5020A951305054C270F85225734823E732520C2930540073305B5020A951305054C2704852257B4063E57138042732520C29305C00C3305B5020A951305054C070885E257B4063FD713804257F000CD57B4003E571E804257B4003FD71E8042732520C29305C00A3305B5020A951305054C070485E257B4803E571F8042732520C29305400C3305B5020A951305054C070485E257B4803E57148042732520C29305400D3305B5020A951305054C070485E257B4803ED7148042732520C2930540093305B5020A951305054C070485E257BC819E57B4803F732520C2930520023305B5020A951305054C270485025734823F732520C29305B0023305B5020A951305054C270485025734023F732520C20A053365A5200A951305054C27048502732520C29305400C3305B5020A951305054C070485E25736823E732520C2930550023305B5020A951305054C2706850257B6823F732520C2930520033305B5020A951305054C2706850257B6023F732520C29305D0023305B5020A951305054C2706850257B6823E732520C2930510033305B5020A951305054C270685025736833F732520C2930570033305B5020A951305054C270685025736033F732520C2930540033305B5020A951305054C270685025736833E732520C2930580033305B5020A951305054C2706850257B6833F732520C29305C0033305B5020A951305054C2706850257B6033F732520C29305B0033305B5020A951305054C2706850257B6833E732520C29305D0033305B5020A951305054C27068502732520C29305C00B3305B5020A951305054C070885E257B4003F732520C2DD453305B5020A951305054C270485025734023E57BC019E732520C2F5453305B5020A951305054C27048502732520C29305C00A3305B5020A951305054C070485E25736823E732520C2F9453305B5020A951305054C27068502732520C29305400D3305B5020A951305054C070085E25736023E732520C2931555003385A5400A951305054C270685025736023F732520C216050A951305054C2706850257B0819F57B6023E732520C2931555002E950A951305054C2706850257B6823E732520C2930530023305B5020A951305054C27068502732520C29305400D3305B5020A951305054C070085E257B6023E732520C2930560023305B5020A951305054C2706850257B6023F732520C2930590023305B5020A951305054C2706850257B0819F5736033E732520C29305A0023305B5020A951305054C270685025736833E732520C29305C0023305B5020A951305054C27068502732520C29305400D3305B5020A951305054C070085E25736033E732520C29305E0023305B5020A951305054C270685025736033F732520C29305F0023305B5020A951305054C2706850257B6833F732520C212053325A5200A951305054C2706850257B6833E732520C2930530033305B5020A951305054C27068502732520C29305400D3305B5020A951305054C070085E257B6033E732520C2930550033305B5020A951305054C2706850257B6033F732520C2930560033305B5020A951305054C27068502732520C2930540093305B5020A951305054C070C85E257F010CD57B6843F732520C2E9453305B5020A951305054C270685225736853F732520C2930570023305B5020A951305054C2706852257B6863F732520C2930520043305B5020A951305054C27068522732520C29305400C3305B5020A951305054C070885E257B6063F732520C20E053325A5200A951305054C270685225736873F732520C2930540043305B5020A951305054C27068522732520C29305C00C3305B5020A951305054C070085E25732073E5736073F732520C2930590033305B5020A951305054C2706852257B6873F57B0819F732520C2930560043305B5020A951305054C27068522732520C29305C00C3305B5020A951305054C070C85E257B6873F732520C21A050A951305054C270685225770260D27E00602732520C29305C0083305B5020A951305054C070C85E257F010CD573E873F0728411457B6873F732520C29305E0033305B5020A951305054C270685225770260D276C070257F010CD57B6073F57BC019F732520C2930540093305B5020A951305054C270685228728414457BF863E732520C29305C00C3305B5020A951305054C070885E25770260D27E80F0257F010CD5730873E872F413C57B7873E732520C29305C00C3305B5020A951305054C270785225770260D27E40B02732520C29305400D3305B5020A951305054C070485E257F010CD57B1863E07294134732520C29305C00B3305B5020A951305054C070885E257B7063F5770260D276C0C0257F010CD573C873E8729412C57BD873E732520C29305400C3305B5020A951305054C270D85225770260D27E40C0257F010CD5735073F072A412457BD073F5770260D27680D02732520C2930520023305B5020A951305054C07048502577004CDD7348032732520C2DD453305B5020A95872A054CD7549E3E732520C2F5453305B5020A95072E054CD7D49E3E732520C20A053365A5200A95872E054CD7549F3E732520C2F9453305B5020A95072F054CD754943E732520C2930550023305B5020A950724054CD7D4943ED7D99A3E732520C29305B0023305B5020A951305054C07048502D7348032732520C2931555003385A5400A958724054CD7549E3E732520C216050A95072E054CD7D49E3E732520C2931555002E950A95872E054CD7549F3E732520C29305D0023305B5020A95072F054CD754943E732520C2930530023305B5020A950724054CD7D4943ED75B9E3E732520C2930520033305B5020A951305054C07048502D7348032732520C2930510033305B5020A95072E054CD7D49E3E732520C2930560023305B5020A95872E054CD7549F3E732520C2930590023305B5020A95072F054CD754943E732520C29305A0023305B5020A950724054CD7549E3E732520C2930540033305B5020A95072E054CD7D49E3ED7539F3E732520C2930570033305B5020A951305054C07048502D7348032732520C29305C0023305B5020A95872E054CD754943E732520C2930580033305B5020A95072F054CD7549E3E732520C29305E0023305B5020A95072E054CD7D49E3E732520C29305F0023305B5020A95872E054CD7549F3E732520C212053325A5200A95072F054CD7549E3ED7DE9E3E732520C29305C0033305B5020A951305054C07048502D7348032732520C29305B0033305B5020A95072E054CD7549F3E732520C2930530033305B5020A95872E054CD7549E3E732520C29305D0033305B5020A95072E054CD7D49E3E732520C2930550033305B5020A95872E054CD7549E3E732520C2930560033305B5020A95072E054CD7D49E3E732520C2E9453305B5020A951305054C07068522D73AC032D7589E3E571EE043D7D4573F732520C20E053325A5200A951305054C07068522D717C042D754973E5717204257D4963ED716E0425754863E5716C0435754853E732520C2930570023305B5020A951305054C07068522D734C032D752803E5715404257D4953ED71500425754813E732520C2930590033305B5020A951305054C070685225710C04257D4803ED710804357D4813E5711A0425754823E732520C2930520043305B5020A951305054C07058522D734A032D7D1823E732520C29305E0033305B5020A951305054C07058522D711A0425754933E732520C21A050A951305054C070585225712A04257D4833E732520C29305C00C3305B5020A951305054C07058522D712A042732520C20A951305054C0702850257548E3E732520C2930540093305B5020A951305054C070585225713A04257D4873E732520C29305400C3305B5020A951305054C07058522D717A0425754873E732520C2930540043305B5020A951305054C07058522D734A03257D3863E5717A043D754963E732520C2930560043305B5020A951305054C070585225736A032D754953ED7D4953E732520C2930590043305B5020A951305054C07048502732520C2F1453305B5020A951305054C070E850257F063CC5728C467577004CDD754903E57F063CC572944625720096B577004CDD7D4903E13256801D750913E57D6C13EF32520C28E05B3E5B5208A959385054C0784850257F063CCD73C806693461500577004CD5756C23E1325380157D6C23E134515005756C33E57D6C73E57F063CC5748055E13255801577004CD5751C73E134515005759085E9325480157D9283F57D92F3F57F063CC573D0067577004CD5758293F8727411C93C5150057D8093F57580A3F8720811C8722C11C57F063CC57C9055E0727811D2728E10A577004CD57D4073FF32520C21307400DB385E5028A959385054C27848502872781140727813C872681448721C1448723814557F063CCD73D20678725C11407228115072CC115577004CD57D8075E0729C14557D8063F0721C13C57F063CC5749055E0723813D072DC13D577004CD5758073F072781340726C13407288135072AC13557F063CC573C20678727812C0720C12C8728812D8726C12D272CD10A872681240725C124072E81258729C125872EC11D272AD10B57C9065E872E411E2720D10D872E811E272CD10D872EC11E272ED10F872E41162724D10B872E8116272AD10D872EC116272ED10D872E0117272CD10F732520C29305C0043305B5020A951305054C07048502572A4462B3866800D72AC467573F2067872E4146072B8146072FC1462726E10D072F01472728E10F872D413E872B813E072FC13E2728E10D072F013F2726E10F072F4136872A8136872FC1362724F10D872F01372724F10F872F412E872C812E0724C12E272E810A0724012F2722810E07244126872481262726910A8724C1262722910C872401272720910E8724011F272A910E732520C29305400B3305B5020A951305054C070485E227E4060057205A6B577004CD5758073F57F003CD57B9303F577004CD57D8073F732520C29305F0043305B5020A951305054C0704850257F063CCD729446213850610572AC4672769050057A0496B577004CD57D8063F732520C29305E0043305B5020A951305054C0704850257F063CC5729446213850620D729C467F32520C21307A004B385E5028A959385054C07848522276405005720396B577004CDD7DF003F732520C29305D0043305B5020A951305054C0704850257F063CC57284462138506305729C467F32520C21307C005B385E5028A959385054C07848522276405005720286B577004CD57D8055E57F003CDD7B5703F577004CD57D8013F732520C212053345A5200A951305054C0704850257F063CC5729446213850640D729C467A76505005720396B577004CDD755013F57F003CDD7B6703E577004CDD755B63E732520C2930510053305B5020A951305054C0704850257F063CC57284462138506505729C467A76605005720286B577004CDD755B03E57F003CDD7B6D03F577004CDD755B53E732520C2930520053305B5020A951305054C0704850257F063CCD7274462138506605728C467A766050057A0076B577004CDD7D3B23E57F003CDD7B5103F577004CDD756025E732520C2930530053305B5020A951305054C0704850257F063CCD7274462138506705728C467A765050057A0076B732520C29305400B3305B5020A951305054C070885E2577034CD57C8073F93050003B3066F0013050B80732720C2930740053307F7020A971307074C0704870257F063CCD72544623695D727C4672768050057A0F56A577004CDD7D5D33E57F003CD57B5503E13050B90732720C2930750053307F7020A971307074C07048702D72644623695D727C4672765050057A0F66A577004CD5755B33E57F003CDD7B5303E13050BA0732720C2930780053307F7020A971307074C07048702D726446236955727C467A765050057A0E66A13050BB0732720C2930770053307F7020A971307074C07048702D72544623695D726C467732720C29307C0063307F7020A971307074C070487222764050057A0D56A13050BC0732720C2930760053307F7020A971307074C07048702D72544623695D726C467732720C2930740073307F7020A971307074C070487222764050057A0D56A577004CD5755A83E57F003CD57B4603E13050BD0732720C2930790053307F7020A971307074C87048702D7A544623695D7A6C4672764050057A0D56A577004CD57D4A83E57F003CDD7B4103E13050BE0732720C29307A0053307F7020A971307074C8705870257A545623695D7A5C567A76405005720B56A577004CD57548E3E57F003CDD7B4203E13050BF0732720C29307B0053307F7020A971307074C8705870257A545623695D7A5C567A76405005720B56A577004CD8727010B57D3873E732520C21307400A3305E5020A951305054C070485E2577034CD57C8853E732520C2CD453305B5020A951305054C87098502732520C2D9453305B5020A951305054C07098502577004CDD7580C5E732520C29305C0073305B5020A951305054C070485E2577028CD573A883E732520C2AD453305B5020A951305054C87018502732520C20A053325A5200A951305054C87008502577004CDD758193F577034CD57C48D3E577004CDD7541D3F57F063CC57A54C6233856601D7A5CC67F32520C28605B3C5B5208A959385054C878C8502276805005720B56A577004CDD7549A3E13050B103695F32520C21307400DB385E5028A959385054C0785850257F003CD57B5A03EF32520C28605B3A5B5208A959385054C878E850227650500577004CD8727810BD7D4973ED7D4993E57F063CC57254D62577004CD8727410BD7D4973E57F063CCD725CD67732520C23365A5200A951305054C070D85025720B56A577004CD8727810A57D5075E57D5AE3E13050B20369557F003CDD7B5F03FF32520C2B3C525209385054C878F8502A7650500577004CD57D5AD3E5755AF3E57F063CCD7A54D62577004CD57D5AF3E57F063CC57A6CD67732520C2336525201305054C870D850257A0C56A577004CD5755A43E8727010C57D7A73E13050B30369557F003CD57B5703E27650500577004CD8727410D57D5075E5755AB3E57F063CCD7254C62577004CD57D5AB3E57F063CC5726CC67732520C2931535003385A5400A951305054C070C850257A0C56A577004CD57D5AA3E57D5AC3E13050B403695F32520C213074006B385E5028A959385054C07868522577018CD5736423B57F003CD27660500577004CD8727C10A57D5A73E8727810DD7D7A73E577018CD57B5413F732520C2B5453305B5020A951305054C07018502732520C206053365A5200A951305054C87028502577004CD8727C10DD7D5075E57F063CC57264F62577004CD8727C10CD7D5B73E57F063CCD726CF67732520C23345A5200A951305054C070F85025720D66A577004CD8727010DD7D5B73E8727810CD7D5B73E13050B508727C10BD7D5B73E369557F003CD27650500577004CD8727410C57D5B73E8727C10F57D8A73E57F003CD57B5603E577004CD8727810FD7D8075E57F063CCD725C96713050B6057A0B06A3695F32520C21307C009B385E5028A959385054C07838522F32520C213074008B385E5028A959385054C078A8562577018CD57B3423B57F003CD27650500577018CD5736413F57B5443F577004CD8727010FD7D5173F732520C2D5453305B5020A951305054C870885028727C10ED7D5B73E57F003CDD7B4903E577004CD8727810ED7D5B73E57F003CDD7B6E03E577004CD8727410ED7D5B73E57F003CD57B7F03E577004CD8727010ED7D5B73E57F003CDD7B7003F577004CD8727410FD7D5B73E57F003CD57A8C86713050B7057A0016BF32520C28A05B3C5B5208A959385054C078885023695D7B5B03EA7640500D724C86733856E0057A09C6A93050590D7A4C96727E4050057209D6A930505A057A4C267A7E60500F32520C293964500B6958A959385054C8786850257A08D6A930505B057A4C66727E70500F32520C292058A959385054C0787850257208C6A930505C05724C767A7E70500F32520C293964500B385B6408A959385054C8787850257A08E6A930505D057A4C767A7E50500F32520C2B946B385D5028A959385054C8785850257208F6A930505E057A4C56727E3050057A08F6A930505F05724C16727E60500F32520C2B3A5B5208A959385054C078685025720866A27650500651EF108710FF10E63F413006FD05FE70A7505890543854719E16FD0DFE44677130707024A6589652E952AE96A652E952AED2A652E952AE586756354B7006FD09FBB130104A883308157033401570339815683390156033A8155833A0155033B8154833B0154033C8153833C0153033D8152833D015207348151873401510739815087390150073A814F873A014F073B814E873B014E073C814D873C014D073D814C873D014C13010158014582809715000069359385250733F5A50E828000000600000000000000000000000000000000000000000000000000000000000000000000000000000005000000A000000000000000000000000000000000000000000000000000000000000000000000000000000000000000000000000000000000000000000000000000000000000000000000000000000001000000000000000000000000000000000000000000000000000000000000000000000000000000000000000000000000000000000000000000000000000000000000000000000000000000000000000000000000000000000000000000000000000000000000001E000000000000000800000000000000FBFFFF6F000000000100000000000000070000000000000070020000000000000800000000000000200100000000000009000000000000001800000000000000F9FFFF6F000000000C00000000000000060000000000000000020000000000000B000000000000001800000000000000050000000000000048020000000000000A0000000000000023000000000000000400000000000000300200000000000000000000000000000000000000000000011101250E1305030E10171B0EB44219110112060000022E001101120640186E0E030E3A0B3B0B49133F190000032400030E3E0B0B0B0000004B0000000400000000000801CD0000002C000400000000000000750000006C1D00000000000012260000026C1D0000000000001226000001584D0000004D0000000101470000000300000000050400696E74006D6F64756C655F6D61696E5F6772617068246173796E635F64697370617463685F36355F656D6265646465645F656C665F72697363765F36345F62656E63686D61726B2E6D6C6972006D61696E5F6772617068246173796E635F64697370617463685F36355F756E7061636B5F663332002F73637261746368322F6D65726C696E2F73616D706C65732F636F72655F70696E6E696E675F73696E676C655F776F726B6C6F61642F6D6F64656C732F676C7064657074682F6D6F64656C732F62656E63686D61726B730049524545003A0000000200000000004F0000002A0000006D61696E5F6772617068246173796E635F64697370617463685F36355F756E7061636B5F6633320000000000160000000200000000004F00000047000000696E740000000000413E020000726973637600013402000004100572763634693270315F6D3270305F613270315F663270325F643270325F633270305F623170305F763170305F7A69633634623170305F7A6963626F6D3170305F7A6963626F703170305F7A6963626F7A3170305F7A696363616D6F613170305F7A69636369663170305F7A6963636C736D3170305F7A6963637273653170305F7A69636E74723270305F7A69636F6E643170305F7A696373723270305F7A6966656E6365693270305F7A6968696E7470617573653270305F7A6968706D3270305F7A6D6D756C3170305F7A61363472733170305F7A61616D6F3170305F7A616C7273633170305F7A66683170305F7A66686D696E3170305F7A63613170305F7A63643170305F7A62613170305F7A62623170305F7A62633170305F7A626B633170305F7A62733170305F7A6B743170305F7A76653332663170305F7A76653332783170305F7A76653634643170305F7A76653634663170305F7A76653634783170305F7A7666683170305F7A7666686D696E3170305F7A766B743170305F7A766C313238623170305F7A766C323536623170305F7A766C3332623170305F7A766C3634623170305F737363637074723170305F7373636F66706D663170305F7373636F756E746572656E773170305F737374633170305F73737476616C613170305F737374766563643170305F73766164653170305F7376626172653170305F7376696E76616C3170305F73766E61706F743170305F737670626D743170305F78736D7476646F7431703000AB000000040060000000010101FB0E0D000101010100000001000001006D6F64756C655F6D61696E5F6772617068246173796E635F64697370617463685F36355F656D6265646465645F656C665F72697363765F36345F62656E63686D61726B2E6D6C6972000000000005150A0009026C1D00000000000003100106036F02DA020103114A036F02EC0401031182036F02A2430103112E036FBA03112E036F022201050B0603130268010204000101495245450000000000000000000000000000000000000000000000000000000023000000000209007054000000000000000000000000000001000000120007007E430000000000001000000000000000002E64796E73796D002E68617368002E64796E737472002E72656C612E64796E002E726F64617461002E65685F6672616D65002E74657874002E646174612E72656C2E726F002E64796E616D6963002E72656C726F5F70616464696E67002E64656275675F616262726576002E64656275675F696E666F002E64656275675F737472002E64656275675F7075626E616D6573002E64656275675F7075627479706573002E72697363762E61747472696275746573002E64656275675F6C696E65002E636F6D6D656E74002E73796D746162002E7368737472746162002E7374727461620000697265655F68616C5F65786563757461626C655F6C6962726172795F7175657279005F44594E414D49430000000000000000000000000000000000000000000000000000000000000000000000000000000000000000000000000000000000000000000000000000000000010000000B0000000200000000000000000200000000000000020000000000003000000000000000030000000100000008000000000000001800000000000000090000000500000002000000000000003002000000000000300200000000000018000000000000000100000000000000040000000000000004000000000000000F000000030000000200000000000000480200000000000048020000000000002300000000000000000000000000000001000000000000000000000000000000170000000400000002000000000000007002000000000000700200000000000020010000000000000100000000000000080000000000000018000000000000002100000001000000120000000000000000040000000000000004000000000000D00800000000000000000000000000008000000000000000000000000000000029000000010000000200000000000000D00C000000000000D00C0000000000009C00000000000000000000000000000008000000000000000000000000000000330000000100000006000000000000006C1D0000000000006C0D00000000000022260000000000000000000000000000020000000000000000000000000000003900000001000000030000000000000090530000000000009033000000000000E0000000000000000000000000000000100000000000000000000000000000004600000006000000030000000000000070540000000000007034000000000000C0000000000000000300000000000000080000000000000010000000000000004F00000008000000030000000000000030550000000000003035000000000000D00A0000000000000000000000000000010000000000000000000000000000005E0000000100000000000000000000000000000000000000303500000000000039000000000000000000000000000000010000000000000000000000000000006C000000010000000000000000000000000000000000000069350000000000004F00000000000000000000000000000001000000000000000000000000000000780000000100000030000000000000000000000000000000B835000000000000D2000000000000000000000000000000010000000000000001000000000000008300000001000000000000000000000000000000000000008A360000000000003E00000000000000000000000000000001000000000000000000000000000000930000000100000000000000000000000000000000000000C8360000000000001A00000000000000000000000000000001000000000000000000000000000000A30000000300007000000000000000000000000000000000E2360000000000003F02000000000000000000000000000001000000000000000000000000000000B500000001000000000000000000000000000000000000002139000000000000AF00000000000000000000000000000001000000000000000000000000000000C10000000100000030000000000000000000000000000000D0390000000000000500000000000000000000000000000001000000000000000100000000000000CA0000000200000000000000000000000000000000000000D8390000000000004800000000000000150000000200000008000000000000001800000000000000D20000000300000000000000000000000000000000000000203A000000000000E400000000000000000000000000000001000000000000000000000000000000DC0000000300000000000000000000000000000000000000043B0000000000002C00000000000000000000000000000001000000000000000000000000000000"> : vector<16560xi8>
    vm.global.ref private mutable @__device_0_executable_0_main_graph$async_dispatch_65 : !vm.ref<!hal.executable>
    vm.global.ref private mutable @main_graph$async_dispatch_65_embedded_elf_riscv_64_main_graph$async_dispatch_65_unpack_f32_buffer : !vm.ref<!hal.buffer>
    vm.import private @hal.allocator.allocate(%allocator : !vm.ref<!hal.allocator>, %queue_affinity : i64, %memory_types : i32, %buffer_usage : i32, %allocation_size : i64) -> !vm.ref<!hal.buffer>
    vm.import private @hal.command_buffer.create(%device : !vm.ref<!hal.device>, %modes : i32, %command_categories : i32, %queue_affinity : i64, %binding_capacity : i32) -> !vm.ref<!hal.command_buffer> attributes {minimum_version = 6 : i32}
    vm.import private @hal.command_buffer.finalize(%command_buffer : !vm.ref<!hal.command_buffer>)
    vm.import private @hal.command_buffer.execution_barrier(%command_buffer : !vm.ref<!hal.command_buffer>, %source_stage_mask : i32, %target_stage_mask : i32, %flags : i64)
    vm.import private @hal.command_buffer.dispatch(%command_buffer : !vm.ref<!hal.command_buffer>, %executable : !vm.ref<!hal.executable>, %entry_point : i32, %workgroup_x : i32, %workgroup_y : i32, %workgroup_z : i32, %flags : i64, %constants : i32 ..., %bindings : tuple<i32, i32, !vm.ref<!hal.buffer>, i64, i64> ...)
    vm.import private @hal.device.allocator(%device : !vm.ref<!hal.device>) -> !vm.ref<!hal.allocator> attributes {nosideeffects}
    vm.import private @hal.device.query.i64(%device : !vm.ref<!hal.device>, %category : !vm.buffer, %key : !vm.buffer) -> (i32, i64) attributes {nosideeffects}
    vm.import private @hal.device.queue.execute(%device : !vm.ref<!hal.device>, %queue_affinity : i64, %wait_fence : !vm.ref<!hal.fence>, %signal_fence : !vm.ref<!hal.fence>, %command_buffer : !vm.ref<!hal.command_buffer>, %flags : i64)
    vm.import private @hal.devices.count() -> i32 attributes {nosideeffects}
    vm.import private @hal.devices.get(%index : i32) -> !vm.ref<!hal.device> attributes {nosideeffects}
    vm.import private @hal.executable.create(%device : !vm.ref<!hal.device>, %queue_affinity : i64, %executable_format : !vm.buffer, %executable_data : !vm.buffer, %constants : !vm.buffer) -> !vm.ref<!hal.executable> attributes {nosideeffects}
    vm.import private @hal.fence.create(%device : !vm.ref<!hal.device>, %flags : i64) -> !vm.ref<!hal.fence>
    vm.import private @hal.fence.await(%timeout_millis : i32, %flags : i64, %fences : !vm.ref<!hal.fence> ...) -> i32 attributes {vm.yield}
    vm.func private @main_graph$async_dispatch_65_embedded_elf_riscv_64_main_graph$async_dispatch_65_unpack_f32(%arg0: i32) attributes {iree.reflection = {iree.benchmark = "dispatch"}} {
      %c5 = vm.const.i32 5
      %c20 = vm.const.i32 20
      %c1 = vm.const.i32 1
      %c13 = vm.const.i32 13
      %zero = vm.const.i32.zero
      %c2 = vm.const.i32 2
      %c17 = vm.const.i32 17
      %c-1 = vm.const.i64 -1
      %zero_0 = vm.const.i64.zero
      %c32172032 = vm.const.i64 32172032
      %c1_1 = vm.const.i64 1
      %null = vm.const.ref.zero : !vm.ref<!hal.fence>
      %c-1_2 = vm.const.i32 -1
      %main_graph$async_dispatch_65_embedded_elf_riscv_64_main_graph$async_dispatch_65_unpack_f32_buffer = vm.global.load.ref @main_graph$async_dispatch_65_embedded_elf_riscv_64_main_graph$async_dispatch_65_unpack_f32_buffer : !vm.ref<!hal.buffer>
      %__device_0 = vm.global.load.ref @__device_0 : !vm.ref<!hal.device>
      %__device_0_executable_0_main_graph$async_dispatch_65 = vm.global.load.ref @__device_0_executable_0_main_graph$async_dispatch_65 : !vm.ref<!hal.executable>
      %0 = vm.ext.i32.i64.s %arg0 : i32 -> i64
      %ref = vm.call @hal.command_buffer.create(%__device_0, %c17, %c2, %c-1, %zero) : (!vm.ref<!hal.device>, i32, i32, i64, i32) -> !vm.ref<!hal.command_buffer>
      vm.br ^bb1(%zero_0 : i64)
    ^bb1(%1: i64):  // 2 preds: ^bb0, ^bb2
      %slt = vm.cmp.lt.i64.s %1, %0 : i64
      vm.cond_br %slt, ^bb2, ^bb3
    ^bb2:  // pred: ^bb1
      vm.call.variadic @hal.command_buffer.dispatch(%ref, %__device_0_executable_0_main_graph$async_dispatch_65, %zero, %c13, %c1, %c1, %zero_0, [], [(%zero, %zero, %main_graph$async_dispatch_65_embedded_elf_riscv_64_main_graph$async_dispatch_65_unpack_f32_buffer, %zero_0, %c32172032), (%zero, %zero, %main_graph$async_dispatch_65_embedded_elf_riscv_64_main_graph$async_dispatch_65_unpack_f32_buffer, %c32172032, %c32172032)]) : (!vm.ref<!hal.command_buffer>, !vm.ref<!hal.executable>, i32, i32, i32, i32, i64, i32 ..., tuple<i32, i32, !vm.ref<!hal.buffer>, i64, i64> ...)
      vm.call @hal.command_buffer.execution_barrier(%ref, %c20, %c5, %zero_0) : (!vm.ref<!hal.command_buffer>, i32, i32, i64) -> ()
      %2 = vm.add.i64 %1, %c1_1 : i64
      vm.br ^bb1(%2 : i64)
    ^bb3:  // pred: ^bb1
      vm.call @hal.command_buffer.finalize(%ref) : (!vm.ref<!hal.command_buffer>) -> ()
      %ref_3 = vm.call @hal.fence.create(%__device_0, %zero_0) : (!vm.ref<!hal.device>, i64) -> !vm.ref<!hal.fence>
      vm.call @hal.device.queue.execute(%__device_0, %c-1, %null, %ref_3, %ref, %zero_0) : (!vm.ref<!hal.device>, i64, !vm.ref<!hal.fence>, !vm.ref<!hal.fence>, !vm.ref<!hal.command_buffer>, i64) -> ()
      %3 = vm.call.variadic @hal.fence.await(%c-1_2, %zero_0, [%ref_3]) : (i32, i64, !vm.ref<!hal.fence> ...) -> i32
      vm.cond_br %3, ^bb5, ^bb4
    ^bb4:  // pred: ^bb3
      vm.return
    ^bb5:  // pred: ^bb3
      vm.fail %3, "failed to wait on timepoint"
    }
    vm.export @main_graph$async_dispatch_65_embedded_elf_riscv_64_main_graph$async_dispatch_65_unpack_f32 attributes {iree.abi.stub, iree.reflection = {iree.benchmark = "dispatch"}}
    vm.export @__init
    vm.func private @__init() {
      %c1 = vm.const.i32 1
      %null = vm.const.ref.zero : !vm.buffer
      %c64344064 = vm.const.i64 64344064
      %c3075 = vm.const.i32 3075
      %c48 = vm.const.i32 48
      %c-1 = vm.const.i64 -1
      %c14 = vm.const.i32 14
      %c18 = vm.const.i32 18
      %zero = vm.const.i32.zero
      %zero_0 = vm.const.i64.zero
      %c1_1 = vm.const.i64 1
      %null_2 = vm.const.ref.zero : !vm.ref<!hal.device>
      %0 = vm.call @hal.devices.count() {nosideeffects} : () -> i32
      %1 = vm.ext.i32.i64.s %0 : i32 -> i64
      vm.br ^bb1(%zero_0, %zero_0, %null_2 : i64, i64, !vm.ref<!hal.device>)
    ^bb1(%2: i64, %3: i64, %4: !vm.ref<!hal.device>):  // 2 preds: ^bb0, ^bb4
      %rnz = vm.cmp.nz.ref %4 : !vm.ref<!hal.device>
      %5 = vm.xor.i32 %rnz, %c1 : i32
      %slt = vm.cmp.lt.i64.s %2, %1 : i64
      %6 = vm.and.i32 %5, %slt : i32
      vm.cond_br %6, ^bb2, ^bb5
    ^bb2:  // pred: ^bb1
      %7 = vm.trunc.i64.i32 %2 : i64 -> i32
      %ref = vm.call @hal.devices.get(%7) {nosideeffects} : (i32) -> !vm.ref<!hal.device>
      %_utf8_hal_device_id_C1DCB7DBC4F49AE6 = vm.const.ref.rodata @_utf8_hal_device_id_C1DCB7DBC4F49AE6 : !vm.buffer
      %_utf8_local_3D3B5147158B235A = vm.const.ref.rodata @_utf8_local_3D3B5147158B235A : !vm.buffer
      %8:2 = vm.call @hal.device.query.i64(%ref, %_utf8_hal_device_id_C1DCB7DBC4F49AE6, %_utf8_local_3D3B5147158B235A) {nosideeffects} : (!vm.ref<!hal.device>, !vm.buffer, !vm.buffer) -> (i32, i64)
      %nz = vm.cmp.nz.i64 %8#1 : i64
      %9 = vm.select.i32 %8#0, %nz, %zero : i32
      vm.cond_br %9, ^bb3, ^bb4(%zero : i32)
    ^bb3:  // pred: ^bb2
      %_utf8_hal_executable_format_EAB228F999C2D3A1 = vm.const.ref.rodata @_utf8_hal_executable_format_EAB228F999C2D3A1 : !vm.buffer
      %_utf8_embedded_elf_riscv_64_38BEAC1DD46E6154 = vm.const.ref.rodata @_utf8_embedded_elf_riscv_64_38BEAC1DD46E6154 : !vm.buffer
      %10:2 = vm.call @hal.device.query.i64(%ref, %_utf8_hal_executable_format_EAB228F999C2D3A1, %_utf8_embedded_elf_riscv_64_38BEAC1DD46E6154) {nosideeffects} : (!vm.ref<!hal.device>, !vm.buffer, !vm.buffer) -> (i32, i64)
      %nz_3 = vm.cmp.nz.i64 %10#1 : i64
      %11 = vm.select.i32 %10#0, %nz_3, %zero : i32
      vm.br ^bb4(%11 : i32)
    ^bb4(%12: i32):  // 2 preds: ^bb2, ^bb3
      %eq = vm.cmp.eq.i64 %3, %zero_0 : i64
      %13 = vm.select.i64 %12, %c1_1, %zero_0 : i64
      %14 = vm.add.i64 %3, %13 : i64
      %15 = vm.and.i32 %12, %eq : i32
      %ref_4 = vm.select.ref %15, %ref, %null_2 : !vm.ref<!hal.device>
      %16 = vm.add.i64 %2, %c1_1 : i64
      vm.br ^bb1(%16, %14, %ref_4 : i64, i64, !vm.ref<!hal.device>)
    ^bb5:  // pred: ^bb1
      vm.cond_br %5, ^bb6, ^bb7
    ^bb6:  // pred: ^bb5
      vm.fail %c18, "HAL device `__device_0` not found or unavailable: #hal.device.target<\22local\22, [#hal.executable.target<\22llvm-cpu\22, \22embedded-elf-riscv_64\22, {cpu = \22spacemit-x60\22, cpu_features = \22+m,+a,+f,+d,+c,+v,+zvl256b,+zba,+zbb,+zbc,+zbs,+zicbom,+zicboz,+zicbop,+zihintpause\22, data_layout = \22e-m:e-p:64:64-i64:64-i128:128-n32:64-S128\22, iree.encoding.resolver = #iree_cpu.cpu_encoding_resolver<>, loop_vectorization = true, max_stack_allocation_size = 32768 : i64, native_vector_size = 32 : i64, target_abi = \22lp64d\22, target_triple = \22riscv64-unknown-unknown-eabi-elf\22}>]>"
    ^bb7:  // pred: ^bb5
      %_utf8_hal_executable_format_EAB228F999C2D3A1_5 = vm.const.ref.rodata @_utf8_hal_executable_format_EAB228F999C2D3A1 : !vm.buffer
      %_utf8_embedded_elf_riscv_64_38BEAC1DD46E6154_6 = vm.const.ref.rodata @_utf8_embedded_elf_riscv_64_38BEAC1DD46E6154 : !vm.buffer
      %17:2 = vm.call @hal.device.query.i64(%4, %_utf8_hal_executable_format_EAB228F999C2D3A1_5, %_utf8_embedded_elf_riscv_64_38BEAC1DD46E6154_6) {nosideeffects} : (!vm.ref<!hal.device>, !vm.buffer, !vm.buffer) -> (i32, i64)
      %nz_7 = vm.cmp.nz.i64 %17#1 : i64
      %18 = vm.select.i32 %17#0, %nz_7, %zero : i32
      %19 = vm.select.i64 %18, %zero_0, %c-1 : i64
      %eq_8 = vm.cmp.eq.i64 %19, %zero_0 : i64
      vm.global.store.ref %4, @__device_0 : !vm.ref<!hal.device>
      vm.cond_br %eq_8, ^bb8, ^bb9
    ^bb8:  // pred: ^bb7
      %main_graph_async_dispatch_65_embedded_elf_riscv_64 = vm.const.ref.rodata @main_graph_async_dispatch_65_embedded_elf_riscv_64 : !vm.buffer
      %ref_9 = vm.call @hal.executable.create(%4, %c-1, %_utf8_embedded_elf_riscv_64_38BEAC1DD46E6154_6, %main_graph_async_dispatch_65_embedded_elf_riscv_64, %null) {nosideeffects} : (!vm.ref<!hal.device>, i64, !vm.buffer, !vm.buffer, !vm.buffer) -> !vm.ref<!hal.executable>
      %__device_0 = vm.global.load.ref @__device_0 : !vm.ref<!hal.device>
      %ref_10 = vm.call @hal.device.allocator(%__device_0) {nosideeffects} : (!vm.ref<!hal.device>) -> !vm.ref<!hal.allocator>
      %ref_11 = vm.call @hal.allocator.allocate(%ref_10, %c-1, %c48, %c3075, %c64344064) : (!vm.ref<!hal.allocator>, i64, i32, i32, i64) -> !vm.ref<!hal.buffer>
      vm.global.store.ref %ref_9, @__device_0_executable_0_main_graph$async_dispatch_65 : !vm.ref<!hal.executable>
      vm.global.store.ref %ref_11, @main_graph$async_dispatch_65_embedded_elf_riscv_64_main_graph$async_dispatch_65_unpack_f32_buffer : !vm.ref<!hal.buffer>
      vm.return
    ^bb9:  // pred: ^bb7
      vm.fail %c14, "HAL device `__device_0` does not support any variant of executable `main_graph$async_dispatch_65`; available formats: [embedded-elf-riscv_64]"
    }
  }
}
