module {
  util.global private @__device_0 : !hal.device
  util.initializer {
    %c18_i32 = arith.constant 18 : i32
    %false = arith.constant false
    %c0 = arith.constant 0 : index
    %c1 = arith.constant 1 : index
    %0 = util.null : !hal.device
    %device_count = hal.devices.count : index
    cf.br ^bb1(%c0, %c0, %0 : index, index, !hal.device)
  ^bb1(%1: index, %2: index, %3: !hal.device):  // 2 preds: ^bb0, ^bb4
    %4 = util.cmp.eq %3, %0 : !hal.device
    %5 = arith.cmpi slt, %1, %device_count : index
    %6 = arith.andi %4, %5 : i1
    cf.cond_br %6, ^bb2, ^bb5
  ^bb2:  // pred: ^bb1
    %device_n = hal.devices.get %1 : !hal.device
    %ok, %value = hal.device.query<%device_n : !hal.device> key("hal.device.id" :: "local*") : i1, i1 = false
    cf.cond_br %value, ^bb3, ^bb4(%false : i1)
  ^bb3:  // pred: ^bb2
    %ok_0, %value_1 = hal.device.query<%device_n : !hal.device> key("hal.executable.format" :: "embedded-elf-riscv_64") : i1, i1 = false
    cf.br ^bb4(%value_1 : i1)
  ^bb4(%7: i1):  // 2 preds: ^bb2, ^bb3
    %8 = arith.cmpi eq, %2, %c0 : index
    %9 = arith.select %7, %c1, %c0 : index
    %10 = arith.addi %2, %9 : index
    %11 = arith.andi %7, %8 : i1
    %12 = arith.select %11, %device_n, %0 : !hal.device
    %13 = arith.addi %1, %c1 : index
    cf.br ^bb1(%13, %10, %12 : index, index, !hal.device)
  ^bb5:  // pred: ^bb1
    cf.cond_br %4, ^bb6, ^bb7
  ^bb6:  // pred: ^bb5
    util.status.check_ok %c18_i32, "HAL device `__device_0` not found or unavailable: #hal.device.target<\22local\22, [#hal.executable.target<\22llvm-cpu\22, \22embedded-elf-riscv_64\22, {cpu = \22spacemit-x60\22, cpu_features = \22+m,+a,+f,+d,+c,+v,+zvl256b,+zba,+zbb,+zbc,+zbs,+zicbom,+zicboz,+zicbop,+zihintpause\22, data_layout = \22e-m:e-p:64:64-i64:64-i128:128-n32:64-S128\22, iree.encoding.resolver = #iree_cpu.cpu_encoding_resolver<>, loop_vectorization = true, max_stack_allocation_size = 32768 : i64, native_vector_size = 32 : i64, target_abi = \22lp64d\22, target_triple = \22riscv64-unknown-unknown-eabi-elf\22}>]>"
    cf.br ^bb7
  ^bb7:  // 2 preds: ^bb5, ^bb6
    util.global.store %3, @__device_0 : !hal.device
    util.return
  }
  util.global private @__device_0_query_0_hal_executable_format_embedded_elf_riscv_64 : i1
  util.initializer {
    %__device_0 = util.global.load @__device_0 : !hal.device
    %ok, %value = hal.device.query<%__device_0 : !hal.device> key("hal.executable.format" :: "embedded-elf-riscv_64") : i1, i1 = false
    util.global.store %value, @__device_0_query_0_hal_executable_format_embedded_elf_riscv_64 : i1
    util.return
  }
  util.global private @__device_0_executable_0_main_graph$async_dispatch_162 : !hal.executable
  util.initializer {
    %0 = util.null : !hal.executable
    %c14_i32 = arith.constant 14 : i32
    %c0 = arith.constant 0 : index
    %c-1 = arith.constant -1 : index
    %c-1_i64 = arith.constant -1 : i64
    %__device_0_query_0_hal_executable_format_embedded_elf_riscv_64 = util.global.load @__device_0_query_0_hal_executable_format_embedded_elf_riscv_64 : i1
    %__device_0 = util.global.load @__device_0 : !hal.device
    %1 = arith.select %__device_0_query_0_hal_executable_format_embedded_elf_riscv_64, %c0, %c-1 : index
    %2 = arith.cmpi eq, %1, %c0 : index
    cf.cond_br %2, ^bb1, ^bb2
  ^bb1:  // pred: ^bb0
    %executable = hal.executable.create device(%__device_0 : !hal.device) affinity(%c-1_i64) target(@main_graph$async_dispatch_162::@embedded_elf_riscv_64) : !hal.executable
    cf.br ^bb3(%executable : !hal.executable)
  ^bb2:  // pred: ^bb0
    util.status.check_ok %c14_i32, "HAL device `__device_0` does not support any variant of executable `main_graph$async_dispatch_162`; available formats: [embedded-elf-riscv_64]"
    cf.br ^bb3(%0 : !hal.executable)
  ^bb3(%3: !hal.executable):  // 2 preds: ^bb1, ^bb2
    util.global.store %3, @__device_0_executable_0_main_graph$async_dispatch_162 : !hal.executable
    util.return
  }
  hal.executable private @main_graph$async_dispatch_162 {
    hal.executable.binary public @embedded_elf_riscv_64 attributes {data = dense<"0x7F454C460201010000000000000000000300F30001000000000000000000000040000000000000003016000000000000050000004000380008004000160014000600000004000000400000000000000040000000000000004000000000000000C001000000000000C001000000000000080000000000000001000000040000000000000000000000000000000000000000000000000000004805000000000000480500000000000000100000000000000100000005000000480500000000000048150000000000004815000000000000CC07000000000000CC0700000000000000100000000000000100000006000000200D000000000000202D000000000000202D000000000000A001000000000000E00200000000000000100000000000000200000006000000000E000000000000002E000000000000002E000000000000C000000000000000C000000000000000080000000000000052E5746404000000200D000000000000202D000000000000202D000000000000A001000000000000E002000000000000010000000000000051E574640600000000000000000000000000000000000000000000000000000000000000000000000000000000000000000000000000000003000070040000009910000000000000000000000000000000000000000000003F020000000000003F0200000000000001000000000000000000000000000000000000000000000000000000000000000100000012000700041D000000000000100000000000000002000000020000000000000001000000000000000000000000697265655F68616C5F65786563757461626C655F6C6962726172795F7175657279000000000000282D00000000000003000000000000009003000000000000382D00000000000003000000000000004815000000000000402D0000000000000300000000000000F003000000000000502D00000000000003000000000000002B04000000000000682D0000000000000300000000000000D004000000000000702D0000000000000300000000000000D004000000000000802D0000000000000300000000000000202D000000000000A02D0000000000000300000000000000382D000000000000A82D0000000000000300000000000000B003000000000000C02D0000000000000300000000000000402D000000000000D82D0000000000000300000000000000482D000000000000E02D0000000000000300000000000000602D0000000000006D61696E5F6772617068246173796E635F64697370617463685F313632000000000000000000000000000103010000000100000001000000000000000000000000000000000000000000000000000000000000000000000000000000000000006D61696E5F6772617068246173796E635F64697370617463685F3136325F6D61746D756C5F6C696B655F3130323478377837783235365F663332002F73637261746368322F6D65726C696E2F73616D706C65732F636F72655F70696E6E696E675F73696E676C655F776F726B6C6F61642F6D6F64656C732F676C7064657074682F6D6F64656C732F62656E63686D61726B732F6D6F64756C655F6D61696E5F6772617068246173796E635F64697370617463685F3136325F656D6265646465645F656C665F72697363765F36345F62656E63686D61726B2E6D6C6972000000001000000000000000017A5200017801011B0C020048000000180000005C100000BC07000000440E90045E810188028903920493059406950796089709980A990B9A0C9B0D420C08000374070C0290045EC1C8C9D2D3D4D5D6D7D8D9DADB440E001000000064000000CC170000100000000000000000000000130101DF2334112023308120A6FFCAFBCEF7D2F3D6EFDAEBDEE7E2E366FF6AFB6EF7000C233004EC886D8C7137570A0037580F0083600600B7140B0003650500946190658C691307076093820460938804209397800036972338E4F87199C295233CB4EA3E96B692233454F832952334A4ECB698233014F9138504E03695233CA4F637050B00938504A013060560B6952338B4F636962334C4F693050520130605E0B6952330B4F63696233CC4F4130505A0B7F50A0036952338A4F41385056036952334A4F41385052036952330A4F4138505E03695233CA4F237E50A00938505A013060560B6952338B4F236962334C4F293050520130605E0B6952330B4F23696233CC4F0130505A0B7D50A0036952338A4F01385056036952334A4F01385052036952330A4F0138505E03695233CA4EE37C50A00938505A013060560B6952338B4EE36962334C4EE93050520130605E0B6952330B4EE3696233CC4EC130505A0B7B50A0036952338A4EC93880560B698233814EB93820520B692233454EA138305E03693233064EA37A50A00938305A0130E0560B693233C74E8369E2338C4E9930E0520130F05E0B69E2334D4E9369F2330E4E9930F05A037950A00B69F233CF4E7130905603699233824E793090520B699233434E7130A05E0369A233044E7B7850A00930A05A0138B0560B69A233C54E5369B233864E5938B0520138C05E0B69B233474E5369C233084E5938C05A037750A00B69C233C94E3130D0560369D2338A4E3930D0520B69D2334B4E3130805E03698233004E3130705A03697233CE4E0B7650A00138505609384052036952338A4E0B694233494E0138605E0938705A057F003CD5734005ED30700F036962330C4E0033684ECBE96233CD4DE9A00233814DE833204EB033384EA833304EA033E84E9833E04E9033F84E8833F04E8033984E7833904E7033A84E6833A04E6033B84E5833B04E5033C84E4833C04E4033D84E3833D04E3033884E2833804E2833404E1833584E0833604E081402334C4EC5737809ED737809E5736809ED736809E5735809ED735809ED734809E033584E1033784DF833704F9869757F070CD07E80702B307170007E90702B387140087E80702B307150087E90702B3871800577071C9D7B8303B57F070CD87E90702B387160057F071C9D738313B57F070CD87E90702B3871500577071C957B8203B57F070CD07E90702B307180057F071C95738313B57F070CD87E90702B3871D0007270600577072CD57B8213B57F070CD07E90702B3071C0057F003CD5738123B57F070CD87E80702B3871B0057F003CD575707B357F070CD07E80702B3071B00577071C9D7B8003B57F070CD07E80702B3071D0057F071C9D738013B57F070CD07E80702B3871C00577071C9D7B9203B57F070CD07E90702B3871A0057F071C9D739013B57F070CD07E80702B3071A00577072CDD7B9213B57F070CD07E90702B3871F0057F003CDD739123B57F070CD87E80702B3071F0057F003CDD75737B357F070CD87E90702B3871E00577071C9D7B8303B57F070CD87E90702B387190057F071C9D738313B57F070CD87E90702B3071900577071C957B8203B57F070CD07E90702B3071E0057F071C95738313B57F070CD87E90702B3871300577072CD57B8213B57F070CD07E90702833704ED869757F003CD5738123B57F070CD87E80702833784ED869757F003CD575607B357F070CD07E80702833704EE8697577071C9D7B8003B57F070CD07E80702B307130057F071C9D738013B57F070CD07E80702B3871200577071C9D7B9203B57F070CD07E90702833784EE869757F071C9D739013B57F070CD07E80702833704EF8697577072CDD7B9213B57F070CD07E90702833784F0869757F003CDD739123B57F070CD87E80702833704F1869757F003CDD75637B357F070CD87E90702833784F18697577071C9D7B8303B57F070CD87E90702833784EF869757F071C9D738313B57F070CD87E90702833704F08697577071C957B8203B57F070CD07E90702833704F2869757F071C95738313B57F070CD87E90702833784F28697577072CD57B8213B57F070CD07E90702833704F4869757F003CD5738123B57F070CD87E80702833784F4869757F003CD575507B357F070CD07E80702833704F58697577071C9D7B8003B57F070CD07E80702833704F3869757F071C9D738013B57F070CD07E80702833784F38697577071C9D7B9203B57F070CD07E90702833784F5869757F071C9D739013B57F070CD07E80702833784F78697577072CDD7B9213B57F070CD07E90702833704F8869757F003CDD739123B57F070CD87E80702833784F88697577071C957B9103B57F070CD87E80702833704F6869757F071C95739113B57F070CD87E80702833784F68697577071C957B8103B57F070CD87E80702833704F7869757F071C95738113B57F070CD87E8070257F003CDD75537B3577072CD57B8113B57F003CD5738223B9100D75407B385673E9693070040E39EF0BE033704EC033604DF3A963366C62057D7E702D7D7F7023366C62057D6C702D7D6D702833784EB3346F62057D5A702D7D5B7029307860227E707029307C604A7E707029307060727E6070293074609A7E607029307860B27E507029307C60DD7D49702A7E50702130606100507A7640602033684EC11062330E4EC13050004E318A7B40145130104DF8330812003340120FE745E79BE791E7AFE6A5E6BBE6B1E6CFA7C5A7DBA7D1301012182809715000069359385C50733F5A50E82800000000000000000000000000600000000000000000000000000000000000000000000000000000000000000000000000000000005000000A100000000000000000000000000000000000000000000000000000000000000000000000000000000000000000000000000000000000000000000000000000000000000000000000000000001000000000000000000000000000000000000000000000000000000000000000000000000000000000000000000000000000000000000000000000000000000000000000000000000000000000000000000000000000000000000000000000000000000000000001E000000000000000800000000000000FBFFFF6F000000000100000000000000070000000000000070020000000000000800000000000000200100000000000009000000000000001800000000000000F9FFFF6F000000000C00000000000000060000000000000000020000000000000B000000000000001800000000000000050000000000000048020000000000000A0000000000000023000000000000000400000000000000300200000000000000000000000000000000000000000000011101250E1305030E10171B0EB44219110112060000022E001101120640186E0E030E3A0B3B0B49133F190000032400030E3E0B0B0B0000004B0000000400000000000801E10000002C003F00000000000000890000004815000000000000BC070000024815000000000000BC07000001580000000000000000010147000000033B0000000504006D61696E5F6772617068246173796E635F64697370617463685F3136325F6D61746D756C5F6C696B655F3130323478377837783235365F66333200696E74006D6F64756C655F6D61696E5F6772617068246173796E635F64697370617463685F3136325F656D6265646465645F656C665F72697363765F36345F62656E63686D61726B2E6D6C6972002F73637261746368322F6D65726C696E2F73616D706C65732F636F72655F70696E6E696E675F73696E676C655F776F726B6C6F61642F6D6F64656C732F676C7064657074682F6D6F64656C732F62656E63686D61726B730049524545004D0000000200000000004F0000002A0000006D61696E5F6772617068246173796E635F64697370617463685F3136325F6D61746D756C5F6C696B655F3130323478377837783235365F6633320000000000160000000200000000004F00000047000000696E740000000000413E020000726973637600013402000004100572763634693270315F6D3270305F613270315F663270325F643270325F633270305F623170305F763170305F7A69633634623170305F7A6963626F6D3170305F7A6963626F703170305F7A6963626F7A3170305F7A696363616D6F613170305F7A69636369663170305F7A6963636C736D3170305F7A6963637273653170305F7A69636E74723270305F7A69636F6E643170305F7A696373723270305F7A6966656E6365693270305F7A6968696E7470617573653270305F7A6968706D3270305F7A6D6D756C3170305F7A61363472733170305F7A61616D6F3170305F7A616C7273633170305F7A66683170305F7A66686D696E3170305F7A63613170305F7A63643170305F7A62613170305F7A62623170305F7A62633170305F7A626B633170305F7A62733170305F7A6B743170305F7A76653332663170305F7A76653332783170305F7A76653634643170305F7A76653634663170305F7A76653634783170305F7A7666683170305F7A7666686D696E3170305F7A766B743170305F7A766C313238623170305F7A766C323536623170305F7A766C3332623170305F7A766C3634623170305F737363637074723170305F7373636F66706D663170305F7373636F756E746572656E773170305F737374633170305F73737476616C613170305F737374766563643170305F73766164653170305F7376626172653170305F7376696E76616C3170305F73766E61706F743170305F737670626D743170305F78736D7476646F7431703000F7010000040061000000010101FB0E0D000101010100000001000001006D6F64756C655F6D61696E5F6772617068246173796E635F64697370617463685F3136325F656D6265646465645F656C665F72697363765F36345F62656E63686D61726B2E6D6C6972000000000000090248150000000000000105100A030D0228010511030ABA05100379BA2F2F0511DB051003794A672F6505113406036802F80401060318022E01051302261505117F0513BD05117F0513BD05117F0513BD05117F0513BD0511B70513BD05117F0513BD05117F0513BD05117F0513BD05117F0513BD05117F0513BD05117F0513BD05117F0513BD05117F0513BD05117F0513BD05117F0513BD05117F0513BD05117F0513BD05117F0513BD05117F0513D905117F0513D905117F0513D905117F0513BD05117F0513BD05117F0513D905117F0513D905117F0513D905117F0513D905117F0513D905117F0513D905117F0513D905117F0513D905117F0513D905117F0513D905117F0513D905117F0513D905117F0513D905117F0513D905117F0513D905117F0513D905117F0513D905117F0513D905117F0513D905117F0513D905117F0513D905117F05138505110871051331051147060368BA0318820513066E051103788205135205110378BA05135205110378820513022C1A051103784A050B030C08E4060B2E022800010149524545000000000000000000000000000000000000000000000000002300000000020900002E00000000000000000000000000000100000012000700041D0000000000001000000000000000002E64796E73796D002E68617368002E64796E737472002E72656C612E64796E002E726F64617461002E65685F6672616D65002E74657874002E646174612E72656C2E726F002E64796E616D6963002E72656C726F5F70616464696E67002E64656275675F616262726576002E64656275675F696E666F002E64656275675F737472002E64656275675F7075626E616D6573002E64656275675F7075627479706573002E72697363762E61747472696275746573002E64656275675F6C696E65002E636F6D6D656E74002E73796D746162002E7368737472746162002E7374727461620000697265655F68616C5F65786563757461626C655F6C6962726172795F7175657279005F44594E414D49430000000000000000000000000000000000000000000000000000000000000000000000000000000000000000000000000000000000000000000000000000000000010000000B0000000200000000000000000200000000000000020000000000003000000000000000030000000100000008000000000000001800000000000000090000000500000002000000000000003002000000000000300200000000000018000000000000000100000000000000040000000000000004000000000000000F000000030000000200000000000000480200000000000048020000000000002300000000000000000000000000000001000000000000000000000000000000170000000400000002000000000000007002000000000000700200000000000020010000000000000100000000000000080000000000000018000000000000002100000001000000020000000000000090030000000000009003000000000000400100000000000000000000000000001000000000000000000000000000000029000000010000000200000000000000D004000000000000D00400000000000078000000000000000000000000000000080000000000000000000000000000003300000001000000060000000000000048150000000000004805000000000000CC0700000000000000000000000000000200000000000000000000000000000039000000010000000300000000000000202D000000000000200D000000000000E00000000000000000000000000000001000000000000000000000000000000046000000060000000300000000000000002E000000000000000E000000000000C0000000000000000300000000000000080000000000000010000000000000004F000000080000000300000000000000C02E000000000000C00E00000000000040010000000000000000000000000000010000000000000000000000000000005E0000000100000000000000000000000000000000000000C00E00000000000039000000000000000000000000000000010000000000000000000000000000006C0000000100000000000000000000000000000000000000F90E0000000000004F00000000000000000000000000000001000000000000000000000000000000780000000100000030000000000000000000000000000000480F000000000000E6000000000000000000000000000000010000000000000001000000000000008300000001000000000000000000000000000000000000002E1000000000000051000000000000000000000000000000010000000000000000000000000000009300000001000000000000000000000000000000000000007F100000000000001A00000000000000000000000000000001000000000000000000000000000000A3000000030000700000000000000000000000000000000099100000000000003F02000000000000000000000000000001000000000000000000000000000000B50000000100000000000000000000000000000000000000D812000000000000FB01000000000000000000000000000001000000000000000000000000000000C10000000100000030000000000000000000000000000000D3140000000000000500000000000000000000000000000001000000000000000100000000000000CA0000000200000000000000000000000000000000000000D8140000000000004800000000000000150000000200000008000000000000001800000000000000D200000003000000000000000000000000000000000000002015000000000000E400000000000000000000000000000001000000000000000000000000000000DC000000030000000000000000000000000000000000000004160000000000002C00000000000000000000000000000001000000000000000000000000000000"> : vector<7088xi8>, format = "embedded-elf-riscv_64", mime_type = "application/x-elf"}
  }
  util.global private @main_graph$async_dispatch_162_embedded_elf_riscv_64_main_graph$async_dispatch_162_matmul_like_1024x7x7x256_f32_buffer : !hal.buffer
  util.initializer {
    %memory_type = hal.memory_type<"DeviceVisible|DeviceLocal"> : i32
    %buffer_usage = hal.buffer_usage<"TransferSource|TransferTarget|Transfer|DispatchStorageRead|DispatchStorageWrite|DispatchStorage"> : i32
    %c78955776 = arith.constant 78955776 : index
    %c-1_i64 = arith.constant -1 : i64
    %__device_0 = util.global.load immutable @__device_0 : !hal.device
    %allocator = hal.device.allocator<%__device_0 : !hal.device> : !hal.allocator
    %buffer = hal.allocator.allocate<%allocator : !hal.allocator> affinity(%c-1_i64) type(%memory_type) usage(%buffer_usage) : !hal.buffer{%c78955776}
    util.global.store %buffer, @main_graph$async_dispatch_162_embedded_elf_riscv_64_main_graph$async_dispatch_162_matmul_like_1024x7x7x256_f32_buffer : !hal.buffer
    util.return
  }
  util.func public @main_graph$async_dispatch_162_embedded_elf_riscv_64_main_graph$async_dispatch_162_matmul_like_1024x7x7x256_f32(%arg0: i32) attributes {iree.abi.stub, iree.reflection = {iree.benchmark = "dispatch"}} {
    %c-1_i32 = arith.constant -1 : i32
    %0 = util.null : !hal.fence
    %c1 = arith.constant 1 : index
    %c46783744 = arith.constant 46783744 : index
    %c14611584 = arith.constant 14611584 : index
    %c32172032 = arith.constant 32172032 : index
    %c0 = arith.constant 0 : index
    %c5424896_i32 = arith.constant 5424896 : i32
    %c-1_i64 = arith.constant -1 : i64
    %c16 = arith.constant 16 : index
    %main_graph$async_dispatch_162_embedded_elf_riscv_64_main_graph$async_dispatch_162_matmul_like_1024x7x7x256_f32_buffer = util.global.load immutable @main_graph$async_dispatch_162_embedded_elf_riscv_64_main_graph$async_dispatch_162_matmul_like_1024x7x7x256_f32_buffer : !hal.buffer
    %__device_0 = util.global.load immutable @__device_0 : !hal.device
    %__device_0_executable_0_main_graph$async_dispatch_162 = util.global.load immutable @__device_0_executable_0_main_graph$async_dispatch_162 : !hal.executable
    %1 = arith.index_cast %arg0 : i32 to index
    %cmd = hal.command_buffer.create device(%__device_0 : !hal.device) mode("OneShot|AllowInlineExecution") categories(Dispatch) affinity(%c-1_i64) : !hal.command_buffer
    cf.br ^bb1(%c0 : index)
  ^bb1(%2: index):  // 2 preds: ^bb0, ^bb2
    %3 = arith.cmpi slt, %2, %1 : index
    cf.cond_br %3, ^bb2, ^bb3
  ^bb2:  // pred: ^bb1
    hal.command_buffer.dispatch<%cmd : !hal.command_buffer> target(%__device_0_executable_0_main_graph$async_dispatch_162 : !hal.executable)[%c0] workgroups([%c16, %c1, %c1]) constants([%c5424896_i32]) bindings([
      (%main_graph$async_dispatch_162_embedded_elf_riscv_64_main_graph$async_dispatch_162_matmul_like_1024x7x7x256_f32_buffer : !hal.buffer)[%c0, %c32172032], 
      (%main_graph$async_dispatch_162_embedded_elf_riscv_64_main_graph$async_dispatch_162_matmul_like_1024x7x7x256_f32_buffer : !hal.buffer)[%c32172032, %c14611584], 
      (%main_graph$async_dispatch_162_embedded_elf_riscv_64_main_graph$async_dispatch_162_matmul_like_1024x7x7x256_f32_buffer : !hal.buffer)[%c46783744, %c32172032]
    ]) flags("None")
    hal.command_buffer.execution_barrier<%cmd : !hal.command_buffer> source("Dispatch|CommandRetire") target("CommandIssue|Dispatch") flags("None")
    %4 = arith.addi %2, %c1 : index
    cf.br ^bb1(%4 : index)
  ^bb3:  // pred: ^bb1
    hal.command_buffer.finalize<%cmd : !hal.command_buffer>
    %fence = hal.fence.create device(%__device_0 : !hal.device) flags("None") : !hal.fence
    hal.device.queue.execute<%__device_0 : !hal.device> affinity(%c-1_i64) wait(%0) signal(%fence) commands(%cmd) flags("None")
    %status = hal.fence.await until([%fence]) timeout_millis(%c-1_i32) flags("None") : i32
    util.status.check_ok %status, "failed to wait on timepoint"
    util.return
  }
}
