module attributes {vm.toplevel} {
  vm.module public @module {
    vm.global.ref private mutable @__device_0 : !vm.ref<!hal.device>
    vm.rodata private @_utf8_hal_device_id_C1DCB7DBC4F49AE6 {alignment = 1 : i64} "hal.device.id"
    vm.rodata private @_utf8_local_3D3B5147158B235A {alignment = 1 : i64} "local*"
    vm.rodata private @_utf8_hal_executable_format_EAB228F999C2D3A1 {alignment = 1 : i64} "hal.executable.format"
    vm.rodata private @_utf8_embedded_elf_riscv_64_38BEAC1DD46E6154 {alignment = 1 : i64} "embedded-elf-riscv_64"
    vm.rodata private @main_graph_async_dispatch_1_embedded_elf_riscv_64 {alignment = 16 : i64, mime_type = "application/x-elf"} dense<"0x7F454C460201010000000000000000000300F30001000000000000000000000040000000000000005012000000000000050000004000380008004000160014000600000004000000400000000000000040000000000000004000000000000000C001000000000000C001000000000000080000000000000001000000040000000000000000000000000000000000000000000000000000004005000000000000400500000000000000100000000000000100000005000000400500000000000040150000000000004015000000000000CC04000000000000CC0400000000000000100000000000000100000006000000100A000000000000102A000000000000102A000000000000A001000000000000F00500000000000000100000000000000200000006000000F00A000000000000F02A000000000000F02A000000000000C000000000000000C000000000000000080000000000000052E5746404000000100A000000000000102A000000000000102A000000000000A001000000000000F005000000000000010000000000000051E57464060000000000000000000000000000000000000000000000000000000000000000000000000000000000000000000000000000000300007004000000790D000000000000000000000000000000000000000000003F020000000000003F0200000000000001000000000000000000000000000000000000000000000000000000000000000100000012000700FC19000000000000100000000000000002000000020000000000000001000000000000000000000000697265655F68616C5F65786563757461626C655F6C6962726172795F7175657279000000000000182A00000000000003000000000000009003000000000000282A00000000000003000000000000004015000000000000302A0000000000000300000000000000F003000000000000402A00000000000003000000000000002404000000000000582A0000000000000300000000000000C804000000000000602A0000000000000300000000000000C804000000000000702A0000000000000300000000000000102A000000000000902A0000000000000300000000000000282A000000000000982A0000000000000300000000000000B003000000000000B02A0000000000000300000000000000302A000000000000C82A0000000000000300000000000000382A000000000000D02A0000000000000300000000000000502A0000000000006D61696E5F6772617068246173796E635F64697370617463685F310000000000000000000000000000000004010000000100000001000000000000000000000000000000000000000000000000000000000000000000000000000000000000006D61696E5F6772617068246173796E635F64697370617463685F315F636F6E765F33327835367835367833783778375F663332002F73637261746368322F6D65726C696E2F73616D706C65732F636F72655F70696E6E696E675F73696E676C655F776F726B6C6F61642F6D6F64656C732F676C7064657074682F6D6F64656C732F62656E63686D61726B732F6D6F64756C655F6D61696E5F6772617068246173796E635F64697370617463685F315F656D6265646465645F656C665F72697363765F36345F62656E63686D61726B2E6D6C697200000000001000000000000000017A5200017801011B0C020048000000180000005C100000BC04000000420ED0035A810188028903920493059406950796089709980A990B9A0C9B0D420C08000380040C02D0035AC1C8C9D2D3D4D5D6D7D8D9DADB420E001000000064000000CC140000100000000000000000000000457186E7A2E326FF4AFB4EF752F356EF5AEB5EE762E3E6FEEAFAEEF6800B81498C71B74603000D67856837C8CE00B7B7090003650600938406A983BA8500130607102338C4E603BE0501138B0826930E0820938307FC83B8050083B28501B385DA012334B4E6B3057E002330B4E6935615481377150013131500139F2600939556009317270013165700B385E541233CB4E81D8E233CC4EC93954600139676000D8E2338C4E8135A2500E56509669387058013060688B30FFA02338FC6029317670093850528131697003389B6021D8EB30B6A039317470093157700137583FF233CA4E49D8D7E9EFA954696F2959E952338B4E42334C4F24A96233CC4EA31062334C4E8B3857A0137160300233064EB93070BBA3386C602B306F7023385D5012334A4E41307C821BA952330B4E4DE9E233854F3F69A233054EFF10E233CD4E313155A00B7D50F001695938505FC558E2E95B307A6002147577004CD57A40852D734005E233C94F239A8833904E88509033504EE1305C5242330A4EE833784E79107638BE93081421308C02433850903833604E7B385D902233034E9033684E533E6C900B308D60233060603833684E3AA96233CD4F4833604E5B6952338B4EA833504E6C6952334B4EA833584E6B2952338B4F4833584E4AA952334B4F4833504E42E952330A4F4233CF4E6BE88033384EB1DA0833204ED8502033504EC1305F57F93050070833884ECB3C81521130315667145E38BA2F481430145833504EA938505C0B385B2021398520013968200833784E99697833604E9233854ECB3C6D2202334D4F8B306064113965700A207918F033604EB36962330C4F0033684EA3E96233CC4EE033684EB2E962338C4EE033684E8B2952334B4EE7146233414ED233064EC31A813058F00033684F1611685031303030893880840D145E37CBFF4233814F181472A8F71453305E541139953003355E50A233CC4F03358E60A577004CD5740856A233074F213957300833584EDFA95033604F03299033684EFB3CCC52093154800033684EE2A96B34D2821A7E40C00833604EF36952334A4F6B2952330B4F6033D04EE233464F09A8305A0833704F88507833484F3833304F7A693033D84F7130D4D0C0D456386A712014E1305400CB382A7022330F4F8B3899702833784F59697033584F24E952338A4F8033A04F5169A833F84F6CE9F033504F6AA99033B84F4169B033504F4AA92833804F3BE98233CA4F7233874F601A8050E93838339710D1D45E304AEF8814B930580393305BE0213162E0013175E00833484F8F294118FB384B4023386E800B306EB00B387AF004E953335A900B3B7B701E98F3385E200B335A900B3B6B601033504F92695F58DB30EEA0033E3B7001E8C09A8D717A04227A0FA00850B410CE3880BF9B3CA9B2187A70A00630103026A87E28407A7040087260700C377D778110727A0FA009104E316C7FEC1BF8140B385EB0192053307B500D775000D57D507429D44D7F5040DB3C6E020B3C7D02187E5060207E60702D715B6928D8C5715B50EAE90E5F079B70145577004CD07E50C00833804F1C6852147833304F2033384F031A0050593850508E307E5E057F000CC572600423356A6486DD657F000CDD745A53EA7E50502F1BF0145130104E3BE601E64FA745A79BA791A7AFA6A5A6BBA6B1A6CF67C567DB67D796182809715000069359385450733F5A50E82800000000006000000000000000000000000000000000000000000000000000000000000000000000000000000050000009F00000000000000000000000000000000000000000000000000000000000000000000000000000000000000000000000000000000000000000000000000000000000000000000000000000001000000000000000000000000000000000000000000000000000000000000000000000000000000000000000000000000000000000000000000000000000000000000000000000000000000000000000000000000000000000000000000000000000000000000001E000000000000000800000000000000FBFFFF6F000000000100000000000000070000000000000070020000000000000800000000000000200100000000000009000000000000001800000000000000F9FFFF6F000000000C00000000000000060000000000000000020000000000000B000000000000001800000000000000050000000000000048020000000000000A0000000000000023000000000000000400000000000000300200000000000000000000000000000000000000000000011101250E1305030E10171B0EB44219110112060000022E001101120640186E0E030E3A0B3B0B49133F190000032400030E3E0B0B0B0000004B0000000400000000000801D80000002C000000000000000000800000004015000000000000BC040000024015000000000000BC04000001584C0000004C00000001014700000003480000000504006D6F64756C655F6D61696E5F6772617068246173796E635F64697370617463685F315F656D6265646465645F656C665F72697363765F36345F62656E63686D61726B2E6D6C697200696E74006D61696E5F6772617068246173796E635F64697370617463685F315F636F6E765F33327835367835367833783778375F663332002F73637261746368322F6D65726C696E2F73616D706C65732F636F72655F70696E6E696E675F73696E676C655F776F726B6C6F61642F6D6F64656C732F676C7064657074682F6D6F64656C732F62656E63686D61726B73004952454500460000000200000000004F0000002A0000006D61696E5F6772617068246173796E635F64697370617463685F315F636F6E765F33327835367835367833783778375F6633320000000000160000000200000000004F00000047000000696E740000000000413E020000726973637600013402000004100572763634693270315F6D3270305F613270315F663270325F643270325F633270305F623170305F763170305F7A69633634623170305F7A6963626F6D3170305F7A6963626F703170305F7A6963626F7A3170305F7A696363616D6F613170305F7A69636369663170305F7A6963636C736D3170305F7A6963637273653170305F7A69636E74723270305F7A69636F6E643170305F7A696373723270305F7A6966656E6365693270305F7A6968696E7470617573653270305F7A6968706D3270305F7A6D6D756C3170305F7A61363472733170305F7A61616D6F3170305F7A616C7273633170305F7A66683170305F7A66686D696E3170305F7A63613170305F7A63643170305F7A62613170305F7A62623170305F7A62633170305F7A626B633170305F7A62733170305F7A6B743170305F7A76653332663170305F7A76653332783170305F7A76653634643170305F7A76653634663170305F7A76653634783170305F7A7666683170305F7A7666686D696E3170305F7A766B743170305F7A766C313238623170305F7A766C323536623170305F7A766C3332623170305F7A766C3634623170305F737363637074723170305F7373636F66706D663170305F7373636F756E746572656E773170305F737374633170305F73737476616C613170305F737374766563643170305F73766164653170305F7376626172653170305F7376696E76616C3170305F73766E61706F743170305F737670626D743170305F78736D7476646F74317030003401000004005F000000010101FB0E0D000101010100000001000001006D6F64756C655F6D61696E5F6772617068246173796E635F64697370617463685F315F656D6265646465645F656C665F72697363765F36345F62656E63686D61726B2E6D6C6972000000000000090240150000000000000105100A030F08E403090820037882BBF04D48838906036702FC010103194A03670874031966036702680103194A036708E4060319026E010603670890060319820512037208580510030EBA05120372820510030E6605120372660510030E4A05120372D606037508E405100603194A060367089006031908AC060367024201031966036702500103194A0367BA03198203674A0603194A051385051047060367D606031908900513F405109C06036766051106031F2E050B024018060B2E022200010149524545000000000000000000000000000000000000000000000000000000002300000000020900F02A00000000000000000000000000000100000012000700FC190000000000001000000000000000002E64796E73796D002E68617368002E64796E737472002E72656C612E64796E002E726F64617461002E65685F6672616D65002E74657874002E646174612E72656C2E726F002E64796E616D6963002E72656C726F5F70616464696E67002E64656275675F616262726576002E64656275675F696E666F002E64656275675F737472002E64656275675F7075626E616D6573002E64656275675F7075627479706573002E72697363762E61747472696275746573002E64656275675F6C696E65002E636F6D6D656E74002E73796D746162002E7368737472746162002E7374727461620000697265655F68616C5F65786563757461626C655F6C6962726172795F7175657279005F44594E414D49430000000000000000000000000000000000000000000000000000000000000000000000000000000000000000000000000000000000000000000000000000000000010000000B0000000200000000000000000200000000000000020000000000003000000000000000030000000100000008000000000000001800000000000000090000000500000002000000000000003002000000000000300200000000000018000000000000000100000000000000040000000000000004000000000000000F000000030000000200000000000000480200000000000048020000000000002300000000000000000000000000000001000000000000000000000000000000170000000400000002000000000000007002000000000000700200000000000020010000000000000100000000000000080000000000000018000000000000002100000001000000020000000000000090030000000000009003000000000000380100000000000000000000000000001000000000000000000000000000000029000000010000000200000000000000C804000000000000C80400000000000078000000000000000000000000000000080000000000000000000000000000003300000001000000060000000000000040150000000000004005000000000000CC0400000000000000000000000000000200000000000000000000000000000039000000010000000300000000000000102A000000000000100A000000000000E00000000000000000000000000000001000000000000000000000000000000046000000060000000300000000000000F02A000000000000F00A000000000000C0000000000000000300000000000000080000000000000010000000000000004F000000080000000300000000000000B02B000000000000B00B00000000000050040000000000000000000000000000010000000000000000000000000000005E0000000100000000000000000000000000000000000000B00B00000000000039000000000000000000000000000000010000000000000000000000000000006C0000000100000000000000000000000000000000000000E90B0000000000004F00000000000000000000000000000001000000000000000000000000000000780000000100000030000000000000000000000000000000380C000000000000DD00000000000000000000000000000001000000000000000100000000000000830000000100000000000000000000000000000000000000150D0000000000004A000000000000000000000000000000010000000000000000000000000000009300000001000000000000000000000000000000000000005F0D0000000000001A00000000000000000000000000000001000000000000000000000000000000A30000000300007000000000000000000000000000000000790D0000000000003F02000000000000000000000000000001000000000000000000000000000000B50000000100000000000000000000000000000000000000B80F0000000000003801000000000000000000000000000001000000000000000000000000000000C10000000100000030000000000000000000000000000000F0100000000000000500000000000000000000000000000001000000000000000100000000000000CA0000000200000000000000000000000000000000000000F8100000000000004800000000000000150000000200000008000000000000001800000000000000D200000003000000000000000000000000000000000000004011000000000000E400000000000000000000000000000001000000000000000000000000000000DC000000030000000000000000000000000000000000000024120000000000002C00000000000000000000000000000001000000000000000000000000000000"> : vector<6096xi8>
    vm.global.ref private mutable @__device_0_executable_0_main_graph$async_dispatch_1 : !vm.ref<!hal.executable>
    vm.global.ref private mutable @main_graph$async_dispatch_1_embedded_elf_riscv_64_main_graph$async_dispatch_1_conv_32x56x56x3x7x7_f32_buffer : !vm.ref<!hal.buffer>
    vm.import private @hal.allocator.allocate(%allocator : !vm.ref<!hal.allocator>, %queue_affinity : i64, %memory_types : i32, %buffer_usage : i32, %allocation_size : i64) -> !vm.ref<!hal.buffer>
    vm.import private @hal.command_buffer.create(%device : !vm.ref<!hal.device>, %modes : i32, %command_categories : i32, %queue_affinity : i64, %binding_capacity : i32) -> !vm.ref<!hal.command_buffer> attributes {minimum_version = 6 : i32}
    vm.import private @hal.command_buffer.finalize(%command_buffer : !vm.ref<!hal.command_buffer>)
    vm.import private @hal.command_buffer.execution_barrier(%command_buffer : !vm.ref<!hal.command_buffer>, %source_stage_mask : i32, %target_stage_mask : i32, %flags : i64)
    vm.import private @hal.command_buffer.dispatch(%command_buffer : !vm.ref<!hal.command_buffer>, %executable : !vm.ref<!hal.executable>, %entry_point : i32, %workgroup_x : i32, %workgroup_y : i32, %workgroup_z : i32, %flags : i64, %constants : i32 ..., %bindings : tuple<i32, i32, !vm.ref<!hal.buffer>, i64, i64> ...)
    vm.import private @hal.device.allocator(%device : !vm.ref<!hal.device>) -> !vm.ref<!hal.allocator> attributes {nosideeffects}
    vm.import private @hal.device.query.i64(%device : !vm.ref<!hal.device>, %category : !vm.buffer, %key : !vm.buffer) -> (i32, i64) attributes {nosideeffects}
    vm.import private @hal.device.queue.execute(%device : !vm.ref<!hal.device>, %queue_affinity : i64, %wait_fence : !vm.ref<!hal.fence>, %signal_fence : !vm.ref<!hal.fence>, %command_buffer : !vm.ref<!hal.command_buffer>, %flags : i64)
    vm.import private @hal.devices.count() -> i32 attributes {nosideeffects}
    vm.import private @hal.devices.get(%index : i32) -> !vm.ref<!hal.device> attributes {nosideeffects}
    vm.import private @hal.executable.create(%device : !vm.ref<!hal.device>, %queue_affinity : i64, %executable_format : !vm.buffer, %executable_data : !vm.buffer, %constants : !vm.buffer) -> !vm.ref<!hal.executable> attributes {nosideeffects}
    vm.import private @hal.fence.create(%device : !vm.ref<!hal.device>, %flags : i64) -> !vm.ref<!hal.fence>
    vm.import private @hal.fence.await(%timeout_millis : i32, %flags : i64, %fences : !vm.ref<!hal.fence> ...) -> i32 attributes {vm.yield}
    vm.func private @main_graph$async_dispatch_1_embedded_elf_riscv_64_main_graph$async_dispatch_1_conv_32x56x56x3x7x7_f32(%arg0: i32) attributes {iree.reflection = {iree.benchmark = "dispatch"}} {
      %c5 = vm.const.i32 5
      %c20 = vm.const.i32 20
      %c1 = vm.const.i32 1
      %c16 = vm.const.i32 16
      %zero = vm.const.i32.zero
      %c2 = vm.const.i32 2
      %c17 = vm.const.i32 17
      %c-1 = vm.const.i64 -1
      %zero_0 = vm.const.i64.zero
      %c32172032 = vm.const.i64 32172032
      %c14611584 = vm.const.i64 14611584
      %c46783744 = vm.const.i64 46783744
      %c78955776 = vm.const.i64 78955776
      %c1_1 = vm.const.i64 1
      %null = vm.const.ref.zero : !vm.ref<!hal.fence>
      %c-1_2 = vm.const.i32 -1
      %main_graph$async_dispatch_1_embedded_elf_riscv_64_main_graph$async_dispatch_1_conv_32x56x56x3x7x7_f32_buffer = vm.global.load.ref @main_graph$async_dispatch_1_embedded_elf_riscv_64_main_graph$async_dispatch_1_conv_32x56x56x3x7x7_f32_buffer : !vm.ref<!hal.buffer>
      %__device_0 = vm.global.load.ref @__device_0 : !vm.ref<!hal.device>
      %__device_0_executable_0_main_graph$async_dispatch_1 = vm.global.load.ref @__device_0_executable_0_main_graph$async_dispatch_1 : !vm.ref<!hal.executable>
      %0 = vm.ext.i32.i64.s %arg0 : i32 -> i64
      %ref = vm.call @hal.command_buffer.create(%__device_0, %c17, %c2, %c-1, %zero) : (!vm.ref<!hal.device>, i32, i32, i64, i32) -> !vm.ref<!hal.command_buffer>
      vm.br ^bb1(%zero_0 : i64)
    ^bb1(%1: i64):  // 2 preds: ^bb0, ^bb2
      %slt = vm.cmp.lt.i64.s %1, %0 : i64
      vm.cond_br %slt, ^bb2, ^bb3
    ^bb2:  // pred: ^bb1
      vm.call.variadic @hal.command_buffer.dispatch(%ref, %__device_0_executable_0_main_graph$async_dispatch_1, %zero, %c16, %c1, %c1, %zero_0, [], [(%zero, %zero, %main_graph$async_dispatch_1_embedded_elf_riscv_64_main_graph$async_dispatch_1_conv_32x56x56x3x7x7_f32_buffer, %zero_0, %c32172032), (%zero, %zero, %main_graph$async_dispatch_1_embedded_elf_riscv_64_main_graph$async_dispatch_1_conv_32x56x56x3x7x7_f32_buffer, %c32172032, %c14611584), (%zero, %zero, %main_graph$async_dispatch_1_embedded_elf_riscv_64_main_graph$async_dispatch_1_conv_32x56x56x3x7x7_f32_buffer, %c46783744, %c32172032), (%zero, %zero, %main_graph$async_dispatch_1_embedded_elf_riscv_64_main_graph$async_dispatch_1_conv_32x56x56x3x7x7_f32_buffer, %c78955776, %c32172032)]) : (!vm.ref<!hal.command_buffer>, !vm.ref<!hal.executable>, i32, i32, i32, i32, i64, i32 ..., tuple<i32, i32, !vm.ref<!hal.buffer>, i64, i64> ...)
      vm.call @hal.command_buffer.execution_barrier(%ref, %c20, %c5, %zero_0) : (!vm.ref<!hal.command_buffer>, i32, i32, i64) -> ()
      %2 = vm.add.i64 %1, %c1_1 : i64
      vm.br ^bb1(%2 : i64)
    ^bb3:  // pred: ^bb1
      vm.call @hal.command_buffer.finalize(%ref) : (!vm.ref<!hal.command_buffer>) -> ()
      %ref_3 = vm.call @hal.fence.create(%__device_0, %zero_0) : (!vm.ref<!hal.device>, i64) -> !vm.ref<!hal.fence>
      vm.call @hal.device.queue.execute(%__device_0, %c-1, %null, %ref_3, %ref, %zero_0) : (!vm.ref<!hal.device>, i64, !vm.ref<!hal.fence>, !vm.ref<!hal.fence>, !vm.ref<!hal.command_buffer>, i64) -> ()
      %3 = vm.call.variadic @hal.fence.await(%c-1_2, %zero_0, [%ref_3]) : (i32, i64, !vm.ref<!hal.fence> ...) -> i32
      vm.cond_br %3, ^bb5, ^bb4
    ^bb4:  // pred: ^bb3
      vm.return
    ^bb5:  // pred: ^bb3
      vm.fail %3, "failed to wait on timepoint"
    }
    vm.export @main_graph$async_dispatch_1_embedded_elf_riscv_64_main_graph$async_dispatch_1_conv_32x56x56x3x7x7_f32 attributes {iree.abi.stub, iree.reflection = {iree.benchmark = "dispatch"}}
    vm.export @__init
    vm.func private @__init() {
      %c1 = vm.const.i32 1
      %null = vm.const.ref.zero : !vm.buffer
      %c111127808 = vm.const.i64 111127808
      %c3075 = vm.const.i32 3075
      %c48 = vm.const.i32 48
      %c-1 = vm.const.i64 -1
      %c14 = vm.const.i32 14
      %c18 = vm.const.i32 18
      %zero = vm.const.i32.zero
      %zero_0 = vm.const.i64.zero
      %c1_1 = vm.const.i64 1
      %null_2 = vm.const.ref.zero : !vm.ref<!hal.device>
      %0 = vm.call @hal.devices.count() {nosideeffects} : () -> i32
      %1 = vm.ext.i32.i64.s %0 : i32 -> i64
      vm.br ^bb1(%zero_0, %zero_0, %null_2 : i64, i64, !vm.ref<!hal.device>)
    ^bb1(%2: i64, %3: i64, %4: !vm.ref<!hal.device>):  // 2 preds: ^bb0, ^bb4
      %rnz = vm.cmp.nz.ref %4 : !vm.ref<!hal.device>
      %5 = vm.xor.i32 %rnz, %c1 : i32
      %slt = vm.cmp.lt.i64.s %2, %1 : i64
      %6 = vm.and.i32 %5, %slt : i32
      vm.cond_br %6, ^bb2, ^bb5
    ^bb2:  // pred: ^bb1
      %7 = vm.trunc.i64.i32 %2 : i64 -> i32
      %ref = vm.call @hal.devices.get(%7) {nosideeffects} : (i32) -> !vm.ref<!hal.device>
      %_utf8_hal_device_id_C1DCB7DBC4F49AE6 = vm.const.ref.rodata @_utf8_hal_device_id_C1DCB7DBC4F49AE6 : !vm.buffer
      %_utf8_local_3D3B5147158B235A = vm.const.ref.rodata @_utf8_local_3D3B5147158B235A : !vm.buffer
      %8:2 = vm.call @hal.device.query.i64(%ref, %_utf8_hal_device_id_C1DCB7DBC4F49AE6, %_utf8_local_3D3B5147158B235A) {nosideeffects} : (!vm.ref<!hal.device>, !vm.buffer, !vm.buffer) -> (i32, i64)
      %nz = vm.cmp.nz.i64 %8#1 : i64
      %9 = vm.select.i32 %8#0, %nz, %zero : i32
      vm.cond_br %9, ^bb3, ^bb4(%zero : i32)
    ^bb3:  // pred: ^bb2
      %_utf8_hal_executable_format_EAB228F999C2D3A1 = vm.const.ref.rodata @_utf8_hal_executable_format_EAB228F999C2D3A1 : !vm.buffer
      %_utf8_embedded_elf_riscv_64_38BEAC1DD46E6154 = vm.const.ref.rodata @_utf8_embedded_elf_riscv_64_38BEAC1DD46E6154 : !vm.buffer
      %10:2 = vm.call @hal.device.query.i64(%ref, %_utf8_hal_executable_format_EAB228F999C2D3A1, %_utf8_embedded_elf_riscv_64_38BEAC1DD46E6154) {nosideeffects} : (!vm.ref<!hal.device>, !vm.buffer, !vm.buffer) -> (i32, i64)
      %nz_3 = vm.cmp.nz.i64 %10#1 : i64
      %11 = vm.select.i32 %10#0, %nz_3, %zero : i32
      vm.br ^bb4(%11 : i32)
    ^bb4(%12: i32):  // 2 preds: ^bb2, ^bb3
      %eq = vm.cmp.eq.i64 %3, %zero_0 : i64
      %13 = vm.select.i64 %12, %c1_1, %zero_0 : i64
      %14 = vm.add.i64 %3, %13 : i64
      %15 = vm.and.i32 %12, %eq : i32
      %ref_4 = vm.select.ref %15, %ref, %null_2 : !vm.ref<!hal.device>
      %16 = vm.add.i64 %2, %c1_1 : i64
      vm.br ^bb1(%16, %14, %ref_4 : i64, i64, !vm.ref<!hal.device>)
    ^bb5:  // pred: ^bb1
      vm.cond_br %5, ^bb6, ^bb7
    ^bb6:  // pred: ^bb5
      vm.fail %c18, "HAL device `__device_0` not found or unavailable: #hal.device.target<\22local\22, [#hal.executable.target<\22llvm-cpu\22, \22embedded-elf-riscv_64\22, {cpu = \22spacemit-x60\22, cpu_features = \22+m,+a,+f,+d,+c,+v,+zvl256b,+zba,+zbb,+zbc,+zbs,+zicbom,+zicboz,+zicbop,+zihintpause\22, data_layout = \22e-m:e-p:64:64-i64:64-i128:128-n32:64-S128\22, iree.encoding.resolver = #iree_cpu.cpu_encoding_resolver<>, loop_vectorization = true, max_stack_allocation_size = 32768 : i64, native_vector_size = 32 : i64, target_abi = \22lp64d\22, target_triple = \22riscv64-unknown-unknown-eabi-elf\22}>]>"
    ^bb7:  // pred: ^bb5
      %_utf8_hal_executable_format_EAB228F999C2D3A1_5 = vm.const.ref.rodata @_utf8_hal_executable_format_EAB228F999C2D3A1 : !vm.buffer
      %_utf8_embedded_elf_riscv_64_38BEAC1DD46E6154_6 = vm.const.ref.rodata @_utf8_embedded_elf_riscv_64_38BEAC1DD46E6154 : !vm.buffer
      %17:2 = vm.call @hal.device.query.i64(%4, %_utf8_hal_executable_format_EAB228F999C2D3A1_5, %_utf8_embedded_elf_riscv_64_38BEAC1DD46E6154_6) {nosideeffects} : (!vm.ref<!hal.device>, !vm.buffer, !vm.buffer) -> (i32, i64)
      %nz_7 = vm.cmp.nz.i64 %17#1 : i64
      %18 = vm.select.i32 %17#0, %nz_7, %zero : i32
      %19 = vm.select.i64 %18, %zero_0, %c-1 : i64
      %eq_8 = vm.cmp.eq.i64 %19, %zero_0 : i64
      vm.global.store.ref %4, @__device_0 : !vm.ref<!hal.device>
      vm.cond_br %eq_8, ^bb8, ^bb9
    ^bb8:  // pred: ^bb7
      %main_graph_async_dispatch_1_embedded_elf_riscv_64 = vm.const.ref.rodata @main_graph_async_dispatch_1_embedded_elf_riscv_64 : !vm.buffer
      %ref_9 = vm.call @hal.executable.create(%4, %c-1, %_utf8_embedded_elf_riscv_64_38BEAC1DD46E6154_6, %main_graph_async_dispatch_1_embedded_elf_riscv_64, %null) {nosideeffects} : (!vm.ref<!hal.device>, i64, !vm.buffer, !vm.buffer, !vm.buffer) -> !vm.ref<!hal.executable>
      %__device_0 = vm.global.load.ref @__device_0 : !vm.ref<!hal.device>
      %ref_10 = vm.call @hal.device.allocator(%__device_0) {nosideeffects} : (!vm.ref<!hal.device>) -> !vm.ref<!hal.allocator>
      %ref_11 = vm.call @hal.allocator.allocate(%ref_10, %c-1, %c48, %c3075, %c111127808) : (!vm.ref<!hal.allocator>, i64, i32, i32, i64) -> !vm.ref<!hal.buffer>
      vm.global.store.ref %ref_9, @__device_0_executable_0_main_graph$async_dispatch_1 : !vm.ref<!hal.executable>
      vm.global.store.ref %ref_11, @main_graph$async_dispatch_1_embedded_elf_riscv_64_main_graph$async_dispatch_1_conv_32x56x56x3x7x7_f32_buffer : !vm.ref<!hal.buffer>
      vm.return
    ^bb9:  // pred: ^bb7
      vm.fail %c14, "HAL device `__device_0` does not support any variant of executable `main_graph$async_dispatch_1`; available formats: [embedded-elf-riscv_64]"
    }
  }
}
