module attributes {vm.toplevel} {
  vm.module public @module {
    vm.global.ref private mutable @__device_0 : !vm.ref<!hal.device>
    vm.rodata private @_utf8_hal_device_id_C1DCB7DBC4F49AE6 {alignment = 1 : i64} "hal.device.id"
    vm.rodata private @_utf8_local_3D3B5147158B235A {alignment = 1 : i64} "local*"
    vm.rodata private @_utf8_hal_executable_format_EAB228F999C2D3A1 {alignment = 1 : i64} "hal.executable.format"
    vm.rodata private @_utf8_embedded_elf_riscv_64_38BEAC1DD46E6154 {alignment = 1 : i64} "embedded-elf-riscv_64"
    vm.rodata private @main_graph_async_dispatch_68_embedded_elf_riscv_64 {alignment = 16 : i64, mime_type = "application/x-elf"} dense<"0x7F454C460201010000000000000000000300F3000100000000000000000000004000000000000000A837000000000000050000004000380008004000160014000600000004000000400000000000000040000000000000004000000000000000C001000000000000C001000000000000080000000000000001000000040000000000000000000000000000000000000000000000000000006C0D0000000000006C0D000000000000001000000000000001000000050000006C0D0000000000006C1D0000000000006C1D000000000000A822000000000000A82200000000000000100000000000000100000006000000203000000000000020500000000000002050000000000000A001000000000000E00F00000000000000100000000000000200000006000000003100000000000000510000000000000051000000000000C000000000000000C000000000000000080000000000000052E5746404000000203000000000000020500000000000002050000000000000A001000000000000E00F000000000000010000000000000051E574640600000000000000000000000000000000000000000000000000000000000000000000000000000000000000000000000000000003000070040000007233000000000000000000000000000000000000000000003F020000000000003F02000000000000010000000000000000000000000000000000000000000000000000000000000001000000120007000440000000000000100000000000000002000000020000000000000001000000000000000000000000697265655F68616C5F65786563757461626C655F6C6962726172795F717565727900000000000028500000000000000300000000000000A00B000000000000385000000000000003000000000000006C1D00000000000040500000000000000300000000000000000C00000000000050500000000000000300000000000000280C00000000000068500000000000000300000000000000D00C00000000000070500000000000000300000000000000D00C000000000000805000000000000003000000000000002050000000000000A05000000000000003000000000000003850000000000000A8500000000000000300000000000000C00B000000000000C05000000000000003000000000000004050000000000000D85000000000000003000000000000004850000000000000E050000000000000030000000000000060500000000000000000000000000000000000000000000000000000000000000000000000000000000000000000000000000000000000000000000000000000000000000000000000000000000000000000000000000000000000000000000000000000000000000000000000000000000000000000000000000000000020000000000000000000000001002100000000000000000000000200220000000000000000000000030023000000000000000000000004002400000000000000000000000500250000000000000000000000060026000000000000000000000007002700000000000000000000000800280000000000000000000000200000000000000000000000010021000000000000000000000002002200000000000000000000000300230000000000000000000000040024000000000000000000000005002500000000000000000000000600260000000000000000000000070027000000000000000000000008002800000000000000000000000900000000000000000000002000000000000000000000000100210000000000000000000000020022000000000000000000000003002300000000000000000000000400240000000000000000000000050025000000000000000000000006002600000000000000000000000700270000000000000000000000080028000000000000000000000000000000000000000000000000000100000000000100000000000000020000000000020000000000000003000000000003000000000000000400000000000000000000000000000000000000000000000000000000000000000000000000000000000000000000000000000000000000000000000000000000003B00000000000000000000001C003C00000000000000000000001D003D00000000000000000000001E003E00000000000000000000001F003F000000000000000000000000000000000000000000000000000000000000000000000000000000000000000000000000000000000000000000000000000000000000000000000000000000000000001C003C00000000000000000000001D003D00000000000000000000001E003E00000000000000000000001F003F00000000000000000000000000000000000000000000000000000000000000000000000000000000000000000000000000000000000000000000000000000000000000000000000000000000001B003B00000000000000000000001C003C00000000000000000000001D003D00000000000000000000001E003E00000000000000000000001F003F00000000000000000000000000000000000000000000000000000000000000000000000000000000000000000000000000000000000000000000000000000000000000120032000000000000000000000013003300000000000000000000001400340000000000000000000000150035000000000000000000000016003600000000000000000000001700370000000000000000000000180038000000000000000000000019003900000000000000000000001A003A00000000000000000000001B000000000000000000000013003300000000000000000000001400340000000000000000000000150035000000000000000000000016003600000000000000000000001700370000000000000000000000180038000000000000000000000019003900000000000000000000001A003A00000000000000000000001B003B00000000000000120032000000000000000000000013003300000000000000000000001400340000000000000000000000150035000000000000000000000016003600000000000000000000001700370000000000000000000000180038000000000000000000000019003900000000000000000000001A003A0000000000000000000000000009000000000009000000000000000A00000000000A000000000000000B00000000000B000000000000000C00000000000C000000000000000D00000000000000000000000000000000000000000000000000000000000000000000000000000000000000000000000000000000000000000000000000000000000000000009002900000000000000000000000A002A00000000000000000000000B002B00000000000000000000000C002C00000000000000000000000D002D00000000000000000000000E002E00000000000000000000000F002F0000000000000000000000100030000000000000000000000011003100000000000000000000002900000000000000000000000A002A00000000000000000000000B002B00000000000000000000000C002C00000000000000000000000D002D00000000000000000000000E002E00000000000000000000000F002F0000000000000000000000100030000000000000000000000011003100000000000000000000001200320000000000000009002900000000000000000000000A002A00000000000000000000000B002B00000000000000000000000C002C00000000000000000000000D002D00000000000000000000000E002E00000000000000000000000F002F00000000000000000000001000300000000000000000000000110031000000000000000000000004000000000000000500000000000500000000000000060000000000060000000000000007000000000007000000000000000800000000000800000030180C0683C16030180C0683C160301820100804028140200C0683C16030180C100804028140201040201008040281400000000000000000000000000000000000000D000000000000000E00000000000E000000000000000F00000000000F006D61696E5F6772617068246173796E635F64697370617463685F363800000000000000000000000000000102010000000100000001000000000000000000000000000000000000000000000000000000000000000000000000000000000000006D61696E5F6772617068246173796E635F64697370617463685F36385F756E7061636B5F663332002F73637261746368322F6D65726C696E2F73616D706C65732F636F72655F70696E6E696E675F73696E676C655F776F726B6C6F61642F6D6F64656C732F676C7064657074682F6D6F64656C732F62656E63686D61726B732F6D6F64756C655F6D61696E5F6772617068246173796E635F64697370617463685F36385F656D6265646465645F656C665F72697363765F36345F62656E63686D61726B2E6D6C697200000000000000001000000000000000017A5200017801011B0C02006C00000018000000801000009822000000520E800A0260810188029203930494059506960797089809990A9A0B9B0CA80DA90EB20FB310B411B512B613B714B815B916BA17BB18440C080003BA210C02800A0260C1C8D2D3D4D5D6D7D8D9DADBE8E9F2F3F4F5F6F7F8F9FAFB440E00001000000088000000A83200001000000000000000000000000365060031466374A6006F20A028130101B0233C114E2338814E2334214F2330314F233C414D2338514D2334614D2330714D233C814B2338914B2334A14B2330B14B273C8148273891482734214927303149273C4147273851472734614727307147273C8145273891452734A1452730B14513040150732620C21A063326C6203301C140137101F88146906D8C71931765009308003113080004131715003AF49313E50095620366060003BE05008C65376330183385F840938C02781307130CB347050B719A33897500729632EC130D000257F080CDD76A07423785C16037160804930A6530160613058640576405421305014427048502B7C060309380301857F063CC5721216E372B0600373C0600B74B0600732520C23325252013050544A70A8502732520C20A9513050544270185023EF0958F3327F0005770600C5744075ED734806613A7E700134717005744075E5735806613A7F700134717005744075ED735806613A70701134717005744075E5736806613A71701134717005744075ED736806613A72701134717005744075E5737806613A73701134717005744075ED737806613A74701134717005744075E5738806613A75701134717005744075ED738806613A76701134717005744075E5739806613A77701134717005744075ED739806613A78701134717005744075E573A806613A79701134717005744075E36FC13D7560022752A97131577002A07098F57348066732520C2931545003385A5400A951305054427048502E268BA986558930D000413A507029342150013A5F70113431500732520C2ED453305B5020A9513050544A704850257A42462732520C2B9453305B5020A95130505442704850213A5E701F32520C26946B385C5028A95938505442785850257242562F32520C23546B385C5028A95938505442784850293431500732520C2E5453305B5020A9513050544A705850257A42562732520C20A053325A5200A95130505442704850213A5D701F32520C28E05B3A5B5208A95938505442786850257242662F32520C22D46B385C5028A959385054427848502134E1500732520C2DD453305B5020A9513050544A706850257A42662732520C206053345A5200A95130505442704850213A5C701F32520C25946B385C5028A95938505442787850257242762F32520C2B3E5B5208A959385054427848502934E1500732520C2D5453305B5020A9513050544A707850257A42762732520C233652520130505442704850213A5B701F32520C28A05B3C5B5208A95938505442788850257242862F32520C213963500B305B6408A959385054427848502134F1500732520C2CD453305B5020A9513050544A708850257A42862732520C206053325A5200A95130505442704850213A5A701F32520C28605B3E5B5208A95938505442789850257242962F32520C2B3C5B5208A959385054427848502934F1500732520C2931545002E950A9513050544A709850257A42962732520C23345252013050544270485024AF893090004732520C212050A9513050544270A850257242A62732520C23325A5200A9513050544270485021D08336508213345052121813307A840621765933A95621569913307950317E5FFFF97E6FFFF17F6FFFF130505209386C627469757702D0D07680702F32520C28E05B3E5B5208A9593850544278885E29305070807E005029305071007EC0502F32520C29605B3C5B5208A9593850544278C85E2930507181306069507E40502F32520C2130A8009B38545038A9593850544278085E2F32520C2130A800BB38545038A9593850544278485E257F03D0D57480D3A5700085EF32520C2130A8008B38545038A9593850544278885E257F080CD07780602F32520C213068007B385C5028A95938505442788850257F03D05574C8D3AF32520C29205B3E5B5208A9593850544278C85E207D40602075605025708043A732520C2930580073305B5020A95130505440700850257088639732520C21A050A9513050544270885E217E5FFFF97F5FFFF1305051E130607209306072857702D0D076C0602732620C2130A000B330646030A9613060644270C86E29385C58107E40602732620C29306800A3306D6020A9613060644270486E257F080CD07F0050257F03D05574C8D3AF32520C29E058A9593850544278C85E20752050257B4039F5704823917E5FFFF97E5FFFF1305451E130607309385857C57702D0D076C06020753050257F080CD07F005025770BD0D5708833B57F03D055704885C732520C216053325A5200A9513050544270485E217E5FFFF97E5FFFF13058529938545210754050207DE0502732520C2930580083305B5020A9513050544070085E25708043A732520C2332525201305054407008502732520C212053365A5200A9513050544070485E257088E3817E5FFFF1305E52B97E5FFFF93856573075E050257F080CD57E00A42732520C21E050A9513050544070485E257F03D0557088E38732520C2130680063305C5020A9513050544270885E25770A8CD07D605025704863B17E5FFFF930501440780850257F03D0D5704045DF32520C213060007B385C5028A9593850544278485E21305852E97E5FFFF9385A53313963002069697E6FFFF57F080CD5760064257F03D0507D20502075E0502732520C2930580083305B5020A9513050544070485E25708823A732520C212053365A5200A9513050544070485E257088E38732520C2930580053305B5020A9513050544270885E21385C63A07520502732520C2930580073305B5020A951305054407008502732520C21E050A9513050544070485E25708823817E5FFFF97E5FFFF1305A55F9385653957F080CD077005025770BD0D07D305025704833B57F03D0D5704045D732520C2930580073305B5020A9513050544270485E217E5FFFF1305853D97E5FFFF13963A0293850545569657F080CD57600642100157F03D0507D20502075E0502732520C2930580083305B5020A9513050544070485E25708823A732520C212053365A5200A9513050544070485E257088E385704085E732520C212053345A5200A9513050544270885E217E5FFFF97E5FFFF1305A5529385E54557F080CD0770050217E5FFFF57F03D0507D20502F32520C29E058A9593850544078885E2570402391305A54C97E5FFFF9385654F57709D0C0753050257F080CD07F005025770BD0D5708833B57F03D0D5704885C732520C2930580083305B5020A9513050544270485E213A52700134A150057F063CC57440A5E9D4557348066732520C2930630033305D5020A95130505442704850213A53700134515005744055E57348066732520C2930660033305D5020A95130505442704850213A54700134515005744055E57348066732520C2930650033305D5020A95130505442704850213A55700134515005744055E57348066732520C2930640033305D5020A95130505442704850213A56700134515005744055E57348066732520C2930670033305D5020A95130505442704850213A57700134515005744055E57348066732520C2930680033305D5020A95130505442704850213A58700134515005744055E57348066732520C2930690033305D5020A95130505442704850213A59700134515005744055E57348066732520C29306A0033305D5020A95130505442704850213A5A700134515005744055E57348066732520C29306B0033305D5020A95130505442704850213A5B700134515005744055E57348066732520C29306C0033305D5020A95130505442704850213A5C700134515005744055E57348066732520C29306D0033305D5020A95130505442704850213A5D700134515005744055E57348066732520C29306E0033305D5020A95130505442704850257C40F5E57348066732520C2931665003385A6400A95130505442704850257440F5E57348066732520C21E050A951305054427048502732520C21A050A9513050544070485E2577018CD5734873E732520C21A050A951305054427048522732520C2930680093305D5020A9513050544070485E257B4843ED7178042732520C216053345A5200A9513050544070485E257B4843ED7168042732520C29306800B3305D5020A9513050544070485E257B4843E57178042732520C29306000B3305D5020A9513050544070085E257B4043ED7158042732520C29306800A3305D5020A9513050544070885E257B4043F57168042732520C212053365A5200A9513050544270C85E257B4843F57158042732520C2930680093305D5020A9513050544070485E25734853ED7118042732520C216053345A5200A9513050544070485E25734853E57128042732520C29306800B3305D5020A9513050544070485E25734853ED71380425734053ED71280425734053F571180425734853FD7108042732520C2930680093305D5020A9513050544070C85E257B4863F57138042732520C216053345A5200A9513050544070085E257B4063E5710804257F000CD57B4803FD71E804257B4003E571F8042732520C29306800B3305D5020A9513050544070485E257B4803ED71F8042732520C29306000B3305D5020A9513050544070485E257B4803ED7148042732520C29306800A3305D5020A9513050544070485E257B4803E57198042732520C212053365A5200A9513050544070885E257B4003FD71B80425734823F571A80425734023E57148042732520C29306800B3305D5020A9513050544070485E25734823ED7198042732520C29306000B3305D5020A9513050544070485E25734823ED71A8042732520C29306800A3305D5020A9513050544070485E25734823E571C80425734023F571D804257B4823FD71C804257B4023E571B8042732520C20E053365A5200A9513050544070885E2D7B3003F5734023F732520C2931655003385A6400A95130505442704850257B4023F732520C29316550036950A9513050544270485025734033F732520C2930620033305D5020A9513050544270485025734033E732520C29306C0023305D5020A95130505442704850257B4033F732520C2930610033305D5020A95130505442704850257B4033E732520C212053325A5200A951305054427048502732520C29306800B3305D5020A9513050544070485E257B3823E5734833F732520C2F9463305D5020A951305054427048502732520C29306800B3305D5020A9513050544070485E25734833E732520C216050A95130505442704850257B4833F732520C2930620023305D5020A951305054427048502732520C29306800B3305D5020A9513050544070485E257B4833E732520C2930630023305D5020A95130505442704850257F010CD57BB043F573A053F57B4063F732520C29306E0023305D5020A9513050544270485225734073F732520C20E053345A5200A9513050544270485225734073E732520C2930660023305D5020A95130505442704852257B4073F732520C29306A0023305D5020A95130505442704852257702D0D276806021006080757F010CD5734873FF32620C28A06B3E6D6208A9693860644278486220728410C57B4873FF32620C28E06B3E6D6208A96938606442784862257702D0D276C050257F010CD57B4073E732520C2930680093305D5020A9513050544270485228728413C732520C29306800B3305D5020A9513050544070485E257BF863E57702D0D276006021004080557F010CD5736873EF32620C27147B386E6028A969386064427868622072E413457B6873EF32620C29606B3C6D6208A96938606442786862257702D0D27640502577004CDD7357032D71D604257D4BE3E57548F3E732520C29306000B3305D5020A9513050544070085E257BC019ED7B5823FD71EB04257D48F3E57D4843E732520C29306800A3305D5020A9513050544070085E2D7B5023E571FB0425754893E57D48B3E732520C29306D0023305D5020A951305054427048502732520C2931655003385A6400A9513050544870485025734903257588A3E732520C212053365A5200A9513050544070485E2D7B5823ED71FB0425754043F732520C2F9463305D5020A950724054457D4893E732520C29306C0023305D5020A958724054457D48A3E732520C216050A950729054457548C3E57548D3E732520C29306C0023305D5020A951305054427048502732520C29316550036950A9513050544870485025734903257D48C3ED734833FD719904257548B3E57D48D3ED734033E57B8019E571A904257D48E3E57548F3E732520C2930620033305D5020A951305054407058502D734A03257D48F3E732520C2930620033305D5020A951305054427048502732520C212053365A5200A9513050544070085E25734033ED71E80425754943E732520C2930620023305D5020A95072F054457D4843E732520C212053325A5200A95872F05445754893E732520C2930630023305D5020A950724054457D4893E57548A3E732520C2930610033305D5020A951305054407058502D734A03257D48E3E732520C212053325A5200A95130505442704850257B4833FD71E804257549F3E57D48F3ED7B4033F571F90425754843E57D48E3ED7B4033ED71E904257548F3ED7346033D7D78E3ED71EE04357D4973E57D4863E732520C29306000B3305D5020A9513050544070C85E257F010CD57BC863FD7178043577004CD5754873E57D4853E57F010CD57BC063F57178043577004CD5754863ED73440335754853E732520C2930610033305D5020A95130505442704850257D4913E57F010CD57BB063ED7166043577004CD5754823E732520C20A053365A5200A9513050544070585225716A04257D4833E732520C2930660023305D5020A951305054407058522D715A04257D4823E732520C2F1463305D5020A9513050544070585225715A0425754813E732520C29306E0023305D5020A951305054407058522D734A03257D4803E732520C29306E0023305D5020A9513050544270485025754933E732520C29306000B3305D5020A9513050544070C85E257F010CD5739873FD7102043577004CD5754803E57D48E3E732520C29306800A3305D5020A9513050544070885E257F010CD5739073F57102043577004CD57D4873E732520C20E053345A5200A951305054407058522D734A0325754873ED7D3863E57F010CD5735073ED717A042577004CD5754963E732520C20E053365A5200A9513050544070585225717A04257D4853E732520C2930680093305D5020A951305054407058522D716A0425754853E732520C216053345A5200A9513050544070585225716A04257D4803E732520C29306A0023305D5020A9513050544070685225735C0325754803E57D4873E732520C216053345A5200A95130505442704850257F010CD57B4873FD7178042577004CD5754A73E57D5863E732520C29306800A3305D5020A9513050544070885E257F010CD57B4073F57178042577004CD5754A63E57D5873E57F010CD57B4073ED7178042577004CD5754A73E0727412C57F063CCD7C40E5E57702D0D276C060210020803577004CD57D4873EF32620C28E06B3E6D6208A969386064427848602872741245754085E57702D0D27680502577004CD57D4883E8726411C57F063CCD7349066732520C29306800A3305D5020A9513050544A704850257702D0D27600602577004CD57548E3E5754873E0727411433D7B90A9305800357D4873E57D4863E57F063CCD7440E5E872281140721C11407288115577004CD5754873E732520C2130680093305C5020A9513050544270485028727813C0727813457F063CC57349066732520C21306800B3305C5020A9513050544270485028726810C0723C10C0720810D872DC10D8723C13C8720813D072BC13D577004CD57D4065E57F063CCD7C4035E577004CD57D4873E8727812C0726C134072581350729C1355754873E0722812457F063CC573390660727C12C8725812D8729C12D577004CD57D4873E8728811C8726C1248721812557F093CD57A50852D740A76A072AC125577004CD5754823E8727C11C0722811D872AC11D57D4883E732520C212053345A5200A9513050544070885E2577018CD57B6063F577004CD57D7823E732520C2130680053305C5020A9513050544070885E2577018CD5732063F577004CD5754035E57DC833E57F063CC5744035E872B41368722813627225104072CC1150724411687228116272A51048722C116272E510657348066732520C21306000B3305C5020A951305054427048502872C410E072E810E8722C10E272851048722010F272C5106072D413E872E813E8722C13E272C51048722013F272A5106732520C26D463305C5020A9513050544070485025724146633056901732620C2B9463306D6020A96130606448704860257A0846A8722C1362720510487220137272651060723412E8724812E8722C12E272651048722012F2724510687224126872F81268723C1262724710487230127272271068723411E072F811E8728C11E272E11058728011F272011078728011727281107732620C216063326C6200A9613060644070886E227680500577028CD5734083F577034CD57C8053F9305800213050003577004CD5755863F5755A73E732620C2930680083306D6020A9613060644070C86E2577028CD573A883F577034CD574C853F732520C20A951305054407018502577004CD57D5A63E57D5A73E732520C21A050A9513050544070B8522577018CD573B813A577004CD5755A13E577018CD57B4823E577004CDD754005E732520C2130630033305C5020A95130505448708850257F063CCD7A52862577004CDD7D4903E57F063CCD7A81866577004CDD754953E57F063CC57A0156B577004CDD7D4953E732520C21306D0023305C5020A95130505448705850257F003CDD7B5B03E13050B10732620C2930660033306D6020A961306064407098602D72829624A9557291966A765050057A0286B13050B20732620C2930650033306D6020A961306064487088602D7A528624A95D7A81866276B050057A0156B13050B30732620C2930640033306D6020A961306064487088602D7A528624A95D7A818662764050057A0156B577004CD57D4913E732520C21306C0023305C5020A95130505448704850257F003CDD7B4903E13050B40732620C2930670033306D6020A961306064487088602D7A528624A95D7A81866A764050057A0156B577004CD5754823E732520C2130620033305C5020A95130505448704850257F003CDD7B4903E13050B50732620C2930680033306D6020A961306064487088602D7A528624A95D7A81866A764050057A0156B577004CD5754883E732520C212053365A5200A951305054427048502732520C212053325A5200A95130505440704850257F003CD57B4803E13050B60732620C2930690033306D6020A961306064487058602D7A425624A95D7A515662764050057A0B46A577004CD57D40D5E57F003CDD7B4F03E13050B70732620C29306A0033306D6020A961306064487078602D7A527624A95D7A71766A764050057A0F56A13050C80732620C29306B0033306D6020A961306064487058602D7A425624A95D7A515662768050057A0B46A577004CD57548B3E732520C2130610033305C5020A95130505448704850257F003CDD7B4903E13050C90732620C29306C0033306D6020A961306064487078602D7A527624A95D7A71766A764050057A0F56A13050CA0732620C29306E0023306D6020A961306064487048602D7B4903E4A95732620C29306D0033306D6020A961306064487078602D7A52762A7640500D7A4176657A0956A13050CB04A95577018CD57B6413B577004CDD755893E57F003CD27660500577018CD5734423F577004CDD7D4B93ED7549A3E732520C21306E0033305C5020A95130505440706850257F063CCD7252662577004CDD7D49A3E57F063CC5726166657A0C56A577004CDD7519C3E57F063CCD7C4025ED73B9066577004CDD7D40C5ED7549D3E13050CC0D7D49B3E4A9557F003CD27640500577004CD5754933E57D4823E732520C269463305C5020A95130505448704850257F003CDD7A4146613050CD0732620C2B5463306D6020A96130606448705860257A0956A4A95D7B4703EA7640500577004CD57D4833E575B843E732520C265463305C5020A95130505440704850257F003CD5724146613050CE0732620C20A063326C6200A96130606448704860257A0846A4A95732620C216063346C6200A96130606440704860257B4803E27640500577004CD57540E5E57D48E3E732520C20E053325A5200A95130505448704850257F003CDD7A4146613050CF0732620C2AD463306D6020A96130606448705860257A0956A4A95732620C20E063366C6200A961306064487048602D7B4903EA7640500577004CD8727410457D4873E57D4843E732520C25D463305C5020A95130505448704850257F063CCD7A41466577004CD57D48F3E732520C206053345A5200A95130505448705850257F063CC57A0956A577004CD57548F3E3305890157F003CD276C0500577004CD87274105D7D3873E732520C2130680063305C5020A9513050544070C85E2577018CD57BA853F577004CD8727010557D4075E732520C2130600073305C5020A9513050544070C85E2577028CD5738883F577004CD8727810557D4873E8727010457D4873E732520C259463305C5020A95130505448704850257F003CDD7A4146613050C10732620C23366C6200A96130606448705860257A0956A4A95732620C2930680093306D6020A961306064487048602D7B4903EA7640500577004CD8727C10457D4873E8727810457D6873E732520C255463305C5020A95130505440704850257F003CD5724146613050C20732620C233662620130606448704860257A0846A4A9557B4E03E27640500732520C20A053345A5200A9513050544070485025724146613050C30732620C2931636003386C6400A96130606448704860257A0846A4A9557B4A03E27640500732520C2130680073305C5020A9513050544070C85E2577028CD5734883F577004CD8727C10557D5C73E577018CD5732823A57B9813E577004CD8727C107D7D9A73E577034CD57C4853F93059003577004CD87278107D7D4075E87274107D7D4973E732520C212053365A5200A95130505440705850257F003CD57B5A03E577004CD8727C106D7D4973E57F003CDD7B5303E577004CD87278106D7D4973E57F003CD57B6603F577004CD87274106D7D4973E57F003CDD7B6703E577004CD87270106D7D4973E57F003CD57B7303F577004CD87270107D7D4973E732520C24D463305C5020A95130505448707850257F003CDD7A7176613050C40732620C206063326C6200A96130606448709860257A0F96A4A95D7B4903E27620500732520C206053365A5200A951305054487078502D7A7176613050C50732620C23346C6200A96130606448709860257A0F96A4A95577018CD57BA023B57F003CD27690500732520C21316450032950A951305054487078502D7A7176613050C60732620C23346262013060644070986025720F96A4A95732620C212060A961306064487078602D7A7176627650500732520C23325A5200A9513050544070585025720F56A13050C70732620C2931646003386C6400A96130606448707860257A527624A95D7A71766A76505005720F56A13850B80732620C2931666003386C6400A96130606448705860257A525624A95D7A51566276405005720B56A13850B90732620C21E060A961306064407058602572425624A9557251566276605005720A46A13850BA0732620C29306800A3306D6020A961306064407058602572425624A9557251566A76605005720A46A13850BB0732620C29306800B3306D6020A961306064407058602572425624A9557251566276705005720A46A13850BC0572423624A9557251366A76405005720A46A13850BD0732620C29306000B3306D6020A96130606448704860257A424624A95D7A41466276A05005720946A13850BE0577018CD5734013F57B5043F4A9557F003CD2764050057A41B6613850BF0D7A42B6257A0846A4A9527650500E51971096374B8006FE04FA6E27693860602427909652A99827763D4F6006FD0DFF0130104B08330814F0334014F0339814E8339014E033A814D833A014D033B814C833B014C033C814B833C014B033D814A833D014A07348149873401490739814887390148073A8147873A0147073B8146873B0146073C8145873C0145073D8144873D014413010150014582809715000069359385C50733F5A50E82800000000000000000000000000600000000000000000000000000000000000000000000000000000000000000000000000000000005000000A000000000000000000000000000000000000000000000000000000000000000000000000000000000000000000000000000000000000000000000000000000000000000000000000000000001000000000000000000000000000000000000000000000000000000000000000000000000000000000000000000000000000000000000000000000000000000000000000000000000000000000000000000000000000000000000000000000000000000000000001E000000000000000800000000000000FBFFFF6F000000000100000000000000070000000000000070020000000000000800000000000000200100000000000009000000000000001800000000000000F9FFFF6F000000000C00000000000000060000000000000000020000000000000B000000000000001800000000000000050000000000000048020000000000000A0000000000000023000000000000000400000000000000300200000000000000000000000000000000000000000000011101250E1305030E10171B0EB44219110112060000022E001101120640186E0E030E3A0B3B0B49133F190000032400030E3E0B0B0B0000004B0000000400000000000801CD0000002C002C00000000000000750000006C1D00000000000098220000026C1D00000000000098220000015804000000040000000101470000000300000000050400696E74006D61696E5F6772617068246173796E635F64697370617463685F36385F756E7061636B5F663332006D6F64756C655F6D61696E5F6772617068246173796E635F64697370617463685F36385F656D6265646465645F656C665F72697363765F36345F62656E63686D61726B2E6D6C6972002F73637261746368322F6D65726C696E2F73616D706C65732F636F72655F70696E6E696E675F73696E676C655F776F726B6C6F61642F6D6F64656C732F676C7064657074682F6D6F64656C732F62656E63686D61726B730049524545003A0000000200000000004F0000002A0000006D61696E5F6772617068246173796E635F64697370617463685F36385F756E7061636B5F6633320000000000160000000200000000004F00000047000000696E740000000000413E020000726973637600013402000004100572763634693270315F6D3270305F613270315F663270325F643270325F633270305F623170305F763170305F7A69633634623170305F7A6963626F6D3170305F7A6963626F703170305F7A6963626F7A3170305F7A696363616D6F613170305F7A69636369663170305F7A6963636C736D3170305F7A6963637273653170305F7A69636E74723270305F7A69636F6E643170305F7A696373723270305F7A6966656E6365693270305F7A6968696E7470617573653270305F7A6968706D3270305F7A6D6D756C3170305F7A61363472733170305F7A61616D6F3170305F7A616C7273633170305F7A66683170305F7A66686D696E3170305F7A63613170305F7A63643170305F7A62613170305F7A62623170305F7A62633170305F7A626B633170305F7A62733170305F7A6B743170305F7A76653332663170305F7A76653332783170305F7A76653634643170305F7A76653634663170305F7A76653634783170305F7A7666683170305F7A7666686D696E3170305F7A766B743170305F7A766C313238623170305F7A766C323536623170305F7A766C3332623170305F7A766C3634623170305F737363637074723170305F7373636F66706D663170305F7373636F756E746572656E773170305F737374633170305F73737476616C613170305F737374766563643170305F73766164653170305F7376626172653170305F7376696E76616C3170305F73766E61706F743170305F737670626D743170305F78736D7476646F743170300092000000040060000000010101FB0E0D000101010100000001000001006D6F64756C655F6D61696E5F6772617068246173796E635F64697370617463685F36385F656D6265646465645F656C665F72697363765F36345F62656E63686D61726B2E6D6C6972000000000005150A0009026C1D00000000000003120106036D0296440103132E036D083C050B0603150268010204000101495245450000000000000000000000000000000000000000000000000000000000230000000002090000510000000000000000000000000000010000001200070004400000000000001000000000000000002E64796E73796D002E68617368002E64796E737472002E72656C612E64796E002E726F64617461002E65685F6672616D65002E74657874002E646174612E72656C2E726F002E64796E616D6963002E72656C726F5F70616464696E67002E64656275675F616262726576002E64656275675F696E666F002E64656275675F737472002E64656275675F7075626E616D6573002E64656275675F7075627479706573002E72697363762E61747472696275746573002E64656275675F6C696E65002E636F6D6D656E74002E73796D746162002E7368737472746162002E7374727461620000697265655F68616C5F65786563757461626C655F6C6962726172795F7175657279005F44594E414D49430000000000000000000000000000000000000000000000000000000000000000000000000000000000000000000000000000000000000000000000000000000000010000000B0000000200000000000000000200000000000000020000000000003000000000000000030000000100000008000000000000001800000000000000090000000500000002000000000000003002000000000000300200000000000018000000000000000100000000000000040000000000000004000000000000000F000000030000000200000000000000480200000000000048020000000000002300000000000000000000000000000001000000000000000000000000000000170000000400000002000000000000007002000000000000700200000000000020010000000000000100000000000000080000000000000018000000000000002100000001000000120000000000000000040000000000000004000000000000D00800000000000000000000000000008000000000000000000000000000000029000000010000000200000000000000D00C000000000000D00C0000000000009C00000000000000000000000000000008000000000000000000000000000000330000000100000006000000000000006C1D0000000000006C0D000000000000A8220000000000000000000000000000020000000000000000000000000000003900000001000000030000000000000020500000000000002030000000000000E0000000000000000000000000000000100000000000000000000000000000004600000006000000030000000000000000510000000000000031000000000000C0000000000000000300000000000000080000000000000010000000000000004F000000080000000300000000000000C051000000000000C031000000000000400E0000000000000000000000000000010000000000000000000000000000005E0000000100000000000000000000000000000000000000C03100000000000039000000000000000000000000000000010000000000000000000000000000006C0000000100000000000000000000000000000000000000F9310000000000004F000000000000000000000000000000010000000000000000000000000000007800000001000000300000000000000000000000000000004832000000000000D2000000000000000000000000000000010000000000000001000000000000008300000001000000000000000000000000000000000000001A330000000000003E0000000000000000000000000000000100000000000000000000000000000093000000010000000000000000000000000000000000000058330000000000001A00000000000000000000000000000001000000000000000000000000000000A3000000030000700000000000000000000000000000000072330000000000003F02000000000000000000000000000001000000000000000000000000000000B50000000100000000000000000000000000000000000000B1350000000000009600000000000000000000000000000001000000000000000000000000000000C1000000010000003000000000000000000000000000000047360000000000000500000000000000000000000000000001000000000000000100000000000000CA000000020000000000000000000000000000000000000050360000000000004800000000000000150000000200000008000000000000001800000000000000D200000003000000000000000000000000000000000000009836000000000000E400000000000000000000000000000001000000000000000000000000000000DC00000003000000000000000000000000000000000000007C370000000000002C00000000000000000000000000000001000000000000000000000000000000"> : vector<15656xi8>
    vm.global.ref private mutable @__device_0_executable_0_main_graph$async_dispatch_68 : !vm.ref<!hal.executable>
    vm.global.ref private mutable @main_graph$async_dispatch_68_embedded_elf_riscv_64_main_graph$async_dispatch_68_unpack_f32_buffer : !vm.ref<!hal.buffer>
    vm.import private @hal.allocator.allocate(%allocator : !vm.ref<!hal.allocator>, %queue_affinity : i64, %memory_types : i32, %buffer_usage : i32, %allocation_size : i64) -> !vm.ref<!hal.buffer>
    vm.import private @hal.command_buffer.create(%device : !vm.ref<!hal.device>, %modes : i32, %command_categories : i32, %queue_affinity : i64, %binding_capacity : i32) -> !vm.ref<!hal.command_buffer> attributes {minimum_version = 6 : i32}
    vm.import private @hal.command_buffer.finalize(%command_buffer : !vm.ref<!hal.command_buffer>)
    vm.import private @hal.command_buffer.execution_barrier(%command_buffer : !vm.ref<!hal.command_buffer>, %source_stage_mask : i32, %target_stage_mask : i32, %flags : i64)
    vm.import private @hal.command_buffer.dispatch(%command_buffer : !vm.ref<!hal.command_buffer>, %executable : !vm.ref<!hal.executable>, %entry_point : i32, %workgroup_x : i32, %workgroup_y : i32, %workgroup_z : i32, %flags : i64, %constants : i32 ..., %bindings : tuple<i32, i32, !vm.ref<!hal.buffer>, i64, i64> ...)
    vm.import private @hal.device.allocator(%device : !vm.ref<!hal.device>) -> !vm.ref<!hal.allocator> attributes {nosideeffects}
    vm.import private @hal.device.query.i64(%device : !vm.ref<!hal.device>, %category : !vm.buffer, %key : !vm.buffer) -> (i32, i64) attributes {nosideeffects}
    vm.import private @hal.device.queue.execute(%device : !vm.ref<!hal.device>, %queue_affinity : i64, %wait_fence : !vm.ref<!hal.fence>, %signal_fence : !vm.ref<!hal.fence>, %command_buffer : !vm.ref<!hal.command_buffer>, %flags : i64)
    vm.import private @hal.devices.count() -> i32 attributes {nosideeffects}
    vm.import private @hal.devices.get(%index : i32) -> !vm.ref<!hal.device> attributes {nosideeffects}
    vm.import private @hal.executable.create(%device : !vm.ref<!hal.device>, %queue_affinity : i64, %executable_format : !vm.buffer, %executable_data : !vm.buffer, %constants : !vm.buffer) -> !vm.ref<!hal.executable> attributes {nosideeffects}
    vm.import private @hal.fence.create(%device : !vm.ref<!hal.device>, %flags : i64) -> !vm.ref<!hal.fence>
    vm.import private @hal.fence.await(%timeout_millis : i32, %flags : i64, %fences : !vm.ref<!hal.fence> ...) -> i32 attributes {vm.yield}
    vm.func private @main_graph$async_dispatch_68_embedded_elf_riscv_64_main_graph$async_dispatch_68_unpack_f32(%arg0: i32) attributes {iree.reflection = {iree.benchmark = "dispatch"}} {
      %c5 = vm.const.i32 5
      %c20 = vm.const.i32 20
      %c1 = vm.const.i32 1
      %c13 = vm.const.i32 13
      %zero = vm.const.i32.zero
      %c2 = vm.const.i32 2
      %c17 = vm.const.i32 17
      %c-1 = vm.const.i64 -1
      %c1622016 = vm.const.i32 1622016
      %zero_0 = vm.const.i64.zero
      %c32172032 = vm.const.i64 32172032
      %c1_1 = vm.const.i64 1
      %null = vm.const.ref.zero : !vm.ref<!hal.fence>
      %c-1_2 = vm.const.i32 -1
      %main_graph$async_dispatch_68_embedded_elf_riscv_64_main_graph$async_dispatch_68_unpack_f32_buffer = vm.global.load.ref @main_graph$async_dispatch_68_embedded_elf_riscv_64_main_graph$async_dispatch_68_unpack_f32_buffer : !vm.ref<!hal.buffer>
      %__device_0 = vm.global.load.ref @__device_0 : !vm.ref<!hal.device>
      %__device_0_executable_0_main_graph$async_dispatch_68 = vm.global.load.ref @__device_0_executable_0_main_graph$async_dispatch_68 : !vm.ref<!hal.executable>
      %0 = vm.ext.i32.i64.s %arg0 : i32 -> i64
      %ref = vm.call @hal.command_buffer.create(%__device_0, %c17, %c2, %c-1, %zero) : (!vm.ref<!hal.device>, i32, i32, i64, i32) -> !vm.ref<!hal.command_buffer>
      vm.br ^bb1(%zero_0 : i64)
    ^bb1(%1: i64):  // 2 preds: ^bb0, ^bb2
      %slt = vm.cmp.lt.i64.s %1, %0 : i64
      vm.cond_br %slt, ^bb2, ^bb3
    ^bb2:  // pred: ^bb1
      vm.call.variadic @hal.command_buffer.dispatch(%ref, %__device_0_executable_0_main_graph$async_dispatch_68, %zero, %c13, %c1, %c1, %zero_0, [%c1622016], [(%zero, %zero, %main_graph$async_dispatch_68_embedded_elf_riscv_64_main_graph$async_dispatch_68_unpack_f32_buffer, %zero_0, %c32172032), (%zero, %zero, %main_graph$async_dispatch_68_embedded_elf_riscv_64_main_graph$async_dispatch_68_unpack_f32_buffer, %c32172032, %c32172032)]) : (!vm.ref<!hal.command_buffer>, !vm.ref<!hal.executable>, i32, i32, i32, i32, i64, i32 ..., tuple<i32, i32, !vm.ref<!hal.buffer>, i64, i64> ...)
      vm.call @hal.command_buffer.execution_barrier(%ref, %c20, %c5, %zero_0) : (!vm.ref<!hal.command_buffer>, i32, i32, i64) -> ()
      %2 = vm.add.i64 %1, %c1_1 : i64
      vm.br ^bb1(%2 : i64)
    ^bb3:  // pred: ^bb1
      vm.call @hal.command_buffer.finalize(%ref) : (!vm.ref<!hal.command_buffer>) -> ()
      %ref_3 = vm.call @hal.fence.create(%__device_0, %zero_0) : (!vm.ref<!hal.device>, i64) -> !vm.ref<!hal.fence>
      vm.call @hal.device.queue.execute(%__device_0, %c-1, %null, %ref_3, %ref, %zero_0) : (!vm.ref<!hal.device>, i64, !vm.ref<!hal.fence>, !vm.ref<!hal.fence>, !vm.ref<!hal.command_buffer>, i64) -> ()
      %3 = vm.call.variadic @hal.fence.await(%c-1_2, %zero_0, [%ref_3]) : (i32, i64, !vm.ref<!hal.fence> ...) -> i32
      vm.cond_br %3, ^bb5, ^bb4
    ^bb4:  // pred: ^bb3
      vm.return
    ^bb5:  // pred: ^bb3
      vm.fail %3, "failed to wait on timepoint"
    }
    vm.export @main_graph$async_dispatch_68_embedded_elf_riscv_64_main_graph$async_dispatch_68_unpack_f32 attributes {iree.abi.stub, iree.reflection = {iree.benchmark = "dispatch"}}
    vm.export @__init
    vm.func private @__init() {
      %c1 = vm.const.i32 1
      %null = vm.const.ref.zero : !vm.buffer
      %c64344064 = vm.const.i64 64344064
      %c3075 = vm.const.i32 3075
      %c48 = vm.const.i32 48
      %c-1 = vm.const.i64 -1
      %c14 = vm.const.i32 14
      %c18 = vm.const.i32 18
      %zero = vm.const.i32.zero
      %zero_0 = vm.const.i64.zero
      %c1_1 = vm.const.i64 1
      %null_2 = vm.const.ref.zero : !vm.ref<!hal.device>
      %0 = vm.call @hal.devices.count() {nosideeffects} : () -> i32
      %1 = vm.ext.i32.i64.s %0 : i32 -> i64
      vm.br ^bb1(%zero_0, %zero_0, %null_2 : i64, i64, !vm.ref<!hal.device>)
    ^bb1(%2: i64, %3: i64, %4: !vm.ref<!hal.device>):  // 2 preds: ^bb0, ^bb4
      %rnz = vm.cmp.nz.ref %4 : !vm.ref<!hal.device>
      %5 = vm.xor.i32 %rnz, %c1 : i32
      %slt = vm.cmp.lt.i64.s %2, %1 : i64
      %6 = vm.and.i32 %5, %slt : i32
      vm.cond_br %6, ^bb2, ^bb5
    ^bb2:  // pred: ^bb1
      %7 = vm.trunc.i64.i32 %2 : i64 -> i32
      %ref = vm.call @hal.devices.get(%7) {nosideeffects} : (i32) -> !vm.ref<!hal.device>
      %_utf8_hal_device_id_C1DCB7DBC4F49AE6 = vm.const.ref.rodata @_utf8_hal_device_id_C1DCB7DBC4F49AE6 : !vm.buffer
      %_utf8_local_3D3B5147158B235A = vm.const.ref.rodata @_utf8_local_3D3B5147158B235A : !vm.buffer
      %8:2 = vm.call @hal.device.query.i64(%ref, %_utf8_hal_device_id_C1DCB7DBC4F49AE6, %_utf8_local_3D3B5147158B235A) {nosideeffects} : (!vm.ref<!hal.device>, !vm.buffer, !vm.buffer) -> (i32, i64)
      %nz = vm.cmp.nz.i64 %8#1 : i64
      %9 = vm.select.i32 %8#0, %nz, %zero : i32
      vm.cond_br %9, ^bb3, ^bb4(%zero : i32)
    ^bb3:  // pred: ^bb2
      %_utf8_hal_executable_format_EAB228F999C2D3A1 = vm.const.ref.rodata @_utf8_hal_executable_format_EAB228F999C2D3A1 : !vm.buffer
      %_utf8_embedded_elf_riscv_64_38BEAC1DD46E6154 = vm.const.ref.rodata @_utf8_embedded_elf_riscv_64_38BEAC1DD46E6154 : !vm.buffer
      %10:2 = vm.call @hal.device.query.i64(%ref, %_utf8_hal_executable_format_EAB228F999C2D3A1, %_utf8_embedded_elf_riscv_64_38BEAC1DD46E6154) {nosideeffects} : (!vm.ref<!hal.device>, !vm.buffer, !vm.buffer) -> (i32, i64)
      %nz_3 = vm.cmp.nz.i64 %10#1 : i64
      %11 = vm.select.i32 %10#0, %nz_3, %zero : i32
      vm.br ^bb4(%11 : i32)
    ^bb4(%12: i32):  // 2 preds: ^bb2, ^bb3
      %eq = vm.cmp.eq.i64 %3, %zero_0 : i64
      %13 = vm.select.i64 %12, %c1_1, %zero_0 : i64
      %14 = vm.add.i64 %3, %13 : i64
      %15 = vm.and.i32 %12, %eq : i32
      %ref_4 = vm.select.ref %15, %ref, %null_2 : !vm.ref<!hal.device>
      %16 = vm.add.i64 %2, %c1_1 : i64
      vm.br ^bb1(%16, %14, %ref_4 : i64, i64, !vm.ref<!hal.device>)
    ^bb5:  // pred: ^bb1
      vm.cond_br %5, ^bb6, ^bb7
    ^bb6:  // pred: ^bb5
      vm.fail %c18, "HAL device `__device_0` not found or unavailable: #hal.device.target<\22local\22, [#hal.executable.target<\22llvm-cpu\22, \22embedded-elf-riscv_64\22, {cpu = \22spacemit-x60\22, cpu_features = \22+m,+a,+f,+d,+c,+v,+zvl256b,+zba,+zbb,+zbc,+zbs,+zicbom,+zicboz,+zicbop,+zihintpause\22, data_layout = \22e-m:e-p:64:64-i64:64-i128:128-n32:64-S128\22, iree.encoding.resolver = #iree_cpu.cpu_encoding_resolver<>, loop_vectorization = true, max_stack_allocation_size = 32768 : i64, native_vector_size = 32 : i64, target_abi = \22lp64d\22, target_triple = \22riscv64-unknown-unknown-eabi-elf\22}>]>"
    ^bb7:  // pred: ^bb5
      %_utf8_hal_executable_format_EAB228F999C2D3A1_5 = vm.const.ref.rodata @_utf8_hal_executable_format_EAB228F999C2D3A1 : !vm.buffer
      %_utf8_embedded_elf_riscv_64_38BEAC1DD46E6154_6 = vm.const.ref.rodata @_utf8_embedded_elf_riscv_64_38BEAC1DD46E6154 : !vm.buffer
      %17:2 = vm.call @hal.device.query.i64(%4, %_utf8_hal_executable_format_EAB228F999C2D3A1_5, %_utf8_embedded_elf_riscv_64_38BEAC1DD46E6154_6) {nosideeffects} : (!vm.ref<!hal.device>, !vm.buffer, !vm.buffer) -> (i32, i64)
      %nz_7 = vm.cmp.nz.i64 %17#1 : i64
      %18 = vm.select.i32 %17#0, %nz_7, %zero : i32
      %19 = vm.select.i64 %18, %zero_0, %c-1 : i64
      %eq_8 = vm.cmp.eq.i64 %19, %zero_0 : i64
      vm.global.store.ref %4, @__device_0 : !vm.ref<!hal.device>
      vm.cond_br %eq_8, ^bb8, ^bb9
    ^bb8:  // pred: ^bb7
      %main_graph_async_dispatch_68_embedded_elf_riscv_64 = vm.const.ref.rodata @main_graph_async_dispatch_68_embedded_elf_riscv_64 : !vm.buffer
      %ref_9 = vm.call @hal.executable.create(%4, %c-1, %_utf8_embedded_elf_riscv_64_38BEAC1DD46E6154_6, %main_graph_async_dispatch_68_embedded_elf_riscv_64, %null) {nosideeffects} : (!vm.ref<!hal.device>, i64, !vm.buffer, !vm.buffer, !vm.buffer) -> !vm.ref<!hal.executable>
      %__device_0 = vm.global.load.ref @__device_0 : !vm.ref<!hal.device>
      %ref_10 = vm.call @hal.device.allocator(%__device_0) {nosideeffects} : (!vm.ref<!hal.device>) -> !vm.ref<!hal.allocator>
      %ref_11 = vm.call @hal.allocator.allocate(%ref_10, %c-1, %c48, %c3075, %c64344064) : (!vm.ref<!hal.allocator>, i64, i32, i32, i64) -> !vm.ref<!hal.buffer>
      vm.global.store.ref %ref_9, @__device_0_executable_0_main_graph$async_dispatch_68 : !vm.ref<!hal.executable>
      vm.global.store.ref %ref_11, @main_graph$async_dispatch_68_embedded_elf_riscv_64_main_graph$async_dispatch_68_unpack_f32_buffer : !vm.ref<!hal.buffer>
      vm.return
    ^bb9:  // pred: ^bb7
      vm.fail %c14, "HAL device `__device_0` does not support any variant of executable `main_graph$async_dispatch_68`; available formats: [embedded-elf-riscv_64]"
    }
  }
}
