module {
  util.global private @__device_0 : !hal.device
  util.initializer {
    %c18_i32 = arith.constant 18 : i32
    %false = arith.constant false
    %c0 = arith.constant 0 : index
    %c1 = arith.constant 1 : index
    %0 = util.null : !hal.device
    %device_count = hal.devices.count : index
    cf.br ^bb1(%c0, %c0, %0 : index, index, !hal.device)
  ^bb1(%1: index, %2: index, %3: !hal.device):  // 2 preds: ^bb0, ^bb4
    %4 = util.cmp.eq %3, %0 : !hal.device
    %5 = arith.cmpi slt, %1, %device_count : index
    %6 = arith.andi %4, %5 : i1
    cf.cond_br %6, ^bb2, ^bb5
  ^bb2:  // pred: ^bb1
    %device_n = hal.devices.get %1 : !hal.device
    %ok, %value = hal.device.query<%device_n : !hal.device> key("hal.device.id" :: "local*") : i1, i1 = false
    cf.cond_br %value, ^bb3, ^bb4(%false : i1)
  ^bb3:  // pred: ^bb2
    %ok_0, %value_1 = hal.device.query<%device_n : !hal.device> key("hal.executable.format" :: "embedded-elf-riscv_64") : i1, i1 = false
    cf.br ^bb4(%value_1 : i1)
  ^bb4(%7: i1):  // 2 preds: ^bb2, ^bb3
    %8 = arith.cmpi eq, %2, %c0 : index
    %9 = arith.select %7, %c1, %c0 : index
    %10 = arith.addi %2, %9 : index
    %11 = arith.andi %7, %8 : i1
    %12 = arith.select %11, %device_n, %0 : !hal.device
    %13 = arith.addi %1, %c1 : index
    cf.br ^bb1(%13, %10, %12 : index, index, !hal.device)
  ^bb5:  // pred: ^bb1
    cf.cond_br %4, ^bb6, ^bb7
  ^bb6:  // pred: ^bb5
    util.status.check_ok %c18_i32, "HAL device `__device_0` not found or unavailable: #hal.device.target<\22local\22, [#hal.executable.target<\22llvm-cpu\22, \22embedded-elf-riscv_64\22, {cpu = \22spacemit-x60\22, cpu_features = \22+m,+a,+f,+d,+c,+v,+zvl256b,+zba,+zbb,+zbc,+zbs,+zicbom,+zicboz,+zicbop,+zihintpause\22, data_layout = \22e-m:e-p:64:64-i64:64-i128:128-n32:64-S128\22, iree.encoding.resolver = #iree_cpu.cpu_encoding_resolver<>, loop_vectorization = true, max_stack_allocation_size = 32768 : i64, native_vector_size = 32 : i64, target_abi = \22lp64d\22, target_triple = \22riscv64-unknown-unknown-eabi-elf\22}>]>"
    cf.br ^bb7
  ^bb7:  // 2 preds: ^bb5, ^bb6
    util.global.store %3, @__device_0 : !hal.device
    util.return
  }
  util.global private @__device_0_query_0_hal_executable_format_embedded_elf_riscv_64 : i1
  util.initializer {
    %__device_0 = util.global.load @__device_0 : !hal.device
    %ok, %value = hal.device.query<%__device_0 : !hal.device> key("hal.executable.format" :: "embedded-elf-riscv_64") : i1, i1 = false
    util.global.store %value, @__device_0_query_0_hal_executable_format_embedded_elf_riscv_64 : i1
    util.return
  }
  util.global private @__device_0_executable_0_main_graph$async_dispatch_53 : !hal.executable
  util.initializer {
    %0 = util.null : !hal.executable
    %c14_i32 = arith.constant 14 : i32
    %c0 = arith.constant 0 : index
    %c-1 = arith.constant -1 : index
    %c-1_i64 = arith.constant -1 : i64
    %__device_0_query_0_hal_executable_format_embedded_elf_riscv_64 = util.global.load @__device_0_query_0_hal_executable_format_embedded_elf_riscv_64 : i1
    %__device_0 = util.global.load @__device_0 : !hal.device
    %1 = arith.select %__device_0_query_0_hal_executable_format_embedded_elf_riscv_64, %c0, %c-1 : index
    %2 = arith.cmpi eq, %1, %c0 : index
    cf.cond_br %2, ^bb1, ^bb2
  ^bb1:  // pred: ^bb0
    %executable = hal.executable.create device(%__device_0 : !hal.device) affinity(%c-1_i64) target(@main_graph$async_dispatch_53::@embedded_elf_riscv_64) : !hal.executable
    cf.br ^bb3(%executable : !hal.executable)
  ^bb2:  // pred: ^bb0
    util.status.check_ok %c14_i32, "HAL device `__device_0` does not support any variant of executable `main_graph$async_dispatch_53`; available formats: [embedded-elf-riscv_64]"
    cf.br ^bb3(%0 : !hal.executable)
  ^bb3(%3: !hal.executable):  // 2 preds: ^bb1, ^bb2
    util.global.store %3, @__device_0_executable_0_main_graph$async_dispatch_53 : !hal.executable
    util.return
  }
  hal.executable private @main_graph$async_dispatch_53 {
    hal.executable.binary public @embedded_elf_riscv_64 attributes {data = dense<"0x7F454C460201010000000000000000000300F3000100000000000000000000004000000000000000502C000000000000050000004000380008004000160014000600000004000000400000000000000040000000000000004000000000000000C001000000000000C00100000000000008000000000000000100000004000000000000000000000000000000000000000000000000000000C007000000000000C00700000000000000100000000000000100000005000000C007000000000000C017000000000000C0170000000000002019000000000000201900000000000000100000000000000100000006000000E020000000000000E040000000000000E040000000000000A001000000000000200F00000000000000100000000000000200000006000000C021000000000000C041000000000000C041000000000000C000000000000000C000000000000000080000000000000052E5746404000000E020000000000000E040000000000000E040000000000000A001000000000000200F000000000000010000000000000051E574640600000000000000000000000000000000000000000000000000000000000000000000000000000000000000000000000000000003000070040000004624000000000000000000000000000000000000000000003F020000000000003F0200000000000001000000000000000000000000000000000000000000000000000000000000000100000012000700D030000000000000100000000000000002000000020000000000000001000000000000000000000000697265655F68616C5F65786563757461626C655F6C6962726172795F7175657279000000000000E84000000000000003000000000000001006000000000000F8400000000000000300000000000000C01700000000000000410000000000000300000000000000700600000000000010410000000000000300000000000000A20600000000000028410000000000000300000000000000480700000000000030410000000000000300000000000000480700000000000040410000000000000300000000000000E04000000000000060410000000000000300000000000000F840000000000000684100000000000003000000000000003006000000000000804100000000000003000000000000000041000000000000984100000000000003000000000000000841000000000000A041000000000000030000000000000020410000000000000000000000000000000000000000000000000000000000000000000000000000000000000000000000000000000000000000000000000000000000000000000000000000000000000000000000000000000000000000000000000000000000000000000000000000000000000000000000000000000008000000000000000000000000000100090000000000000000000000000002000A0000000000000000000000000003000B0000000000000000000000000004000C0000000000000000000000000005000D0000000000000000000000000006000E00000000000000000000000000000000000000000000000000000008000000000000000000000000000100090000000000000000000000000002000A0000000000000000000000000003000B0000000000000000000000000004000C0000000000000000000000000005000D0000000000000000000000000006000E0000000000000000000000000000000000000000000000000000000000000000000000000000000000000008000000000000000000000000000100090000000000000000000000000002000A0000000000000000000000000003000B0000000000000000000000000004000C0000000000000000000000000005000D0000000000000000000000000006000E00000000000000000000000000000000000000000000000000000008000000000000000000000000000100090000000000000000000000000002000A0000000000000000000000000003000B0000000000000000000000000004000C0000000000000000000000000005000D0000000000000000000000000006000E000000000000000000000000000000000000000000C0C0C0C0C0C0C0000C0C0C0C0C0C0C006D61696E5F6772617068246173796E635F64697370617463685F353300000000000000000000000000000003010000000100000001000000000000000000000000000000000000000000000000000000000000000000000000000000000000006D61696E5F6772617068246173796E635F64697370617463685F35335F726564756374696F6E5F3738347836345F663332002F73637261746368322F6D65726C696E2F73616D706C65732F636F72655F70696E6E696E675F73696E676C655F776F726B6C6F61642F6D6F64656C732F676C7064657074682F6D6F64656C732F62656E63686D61726B732F6D6F64756C655F6D61696E5F6772617068246173796E635F64697370617463685F35335F656D6265646465645F656C665F72697363765F36345F62656E63686D61726B2E6D6C69720000000000001000000000000000017A5200017801011B0C020048000000180000005C1000001019000000420EF00358810188029203930494059506960797089809990A9A0B9B0C420C080003D8180C02F00358C1C8D2D3D4D5D6D7D8D9DADB420E00000000100000006400000020290000100000000000000000000000417186F7A2F3CAEFCEEBD2E7D6E35AFF5EFB62F766F36AEF6EEB801B130560AB33612520732520C2930690033305D5023301A140137101FC81438C71036F060057F003CD5734005E37460C00946598018861AAF803B8050193152F002764070213175F00B30AB740B388C6009302011071438147B3855301A20593968300338EB8009696130600045777760C33C5C721B3C5D72007640502198E27E40502BA9765F68503E39763FCC6FC014A0145814F9315AF001316DF00B73309000D8EC67EB3857E003309B6009382031093154F001E0FB29296F0B305BF40B387BE00372706003EFDB38CE700B3827500371703002E97B7550F004296138805103298B295AEE893050810AEE4930708201303083093000840C2EC930B085076973AF0F69216EC577004CD5731005EB705803C37C62737D38705F09305C65A538705F0B705803FD38605F0B7690600938909D4375B0600930D0B103E8BB73533F3373606009385353357E40542F32520C293063003B385D5028A959306C057B3E5B62027848502B7358635930306C49385D57B538605F0996E938E0E209305003AB3E725201D4C130D0110130E0004130F0002D6F4DAE01AFC06F85EF452F98145131725001316550093168500198E2AE92E05027A329AE268B298158D8672AA921D451308010C5776650CB3C6052133C7F52007E40602118D27640702B29565F5B3855F012EE1C675AE92CA85131685001696AE8657F000CC5734209E577004CD87E406029386060257948402E398C6FE3346F520050587250600D7D405425794840657F000CD2764060293850510E31F85FB57F003CD07E40702577004CD57D48792732520C2930540033305B5020A959305C05733E5A5202704850266F15734209E57F003CD87E40C02D7158042732520C2930540033305B5020A959305C05733E5A52007058502577004CDD714950A5715904257B5903E5710A04257B5803ED710A0425735913E5711A0425735813ED711A04257B5913E5712A04257B5813ED712A0425735923E5713A0425735823ED713A04257B5923EC375A5585715A0424370000857B5823EC37021185711A042C3714228D734933E43726338D71290424375A5105734833ED7D4055ED7158042C3F552585754903E57D4803E57D4813E5754823E5754853E1385FC7F57D4853E930C154457B4803EE3951CF34AF50148930B010C13058048B36C252081453306F801220693168800B30ACD001305803A33652520AA9613070004D777770C33C5552133C6D520076505021D8F27650602BE9565F70508E31388FD52ED7EE5577004CD57D48792575487025714804ED7D086866A7593058046B3E62520F32520C28A05B3C5B5208A951306C057B365B620A7808502372B0600B7700600130A000313098002B74F0600938A0F4C138D0F88B30555013306A50133076501B307750057F003CD0764070287E40702732720C2930740033307F7020A979307C05733E7E72087018702577004CD579C810A57F003CD07650602577004CD5794910A57F003CD87E40502577004CD5798A10A1383005C5795910A13880098579C20A2B3050501579420A23306B501579820A257F003CD87640602732620C2130720023306E6020A961307C0573366C720A7048602577004CD579520A217E6FFFF577018CD5738A43A1306C6795770AE0C07560602732620C2130750033306E6020A961307C0573366C7202706866217E6FFFF1306A67E577018CD573C843A5770AE0C0752060217F6FFFF1306A69557F080CD07700602732620C21307F0023306E6020A961307C0573366C7202702866257703E055704823B732620C21307E0023306E6020A961307C0573366C72027008602732620C2130750033306E6020A961307C0573366C720070C866257040C39732620C2130760023306E6020A961307C0573366C720270486E2732620C2130720023306E6020A961307C0573366C72007048602577004CD579C810A57F003CD07E40502577004CD579C20A2B30565005798810A579820A257F003CD07E40502B3053501577004CD5794810A579420A257F003CD07E50502577004CD5795A10A577018CD5738843A577004CD579520A297E5FFFF577018CD573CA43A9385857517E6FFFF1306867C97F7FFFF57703E0D075A060257048A3B57BC419F1386078457F080CD8771060257703E0507DE05025730309E57040E39F32520C213063003B385C5028A951306C057B365B62007808502F32520C213066002B385C5028A951306C057B365B620078885E25770BF0D5704885C938506E0577034CD57488F3E577004CD27E80502938506F0577034CD5748893E577004CD27E80502577034CD57488A3E577004CD27E80602577024CD5736883E938506C0577004CD27E60502577024CD57368C3EF32520C28A05B3C5B5208A951306C057B365B62087808502938506A0577004CD27E40502938506D0577014CD5734843E577004CD27E60502938506B09386060227E405027695E39796CF732520C2F5453305B5020A959305C05733E5A520270E856201459D45130680483367262057F6650CB3467521B347E52007E40602918D27E407023295E5F501459305803AB3E52520414A131685009306803AB3E62620369613060610AE8657F000CC5734209E577004CD87E406029386060257948402E398C6FE3346E520050587250600D7D405425794840657F000CD2764060293850510E31985FB732520C2931555002E950A959305C05733E5A520A7018502732520C2930520023305B5020A959305C05733E5A520270C8562577004CD5734005E57F003CD87640702577004CDD7D497926A76D73F809E930C0008EA6F3729060033076600B3060601B3073601330BB601B300A60133052601B305760057F003CD0765050287E5050257B0005E3305560107E6000287660502732520C2930540033305B5020A959305C05733E5A520070A8502577004CD5715AA0A57F003CD07670B02577004CDD717BA0A5718CA0AD735025E57F003CD07E60702577004CDD718DA0A57F003CD87E60602577004CD5717EA0A57F003CD07690702577004C5D719CA0A571DDA0A5736045ED71D2A0B579580A2D79780A2579880A2D736015ED79880A2579AF40AD79CA40A57050A5ED79A040B57B5903D579B140B5730B09E57B55039579780A25700065E57356139D79BE40AD7670A42D79980A25780075E57B57139579C340B57680F42579D80A25700085E573582395799A40BD7680E42D79D80A25780085E57B52239D799B40B57E70C425700075E57353339D73D913F5780065E577001C5D7BD403D573D509F57700009578D0D5E5730C09E577004C557BD60395730F09E573D71395730009F57BD81395730109F573D22395730E09E57BD323957BE913F5730D09E573E413D5730B09E57F001C557BE503DD73D609F57700009D70D0E5E5730F09E577004C5D7BD70395730009FD73D81395730109FD7BD21395730E09ED73D3239D73E923F5730D09ED7BE413D5730B09ED73E513D5730C09E577002C5D7BE603D573E709F57700009578E0E5E5730009F577004C557BE80395730109F573E21395730E09E57BE3139D7BE923F5730D09ED73E423D5730B09ED7BE513D5730C09ED73E613D5730F09E57F002C5D7BE703D573F809F57700009578F0E5E577004CDD73E933F577001C9D7BC403B57F001C9D73C513B577002C9D7BC613B57F002C9D73C723B577003C9D7BC823B57F003C9D73C233B577004C5D7BC333B5730109F57BF20395730E09E573F31395730D09ED7BE423D5730B09ED73E523D5730C09ED7BE613D5730F09ED73E713D5730009F577003C5D7BE803D5770000957890E5E577004C5D7959C93D795BF065715A59257B6F03FD716AD93D737F13F5798BD93D7B8F13F571ACE93D7BAF23F571BEF93D79A6A075730E09E57B930395737F33F57192993D739F23F571727075799490757700009D7BAE03A5770000D579708075770000957B9503B5770000DD796D7065770000957B7203B5770000D5715A60657700009D7B6E03A57B5D03AD78F055E7696D7BFA03AE310F6CB01459D45130600493367262057F6650CB3467521B347E52007E40602918D27E407023295E5F50145AA7566798A7713068057336B262013068049336A26208A6C577004CD5734005E131685001696AE8687E406029386060257948402E39AC6FE3346E520050587250600D7D405425794840657F000CD2764060293850510E31185FD732520C20A053325A5200A959305C05733E5A520A70F8502577004CDD730005E57F003CD07640702577004CDD7D287923E855734109E930F000357F003CD87640502D7158042577004CDD794920A5715904257B5903E5710A04257B5803ED710A0425735913E5711A0425735813ED711A04257B5913E5712A04257B5813ED712A0425735923E5713A0425735823ED713A04257B5923EC375A5585715A0424370000857B5823EC37021185711A042C3714228D734933E43726338D71290424375A5105734833ED7D4055ED7158042C3F552585754903E57D4803E57D4813E5754823E5754853E1305F57F57D4853E1305154457B4803EE31215F58148814533869801220693968800B302C900D2969307000457F7770C33C5552033C6D52007650502998F27650602BA95E5F78508E39788FD577004CD57D48792575487025714804E57D286866A7613058055B366252037290600930C8002732520C29305E0023305B5020A959305C05733E5A52007008502B3083601B302B60133075601B307A60133052601B305760057F003CD0764050287E40502577004CD5794820A57F003CD07E50702577004CD5796920A57F003CD87640702577004CD579CA20A57F003CD87E50202577004CD5795920A57F003CD87E40802577004CD5798B20A732520C2D5453305B5020A959305C05733E5A520270885E2330566005791920A57F003CD87650502577004CD571612A2571412A2577018CD5734C43A577004CD5793B20A33050601571C12A257F003CD87630502577004CD571512A2577018CD573CA43A732520C29305F0023305B5020A959305C05733E5A520070E856257703E0D57088E3A732520C2930560023305B5020A959305C05733E5A520270885E2577004CD5794720A732520C2930550033305B5020A959305C05733E5A52007068562732520C2930560023305B5020A959305C05733E5A520070885E257703E0557088639732520C2930560023305B5020A959305C05733E5A520270885E2577004CD571112A2732520C2D5453305B5020A959305C05733E5A520070885E2571812A2577018CD5738243A577004CD571312A2571412A2577018CD5734643A5735109E732520C2930520023305B5020A959305C05733E5A5200700856257703E05570C003BD730A09E732520C2931555002E950A959305C05733E5A52007008502732520C2F5453305B5020A959305C05733E5A52007088562570C8838732520C2930530033305B5020A959305C05733E5A52007008502732520C2930560023305B5020A959305C05733E5A520070485E25770BF0D5704845D577034CD57488F3E138506E0577004CD27680502577034CD57C88C3E138506F0577004CD27680502577034CD57C88F3E577004CD27E80602577024CD5736883E138506C0577004CD27660502577024CD57368C3E138506A0577004CD27640502138506D0577014CD5734843E577004CD27660502138506B093860602276405027696E39066D301459D4513068057B367262057F6650CB34675213347F52007E40602918D276407023295E5F5014593058049B3E52520732620C20A063326C6200A969306C05733E6C62007058602E662C66C2667066B13098002577004CDD732005E13168500529613060610AE865734005E87E406029386060257948402E39AC6FE3346F520050587250600D7D405425794840657F000CD2764060293850510E31D85FB57F003CD07E40702577004CDD7D4A79257D48792732520C20A959305C05733E5A52027048502575496025714804E4A75EA7657D486869305C057B3E5252027848502E278930F0003C270A27BEA67372A0600F32520C213064003B385C5028A951306C057B365B62007838502F32520C21306E002B385C5028A951306C057B365B62007808502B38506013386460157F003CD0764060233867600876406023386A601076506023386560187650602577004CD5716830A3386B6015718930A57F003CD07640602577004CD5717A30A338636015719B30A57F003CD87640602577004CD5715830A57F003CD07E40502577004CD571A930AF32520C213066002B385C5028A951306C057B365B620278A85225711830AF32520C28A05B3C5B5208A951306C057B365B62007828502571652A2F32520C2B3E525201306C057B365B62027868522B3856600571852A257F003CD87E30502577004CD571752A2F32520C28A05B3A5B5208A951306C057B365B62027878522571952A2F32520C28605B3A5B5208A951306C057B365B6202788852257BCC09E571552A2F32520C25546B385C5028A951306C057B365B62027858522577018CD573C043BF32520C2B3C525201306C057B365B6202789852257B4E09E5734243BF32520C21306F002B385C5028A951306C057B365B6200786856257703E0D5708863B577004CD571E730AF32520C213065003B385C5028A951306C057B365B620078C856257703E0557088C38F32520C213066002B385C5028A951306C057B365B62007858522577004CD571552A2571152A2F32520C28605B3C5B5208A951306C057B365B62027818522F32520C213066002B385C5028A951306C057B365B62027858522F32520C25546B385C5028A951306C057B365B6200784852257B0809E571E52A2577018CD5730A43AF32520C2B3A525201306C057B365B620278E852257B4209E5734C43BF32520C213062002B385C5028A951306C057B365B6200786856257703E0D570C063AF32520C28A951306C057B365B62087818502F32520C28605B3A5B5208A951306C057B365B62007858522577004CD5791A10AF32520C2B3C525201306C057B365B620078585225795A10AF32520C2B3C525201306C057B365B62027858522F32520C213066002B385C5028A951306C057B365B620078385225793610AF32520C28605B3A5B5208A951306C057B365B62027838522F32520C213965500B2958A951306C057B365B62007808502F32520C27546B385C5028A951306C057B365B6200782856257703E05570C8238F32520C28A05B3A5B5208A951306C057B365B62007848522577004CD5794810AF32520C213063003B385C5028A951306C057B365B620078085025770BF0D5708885DF32520C28A05B3A5B5208A951306C057B365B620278885E2F32520C2B3A525201306C057B365B62007858522577004CD5798A10A5739309ED734005E9305C057B3E5252087888502579198A2D734005EF32520C2B3C525201306C057B365B62007858522579598A2D734005E579498A2577018CD5734A43AF32520C2B3E525201306C057B365B62007858522577004CD5790A10A5735005E5790A8A2577018CD5730243AF32520C25546B385C5028A951306C057B365B62007858522577004CD571CA90A5735005E579CA8A2F32520C25546B385C5028A951306C057B365B620278C85E257BC809EF32520C21306F002B385C5028A951306C057B365B620078A856257703E0D57040A3AF32520C213066002B385C5028A951306C057B365B620278485E2577004CDD732005EF32520C21306E002B385C5028A951306C057B365B62007808502F32520C213065003B385C5028A951306C057B365B620078A8562F32520C213066002B385C5028A951306C057B365B620078485E257703E0557048A39F32520C213066002B385C5028A951306C057B365B620278485E2F32520C28605B3A5B5208A951306C057B365B62007848522577004CD579458A2579858A2F32520C25546B385C5028A951306C057B365B620078C85E2577018CD573C843AF32520C28605B3C5B5208A951306C057B365B62007848522577004CD5714890A579458A2577018CD5734043BF32520C213062002B385C5028A951306C057B365B6200780856257703E055708803BF32520C213965500B2958A951306C057B365B62007808502F32520C27546B385C5028A951306C057B365B620078C856257088C38F32520C213063003B385C5028A951306C057B365B62007808502F32520C213066002B385C5028A951306C057B365B620078485E25770BF0D5704045D577014CD573A843EB385AC00577004CD27E40502B385A200577024CD5738883E577004CD27EA0502577024CD573A8C3EB305A700577004CD27E80502B305AB0027EA0502577034CD57488F3EB385A800577004CD27E80502577034CD5748893EB385A000577004CD27E80502577034CD57C48F3EB385AB00577004CD27E405020C02AA95732620C20A063326C6200A9636E49306C05733E6C620A266070886E2577034CD57440F3F13860540577004CD27640602577034CD5744093F13860550577004CD27640602577034CD57C40F3F13860560577004CD27640602577024CD5734083F13860520577004CD27640602577024CD57340C3F577004CD27E8050213860530577014CD5735043F577004CD2764060293850510F69627E5050213050502E393F68A2A66930F76002A79130909704A6505058A7CF10CEA75F1052EFD4A7A130A0A705731005EA67A9305003AB3E72520130D0110D5456374B6006FE01F91814213080110F148E673814613978200B38552013303E800A205B387B3009305000457F6750C33C5662033C7F62007640502918D27640702B296E5F58502E39612FD0145130104E1BE701E747E69DE693E6A9E6A7A7BDA7B3A7C9A7C7A6DDA6D7D6182809715000069359385050733F5A50E82800600000000000000000000000000000000000000000000000000000000000000000000000000000005000000A000000000000000000000000000000000000000000000000000000000000000000000000000000000000000000000000000000000000000000000000000000000000000000000000000000001000000000000000000000000000000000000000000000000000000000000000000000000000000000000000000000000000000000000000000000000000000000000000000000000000000000000000000000000000000000000000000000000000000000000001E000000000000000800000000000000FBFFFF6F000000000100000000000000070000000000000070020000000000000800000000000000200100000000000009000000000000001800000000000000F9FFFF6F000000000C00000000000000060000000000000000020000000000000B000000000000001800000000000000050000000000000048020000000000000A0000000000000023000000000000000400000000000000300200000000000000000000000000000000000000000000011101250E1305030E10171B0EB44219110112060000022E001101120640186E0E030E3A0B3B0B49133F190000032400030E3E0B0B0B0000004B0000000400000000000801D70000002C0000000000000000007F000000C0170000000000001019000002C0170000000000001019000001584D0000004D00000001014700000003490000000504006D6F64756C655F6D61696E5F6772617068246173796E635F64697370617463685F35335F656D6265646465645F656C665F72697363765F36345F62656E63686D61726B2E6D6C697200696E74006D61696E5F6772617068246173796E635F64697370617463685F35335F726564756374696F6E5F3738347836345F663332002F73637261746368322F6D65726C696E2F73616D706C65732F636F72655F70696E6E696E675F73696E676C655F776F726B6C6F61642F6D6F64656C732F676C7064657074682F6D6F64656C732F62656E63686D61726B73004952454500440000000200000000004F0000002A0000006D61696E5F6772617068246173796E635F64697370617463685F35335F726564756374696F6E5F3738347836345F6633320000000000160000000200000000004F00000047000000696E740000000000413E020000726973637600013402000004100572763634693270315F6D3270305F613270315F663270325F643270325F633270305F623170305F763170305F7A69633634623170305F7A6963626F6D3170305F7A6963626F703170305F7A6963626F7A3170305F7A696363616D6F613170305F7A69636369663170305F7A6963636C736D3170305F7A6963637273653170305F7A69636E74723270305F7A69636F6E643170305F7A696373723270305F7A6966656E6365693270305F7A6968696E7470617573653270305F7A6968706D3270305F7A6D6D756C3170305F7A61363472733170305F7A61616D6F3170305F7A616C7273633170305F7A66683170305F7A66686D696E3170305F7A63613170305F7A63643170305F7A62613170305F7A62623170305F7A62633170305F7A626B633170305F7A62733170305F7A6B743170305F7A76653332663170305F7A76653332783170305F7A76653634643170305F7A76653634663170305F7A76653634783170305F7A7666683170305F7A7666686D696E3170305F7A766B743170305F7A766C313238623170305F7A766C323536623170305F7A766C3332623170305F7A766C3634623170305F737363637074723170305F7373636F66706D663170305F7373636F756E746572656E773170305F737374633170305F73737476616C613170305F737374766563643170305F73766164653170305F7376626172653170305F7376696E76616C3170305F73766E61706F743170305F737670626D743170305F78736D7476646F74317030006A040000040060000000010101FB0E0D000101010100000001000001006D6F64756C655F6D61696E5F6772617068246173796E635F64697370617463685F35335F656D6265646465645F656C665F72697363765F36345F62656E63686D61726B2E6D6C69720000000000000902C0170000000000000105100A0312023A01051103262E0510035CF2484D051103234A0510035CF206036B9E0511060339089006034708AC051006031C820603640288020106031C4A060364022601031C4A051306023E1405104805134C0510480513300510B80511F7051384051102281005138708C68405110298010D05134F05114505134F05114506035F4A06032902320106035708AC051306032D4A834B060351023E01051106032982051302361505117F05138505117F0513850841051103784A051352051103784A051352051103784A051302221A02F0010D05117F05138A051103788205134D4F051103784A0513BD87051103784A05138A0D87051103780294010105135205110378820513C2051103788205138A051103788205138A05110378820513C20511037808E40513FA0511037882060357089006033402280106034C0858060334BA051302281405114805134C0511480513300511B806034CF2060339023A010513840511036E0874051303150228010511036B4A051302261505117F0513850312BA0511036B4A05138505117F05138505117F0513850312BA036E4A4F030DBA03734A030B4A84484C484C037382030D4A804C03734A030D4A804C03734A030D4A804C03734A030D4A804C051102AC040D05133306034282051006031CF2060364085806031C0222010513F405104805134C0510480513300510B8060364F2051106032108E40513840511081E051387488405110298010D05134F05114505134F05114506035F4A06032908AC051308B0834B060351089005110603290890051302241505117F05138505117F05138505117F05138505117F051385051108E105134D05114705138A083705117F051352051103784A05138A024C0D023C1705110378028402010513C205110378820513C2051103788205138A05110378820513C205110378820513FA05110378820603570890060334F206034C08580603340236010513087605114805134C0511480513300511B8030DF205138680085B4B0603B97F0228010511060329023401051302281505117F05134D05114705138505117F05134D05114705138505117F051385023E17051103780874051352051103784A05138A02A2010D022217031302F00101036D820313083C036D087403130890036D024C01031308E4036D0222010313023401BF02540D8702280D8702B4020D870511037802A601010513FA051103788205138A05110378820513084405110378820513C205110378820513C2051103788205130370022C01051103108205130370BA051103108205130370BA051103108205130370BA051103108205130370BA051103108205130370BA05110310820603BF7F08900603392E060347023A01060339022601050B031508AC060B2E022000010149524545000000000000000000000000000000000000000000000000002300000000020900C04100000000000000000000000000000100000012000700D0300000000000001000000000000000002E64796E73796D002E68617368002E64796E737472002E72656C612E64796E002E726F64617461002E65685F6672616D65002E74657874002E646174612E72656C2E726F002E64796E616D6963002E72656C726F5F70616464696E67002E64656275675F616262726576002E64656275675F696E666F002E64656275675F737472002E64656275675F7075626E616D6573002E64656275675F7075627479706573002E72697363762E61747472696275746573002E64656275675F6C696E65002E636F6D6D656E74002E73796D746162002E7368737472746162002E7374727461620000697265655F68616C5F65786563757461626C655F6C6962726172795F7175657279005F44594E414D49430000000000000000000000000000000000000000000000000000000000000000000000000000000000000000000000000000000000000000000000000000000000010000000B0000000200000000000000000200000000000000020000000000003000000000000000030000000100000008000000000000001800000000000000090000000500000002000000000000003002000000000000300200000000000018000000000000000100000000000000040000000000000004000000000000000F00000003000000020000000000000048020000000000004802000000000000230000000000000000000000000000000100000000000000000000000000000017000000040000000200000000000000700200000000000070020000000000002001000000000000010000000000000008000000000000001800000000000000210000000100000012000000000000000004000000000000000400000000000048030000000000000000000000000000800000000000000000000000000000002900000001000000020000000000000048070000000000004807000000000000780000000000000000000000000000000800000000000000000000000000000033000000010000000600000000000000C017000000000000C007000000000000201900000000000000000000000000000200000000000000000000000000000039000000010000000300000000000000E040000000000000E020000000000000E00000000000000000000000000000001000000000000000000000000000000046000000060000000300000000000000C041000000000000C021000000000000C0000000000000000300000000000000080000000000000010000000000000004F00000008000000030000000000000080420000000000008022000000000000800D0000000000000000000000000000010000000000000000000000000000005E0000000100000000000000000000000000000000000000802200000000000039000000000000000000000000000000010000000000000000000000000000006C0000000100000000000000000000000000000000000000B9220000000000004F000000000000000000000000000000010000000000000000000000000000007800000001000000300000000000000000000000000000000823000000000000DC00000000000000000000000000000001000000000000000100000000000000830000000100000000000000000000000000000000000000E42300000000000048000000000000000000000000000000010000000000000000000000000000009300000001000000000000000000000000000000000000002C240000000000001A00000000000000000000000000000001000000000000000000000000000000A3000000030000700000000000000000000000000000000046240000000000003F02000000000000000000000000000001000000000000000000000000000000B5000000010000000000000000000000000000000000000085260000000000006E04000000000000000000000000000001000000000000000000000000000000C10000000100000030000000000000000000000000000000F32A0000000000000500000000000000000000000000000001000000000000000100000000000000CA0000000200000000000000000000000000000000000000F82A0000000000004800000000000000150000000200000008000000000000001800000000000000D20000000300000000000000000000000000000000000000402B000000000000E400000000000000000000000000000001000000000000000000000000000000DC0000000300000000000000000000000000000000000000242C0000000000002C00000000000000000000000000000001000000000000000000000000000000"> : vector<12752xi8>, format = "embedded-elf-riscv_64", mime_type = "application/x-elf"}
  }
  util.global private @main_graph$async_dispatch_53_embedded_elf_riscv_64_main_graph$async_dispatch_53_reduction_784x64_f32_buffer : !hal.buffer
  util.initializer {
    %memory_type = hal.memory_type<"DeviceVisible|DeviceLocal"> : i32
    %buffer_usage = hal.buffer_usage<"TransferSource|TransferTarget|Transfer|DispatchStorageRead|DispatchStorageWrite|DispatchStorage"> : i32
    %c96516096 = arith.constant 96516096 : index
    %c-1_i64 = arith.constant -1 : i64
    %__device_0 = util.global.load immutable @__device_0 : !hal.device
    %allocator = hal.device.allocator<%__device_0 : !hal.device> : !hal.allocator
    %buffer = hal.allocator.allocate<%allocator : !hal.allocator> affinity(%c-1_i64) type(%memory_type) usage(%buffer_usage) : !hal.buffer{%c96516096}
    util.global.store %buffer, @main_graph$async_dispatch_53_embedded_elf_riscv_64_main_graph$async_dispatch_53_reduction_784x64_f32_buffer : !hal.buffer
    util.return
  }
  util.func public @main_graph$async_dispatch_53_embedded_elf_riscv_64_main_graph$async_dispatch_53_reduction_784x64_f32(%arg0: i32) attributes {iree.abi.stub, iree.reflection = {iree.benchmark = "dispatch"}} {
    %c-1_i32 = arith.constant -1 : i32
    %0 = util.null : !hal.fence
    %c1 = arith.constant 1 : index
    %c64344064 = arith.constant 64344064 : index
    %c32172032 = arith.constant 32172032 : index
    %c0 = arith.constant 0 : index
    %c-1_i64 = arith.constant -1 : i64
    %c28 = arith.constant 28 : index
    %main_graph$async_dispatch_53_embedded_elf_riscv_64_main_graph$async_dispatch_53_reduction_784x64_f32_buffer = util.global.load immutable @main_graph$async_dispatch_53_embedded_elf_riscv_64_main_graph$async_dispatch_53_reduction_784x64_f32_buffer : !hal.buffer
    %__device_0 = util.global.load immutable @__device_0 : !hal.device
    %__device_0_executable_0_main_graph$async_dispatch_53 = util.global.load immutable @__device_0_executable_0_main_graph$async_dispatch_53 : !hal.executable
    %1 = arith.index_cast %arg0 : i32 to index
    %cmd = hal.command_buffer.create device(%__device_0 : !hal.device) mode("OneShot|AllowInlineExecution") categories(Dispatch) affinity(%c-1_i64) : !hal.command_buffer
    cf.br ^bb1(%c0 : index)
  ^bb1(%2: index):  // 2 preds: ^bb0, ^bb2
    %3 = arith.cmpi slt, %2, %1 : index
    cf.cond_br %3, ^bb2, ^bb3
  ^bb2:  // pred: ^bb1
    hal.command_buffer.dispatch<%cmd : !hal.command_buffer> target(%__device_0_executable_0_main_graph$async_dispatch_53 : !hal.executable)[%c0] workgroups([%c28, %c1, %c1]) bindings([
      (%main_graph$async_dispatch_53_embedded_elf_riscv_64_main_graph$async_dispatch_53_reduction_784x64_f32_buffer : !hal.buffer)[%c0, %c32172032], 
      (%main_graph$async_dispatch_53_embedded_elf_riscv_64_main_graph$async_dispatch_53_reduction_784x64_f32_buffer : !hal.buffer)[%c32172032, %c32172032], 
      (%main_graph$async_dispatch_53_embedded_elf_riscv_64_main_graph$async_dispatch_53_reduction_784x64_f32_buffer : !hal.buffer)[%c64344064, %c32172032]
    ]) flags("None")
    hal.command_buffer.execution_barrier<%cmd : !hal.command_buffer> source("Dispatch|CommandRetire") target("CommandIssue|Dispatch") flags("None")
    %4 = arith.addi %2, %c1 : index
    cf.br ^bb1(%4 : index)
  ^bb3:  // pred: ^bb1
    hal.command_buffer.finalize<%cmd : !hal.command_buffer>
    %fence = hal.fence.create device(%__device_0 : !hal.device) flags("None") : !hal.fence
    hal.device.queue.execute<%__device_0 : !hal.device> affinity(%c-1_i64) wait(%0) signal(%fence) commands(%cmd) flags("None")
    %status = hal.fence.await until([%fence]) timeout_millis(%c-1_i32) flags("None") : i32
    util.status.check_ok %status, "failed to wait on timepoint"
    util.return
  }
}
