module attributes {vm.toplevel} {
  vm.module public @module {
    vm.global.ref private mutable @__device_0 : !vm.ref<!hal.device>
    vm.rodata private @_utf8_hal_device_id_C1DCB7DBC4F49AE6 {alignment = 1 : i64} "hal.device.id"
    vm.rodata private @_utf8_local_3D3B5147158B235A {alignment = 1 : i64} "local*"
    vm.rodata private @_utf8_hal_executable_format_EAB228F999C2D3A1 {alignment = 1 : i64} "hal.executable.format"
    vm.rodata private @_utf8_embedded_elf_riscv_64_38BEAC1DD46E6154 {alignment = 1 : i64} "embedded-elf-riscv_64"
    vm.rodata private @main_graph_async_dispatch_188_embedded_elf_riscv_64 {alignment = 16 : i64, mime_type = "application/x-elf"} dense<"0x7F454C460201010000000000000000000300F3000100000000000000000000004000000000000000082B000000000000050000004000380008004000160014000600000004000000400000000000000040000000000000004000000000000000C001000000000000C001000000000000080000000000000001000000040000000000000000000000000000000000000000000000000000007806000000000000780600000000000000100000000000000100000005000000780600000000000078160000000000007816000000000000801B000000000000801B00000000000000100000000000000100000006000000002200000000000000420000000000000042000000000000A001000000000000000E00000000000000100000000000000200000006000000E022000000000000E042000000000000E042000000000000C000000000000000C000000000000000080000000000000052E5746404000000002200000000000000420000000000000042000000000000A001000000000000000E000000000000010000000000000051E574640600000000000000000000000000000000000000000000000000000000000000000000000000000000000000000000000000000003000070040000007325000000000000000000000000000000000000000000003F020000000000003F0200000000000001000000000000000000000000000000000000000000000000000000000000000100000012000700E831000000000000100000000000000002000000020000000000000001000000000000000000000000697265655F68616C5F65786563757461626C655F6C6962726172795F717565727900000000000008420000000000000300000000000000C00400000000000018420000000000000300000000000000781600000000000020420000000000000300000000000000200500000000000030420000000000000300000000000000580500000000000048420000000000000300000000000000000600000000000050420000000000000300000000000000000600000000000060420000000000000300000000000000004200000000000080420000000000000300000000000000184200000000000088420000000000000300000000000000E004000000000000A04200000000000003000000000000002042000000000000B84200000000000003000000000000002842000000000000C0420000000000000300000000000000404200000000000000000000000000000000000000000000000000000000000000000000000000000000000000000000000000000000000034E6543D2A710F3D284CCBBC64A47DBDC4FB11BD683215BD60489DBCC80CDC3C0046763D54929A3CEE4562BDCEFA69BDC0DB333B8ADE64BDB25012BDEC9A1A3D0E98153DD025E6BCDA126E3D98B3443C7428D83CF0EEA43B8AC672BD608EE9BC3A54763D70CB97BC7030FA3B0A2167BDE4B11C3DB8F4A83CB0120A3CEE7457BD9000E63C661D4EBDE0CE86BCA838CA3CA867233C786BF5BCA053B53CC8030ABCA4F0443DB802493D30B6F3BBDC1666BD08454BBD00FA5C3C7099EDBBEA4274BD1C25933C642EAB3CCAA041BD8855A73C82C31FBDC8A19B3CB0ACA23B30BA1CBCFC55A83C6EAA183DBEE428BDB4D77FBD58D286BCC8B8A63CD43639BDD07DC2BC6D61696E5F6772617068246173796E635F64697370617463685F313838000000000000000000000000000003010000000100000001000000000000000000000000000000000000000000000000000000000000000000000000000000000000006D61696E5F6772617068246173796E635F64697370617463685F3138385F6D61746D756C5F6C696B655F3634783439783235365F663332002F73637261746368322F6D65726C696E2F73616D706C65732F636F72655F70696E6E696E675F73696E676C655F776F726B6C6F61642F6D6F64656C732F676C7064657074682F6D6F64656C732F62656E63686D61726B732F6D6F64756C655F6D61696E5F6772617068246173796E635F64697370617463685F3138385F656D6265646465645F656C665F72697363765F36345F62656E63686D61726B2E6D6C6972000000000000001000000000000000017A5200017801011B0C020048000000180000005C100000701B000000440EC00670810188029203930494059506960797089809990A9A0B9B0C420C080003041B0C02C00670C1C8D2D3D4D5D6D7D8D9DADB440E000000001000000064000000802B0000100000000000000000000000130101CC233C1132233881322334213323303133233C4131233851312334613123307131233C812F2338912F2334A12F2330B12F8006732520C29306B0023305D5023301A140137101FC014A3755D1009471B718080037D708000369060097F2FFFF130F057803B8060083BF8600930A05F8938808A0130505B8130707E08C6A131329003306180132F1B386AF00937983FF9382A2CE1315F90333C65920B387E500935DA50313C51D0357F003CD0764060213070002577018CD57358032F32520C23546B385C5028A959385052E2785852257B58032F32520C22D46B385C5028A959385052E2785852257358132F32520C2B3E5B5208A959385052E2785852257B58132F32520C213963500B305B6408A959385052E2785852257358232F32520C2B3C5B5208A959385052E27858522335EE50A57B58232732520C23325A5200A951305052E270585221305400C338CA90293654300AEE0B383A50293655300AEE4338BA5021366630093154900B2E8B30EA60257358332732520C20A951305052E2705852293E5C501136573002AE9969557F070CD07E40502881527048502CEF0AA0933868701BE939EF13E9BDAED937519003EEDF697BEE99E057EE1CE9F2EE533E515012A98FAF8338CEF01D6FCD69F130DC803577018CD5731005E72F513750E03CEECB3803601CAF42A09CAE59305460CAEE1930586182EFDB2F59305C6242EF993820F4093030004414813090008130E0010130F0020130300408569896A116BA16BEEFDAAF9814CEA88AE6E57F000CC57BD209E57BC209E57BE209E57BF209E57BB209E57BA209E57F0E0CC5735015ED735045E5737015ED737045E577004CD5734A33F5730A09E577001C557B4823D732520C2931555003385A5400A951305052E27048502577004C55734C23F5730B09E57B4E13D732520C2F5453305B5020A951305052E27048502576607425734613F5700065E57B4403D732520C2CD453305B5020A951305052E2704850257B4A33F5730A09E577001C55734833D732520C2D5453305B5020A951305052E27048502577004C5D7B0C23F5730B09ED730E23D57B4613F5730C09E5734413DD7E303425780035E57B4203C732520C2930590023305B5020A951305052E27048522577018C55734A43F5730E09E57B4833D5738C33F5730F09E57B8E23D577001C95708045E577018C55734623F576507425730A09E57B4413D577014CD5736243E57F003C95734C33A577002C95704085E732520C2931555002E950A951305052E27048522577018C557B4A43F5730E09E5734843D57B8C33F5730F09E5738E33D577001C95708045E577018C557B4623F5730A09E5734423D5730709E577004C557B4C238577002C95704085E732520C2ED453305B5020A951305052E27048522577018C55734A53F5730E09E57B4843D5738C43F5730F09E57B8E33D577001C95708045E577018C55734633F5730A09E57B4423D5730709E577004C55734C238577002C95704085E732520C2930570023305B5020A951305052E27048522577018C557B4A53F5730E09E5734853D57B8C43F5730F09E5738E43D577001C95708045E577018C557B4633F5730A09E5734433D5730709E577004C557B4C138577002C95704085E732520C2930530023305B5020A951305052E27048522577018C55734A63F5730E09E57B4853D5739C53F5730F09E57B9E43D577001C95709045E577018C55734643FD739A09E5730A09E57B4433D5730709E577004C55734C138577002C95704095E732520C2E5453305B5020A951305052E27048522577018C557B4A63F5730E09E5734863D57B5C53F5730F09E5735E53D577001C95705045E577018C557B4643F5730309F5734443D5730709E577004C557B4C038577002C95704055E732520C2DD453305B5020A951305052E27048522577018C55734A73F5730E09E57B4863D5735C63F5730F09E57B5E53D577001C95705045E577018C55734653F5730309F57B4443D577082CD57B0035E5704C45C577002C95704055E732520C2930550023305B5020A951305052E27048522577018C557B4A73F5730E09E5734873D57B5C63F5730F09E5735E63D577001C95705045E577018C557B2653F5730309F5732453D5730709E577004C557B2C03C577002C95702055E5734813F577001CDD734A13357700009D7B4803A5733C09F5783045E57B4813F577004CDD7B4A133577001C9D7B4803A57B4C13F57F001C9D734813A5737E09F5787045E5734823F577004CDD734A233577001C9D7B4803A5734C23F57F001C9D734813A5734E23F577002C9D7B4813A5738609F5788045E57B4823F577004CDD7B4A233577001C9D7B4803A57B4C23F57F001C9D734813A57B4E23F577002C9D7B4813A57B4623F57F002C9D734823A5739409F5789045E732520C2F5453305B5020A951305052E07048502732520C2931555003385A5400A951305052E87048502577001C95784045E732520C2CD453305B5020A951305052E87048502577002C9D704045E5735209E577003C95785045E732520C2D5453305B5020A951305052E07048502577001C9D700045E732520C2930590023305B5020A951305052E07048522577002C95784005E732520C2930590023305B5020A951305052E2704852257B0005E5736809F93E50E4057F000C957B6A033577001C957BD803BB3C5D52093ED0E50D736025E33869001B3C7DD2013E50E6057F070CD07E405023345D52087E40702577071C957B4903A57F070CD87640602B3859F018765050257F071C95734B13A57F070CD87E50502577071C9D7B4B03A33859201B3059C0157F070CD8765050257F071C9D734B13A57F070CD87E50502577072CDD7B4B13A577004CDD734823A57F001C9573DC13B57B4C03F5736813A57B4E03F577002C957B6813A57B4603F57F002C95736823A57B4403F577003C957B6823A57B4203E57F003C95736833A573CC09E577002C957BDE13B5734E13F57B3813A5734613F57F002C95733823A5734413F577003C957B3823A5734213E57F003C95733833A5736A09F57F002C95736623B57B4613F5737823A57B4413F577003C957B7823A57B4213E57F003C95737833A577003C957B6423B5734423F57B8823A87A788FC5734223E57F003C95738833A07A748FC5736233A57B4223E87A6C8FC07A608FD573A809F577004CD57DA97B257F003C95739833A577004CD575697B257BC409F577018C557BCC03C577004CD57D396B207A748FD573DC09E5734C09E577001C957BD403B573B409F57F011C9573D613A5730D09E577018C557BC6038573E609E5736E09E577004CD575696B287A688FD07A6C8FD87A708FE575897B2577012C957BDC13A732520C2D5453305B5020A951305052E27068522D738F09E5730F09E577018C5573CC138577004CD57D996B25736009F5760084257F012C9573DC23A732520C2931555003385A5400A951305052E27068522577018C557BCC1385736209F577013C957BDC23A5730309F577018C5573CC2385738209F577004CD575596B207A748FE57E0034257F013C9573DA33A577018C557BCA238732520C2930590023305B5020A951305052E070A85225737409F577004CD57D797B287A688FE07A6C8FE87A708FF732520C2931555002E950A951305052E07068522575697B2D7690942577014C957BDE33A732520C2930590023305B5020A951305052E270785225730309F577018C5573CE338732520C2ED453305B5020A951305052E07078522577004CD57D796B257690E42577018C5573DC43A732520C2931555002E950A951305052E270685225730209F57BCC338732520C2930570023305B5020A951305052E07068522577004CD575696B257600F42577015C957BDE43A732520C2ED453305B5020A951305052E27078522577018C5573CE43807A748FF57F015C9573DC53A732520C2930570023305B5020A951305052E2706852257600342577018C557BCC438732520C2930530023305B5020A951305052E07018522577004CD57D197B287A788FF87A6C8FF07A60800732520C2E5453305B5020A951305052E070F8522575F97B21315B028D76B0542577016C957BD253A5730709F577018C5573C2538732520C2DD453305B5020A951305052E07078522577004CD57D797B257E0094257F016C9573DE63B577018C557BCE539732520C2930550023305B5020A951305052E07038522577004CD57D396B2577017C957BDE63A57E00A42577004CD575296B2577018C5573CE6385736609E57600B4257F017C9573DC73A732520C2930550023305B5020A951305052E27068522577018C557BCC63857BD473A57E00B42573C4738573A813E57F0E0CCD730015E5730109E577011C557BA603D732520C2931545003385A5400A951305052E270E852257701009570E0A5E732520C2D5453305B5020A951305052E070A85225736409F732520C2D5453305B5020A951305052E270685225730109F577018C557BEC038732520C2931555003385A5400A951305052E070A8522732520C2931555003385A5400A951305052E270A8522D76608425730D09E573E4139732520C2F5453305B5020A951305052E27088522D76407425730909E57BE013957E00342573EA238732520C2930590023305B5020A951305052E070A85225738409F732520C2930590023305B5020A951305052E270885225730309F57BE0239732520C2931555002E950A951305052E070885225730209F573E0339732520C2ED453305B5020A951305052E0709852257600F4257BE23395736209F732520C2930570023305B5020A951305052E070385225739609E732520C2930570023305B5020A951305052E2709852257600342573E24395730709F57BE2438732520C2E5453305B5020A951305052E270F8522D7E909425730309F573EE539D7E30A425730709E57BEE538732520C2930550023305B5020A951305052E070A8522732520C2930550023305B5020A951305052E270A852257600B42573E4639732520C2931555002E950A951305052E2702852257E00B4257BE463857BA813E5739809E732520C2931545002E950A951305052E270985225730109E573A613D5732609F732520C2CD453305B5020A951305052E2702852257F0E0CC5734025E5730809E732520C2931545003385A5400A951305052E070F8522573BE09F57F011C557BA603D732520C2D5453305B5020A951305052E070F85225734E09F57BF809E57701009570F0A5E732520C2931555003385A5400A951305052E070A85225730D09E577018C557BF40395733409F732520C2931555003385A5400A951305052E27038522732520C2F5453305B5020A951305052E070A8522732520C2F5453305B5020A951305052E270A85225730909E573F4139D7E203425730509E57BFA138732520C2930590023305B5020A951305052E070A8522732520C2930590023305B5020A951305052E270A8522D76409425730909E573F4239D7650E425730B09E57BF0239D7650F425730B09E573FC338732520C2930570023305B5020A951305052E070A8522732520C2930570023305B5020A951305052E270A85225760034257BF4339732520C2930530023305B5020A951305052E27018522D730709F5730709F573F2438732520C2E5453305B5020A951305052E070A8522732520C2E5453305B5020A951305052E270A85225730309FD731309F57BF44395730709E573FE5385731E09E732520C2930550023305B5020A951305052E07078522732520C2930550023305B5020A951305052E27078522D7690B425730309F57BFE538732520C2931555002E950A951305052E07078522732520C2931555002E950A951305052E2707852257E00B42573FE638573A223F57F0E0CC5730015E577018C557BA413C57F0E0CC5730025E577018C5573A613D5737609F57F0E0CC5730045E577012C557BA803C57BB609E57701009570B0A5E732520C2F5453305B5020A951305052E070A8522732520C2F5453305B5020A951305052E270A852257600742577018C557BB40395730509E573BA138732520C2930590023305B5020A951305052E070A85225739409F732520C2930590023305B5020A951305052E270985225730909E57BB213957600E42D733009E573B02395733009F732520C2ED453305B5020A951305052E2706852257600F4257BBC238732520C2930570023305B5020A951305052E070285225734409E732520C2930570023305B5020A951305052E27048522D76703425730F09E573B8338732520C2930530023305B5020A951305052E07048522732520C2930530023305B5020A951305052E270485225730109E57BB8338732520C2E5453305B5020A951305052E07068522D739309E5730309E573BC4385739C09E732520C2DD453305B5020A951305052E2701852257E40A425730809E57BB2438732520C2930550023305B5020A951305052E070885225736009F732520C2930550023305B5020A951305052E2706852257640B425730809E573BC538732520C2931555002E950A951305052E070185225736209E732520C2931555002E950A951305052E2706852257E40B425730809E57BBC538732520C2931545002E950A951305052E0704852257B4823E57F0E0CC5730015E732520C2CD453305B5020A951305052E07068522577018C55734C23C57F0E0CC5730025E577018C557B4E13C57F0E0CCD735045E5730B09E732520C2D5453305B5020A951305052E07068522577018C55734C13C57600842732520C2931555003385A5400A951305052E0706852257F012C557B4C03C732520C2F5453305B5020A951305052E070A852257701009570A045E57E00342577018C557BAA038732520C2930590023305B5020A951305052E0706852257600942573AC1385732609E5730709E57BA4138732520C2ED453305B5020A951305052E0701852257600F42573A2238732520C2930570023305B5020A951305052E07048522732520C2930570023305B5020A951305052E270485225730F09E57BA8238732520C2930530023305B5020A951305052E07048522732520C2930530023305B5020A951305052E270485225730109E573A83385738209F5730309F57BA0339732520C2DD453305B5020A951305052E07048522732520C2DD453305B5020A951305052E2704852257E00A42573A8438732520C2930550023305B5020A951305052E0703852257600B4257BA6438732520C2931555002E950A951305052E07048522732520C2931555002E950A951305052E2704852257E00B42573A8538732520C2931545002E950A951305052E070485225734833E57F0E0CC5730015E732520C2CD453305B5020A951305052E07098522577018C557B4223D57F0E0CC5730025E577018C55734E23C57F0E0CC5730045E732520C2D5453305B5020A951305052E07078522577018C557B4E13C57600842732520C2931555003385A5400A951305052E070785225734E13C57600742732520C2F5453305B5020A951305052E07078522577013C557B4E03C577010095705045E57600942577018C557B5C03857600E425735413857600F4257B52138732520C2930570023305B5020A951305052E070485225760034257358238732520C2930530023305B5020A951305052E070485225730109E57B5823857E0094257350339732520C2DD453305B5020A951305052E0704852257E00A4257B5833857600B4257356438732520C2931555002E950A951305052E0704852257E00B4257B58438910C850E9388480C5701055E63846C006FE0BFC5732520C2B5453305B5020A951305052E0704852257148D02EE7D3305BA01F32520C22D46B385C5028A959385052E078685225716CC02AE75B345B520732620C23366C6200A961306062E070786225717EE02732620C2931736003386C7400A961306062E0708862257180F030E663346C52027E40502F32520C2B3C5B5208A959385052E0784852257148B02EA75B345B520276606024A763346C52027E705028E75B345B52027680602732620C23326C6200A961306062E070686225716CA0227E40502EE65B345B520732620C20A961306062E07048622571485024E663345C52027E60502410A27640502130D0D045731005E4E756374AA006FE0BFB30A6AE672D2922A766300C5380148937516005770100D57A5085257C4A56A781A930AC7039305400C930987070676330BB602930E470B0666B308B6021303070FA677AA07930B011026663309B6025730809E57F017CD27E10B004666B30FB60227610700EA652E9B27E10A00AE9827E10900130F4B0C27E10E00130E8B18276103009303CB2407E90B020767070257F0E0CCD7B4005E2E9957F017CD07ED0A02AE9F07EC0902B30BB50107EB0E02076A030257F0E0CC5735015E8A7533C7BB20467C529C666A529C169A930C0A40130D004057F070CD5730809E3386000193E507408765060233060A01B3C5D5200766060213E60750D736209F07EE0502B345D620577001C9D7B6E03A13E6076057F001C9D736A13B3346D620577002C9D7B6813B57F070CD07E8050257F002C9D736623B57F070CD87680602577003C9D7B6423BB3850C01577071C957BE003B57F070CD07E8050257F071C9573E113BB3050C01577071C9D7B5C03A57F070CD07E6050257F071C9D735013B57F017CD07680700577072CDD7B5C13A577004CD5736003357F003C9D736233A577004CDD735C23B57B820335796D5A257BEC09E577011C957BE003B57090E5E57F090C95707075E5730909E577018C557B7C03C577004CD57B8A0335730A09E577018C557BD003D5730909E573DC13C577004CD57B880335730A09E577018C5573C013D5730909E57BCC13C577004CD57B860335730A09E577018C557BB013D5730909E573BC23C577004CD57B840335730A09E577018C5573A023D5730909E57BAC23C577004CD57B820325730A09E577018C557B1023D5730909E5731C33C11081307470C8507E318A8E75730809E080257F017CD276905006C1A27E7050027ED0A0027EC090027EB0E00276A0300B01427610600577018CD0765050207E60502732520C2B5453305B5020A951305052E070785225717E502732520C2AD453305B5020A951305052E070585225716A60207E50A02732520C23365A5200A951305052E070885225718050307E50902732520C2931535003385A5400A951305052E070985225719250307E50E02732520C23345A5200A951305052E070A8522571A4503076B03020765060033C56B21F32520C2B3A5B5208A959385052E078C8522571B8B03B3C5EB212767050033C5CB2127E60500B3C57B202768050033C51B2127E90500B3C52B21276A050033C5FB21732620C20A961306062E070686225715C50227EB0500276505002A7601455770100D5734005E8C15878585025735B09E9305400C577071C957B5B03A4A673303B70257F071C95735B13A577072CD57B5B13A5736A09E9315A700577004CD5736A23A0A77AA673E97B388B600AE9257B5C09EEA652E93577018CD5735C43A414857A60852B305A640B3D5050B5770100D57C0C56AB307B501C686BA8557B7809E87A706005770100D07E8050091065770100557D707B19385450CE39356FEB3C567205717A702410527E7050013070704E36AC5FA0145130104CC83308133033401330339813283390132033A8131833A0131033B8130833B0130033C812F833C012F033D812E833D012E1301013482809715000069359385850733F5A50E828000000000000000000600000000000000000000000000000000000000000000000000000000000000000000000000000005000000A100000000000000000000000000000000000000000000000000000000000000000000000000000000000000000000000000000000000000000000000000000000000000000000000000000001000000000000000000000000000000000000000000000000000000000000000000000000000000000000000000000000000000000000000000000000000000000000000000000000000000000000000000000000000000000000000000000000000000000000001E000000000000000800000000000000FBFFFF6F000000000100000000000000070000000000000070020000000000000800000000000000200100000000000009000000000000001800000000000000F9FFFF6F000000000C00000000000000060000000000000000020000000000000B000000000000001800000000000000050000000000000048020000000000000A0000000000000023000000000000000400000000000000300200000000000000000000000000000000000000000000011101250E1305030E10171B0EB44219110112060000022E001101120640186E0E030E3A0B3B0B49133F190000032400030E3E0B0B0B0000004B0000000400000000000801DE0000002C003C00000000000000860000007816000000000000701B0000027816000000000000701B0000015804000000040000000101470000000300000000050400696E74006D61696E5F6772617068246173796E635F64697370617463685F3138385F6D61746D756C5F6C696B655F3634783439783235365F663332006D6F64756C655F6D61696E5F6772617068246173796E635F64697370617463685F3138385F656D6265646465645F656C665F72697363765F36345F62656E63686D61726B2E6D6C6972002F73637261746368322F6D65726C696E2F73616D706C65732F636F72655F70696E6E696E675F73696E676C655F776F726B6C6F61642F6D6F64656C732F676C7064657074682F6D6F64656C732F62656E63686D61726B730049524545004A0000000200000000004F0000002A0000006D61696E5F6772617068246173796E635F64697370617463685F3138385F6D61746D756C5F6C696B655F3634783439783235365F6633320000000000160000000200000000004F00000047000000696E740000000000413E020000726973637600013402000004100572763634693270315F6D3270305F613270315F663270325F643270325F633270305F623170305F763170305F7A69633634623170305F7A6963626F6D3170305F7A6963626F703170305F7A6963626F7A3170305F7A696363616D6F613170305F7A69636369663170305F7A6963636C736D3170305F7A6963637273653170305F7A69636E74723270305F7A69636F6E643170305F7A696373723270305F7A6966656E6365693270305F7A6968696E7470617573653270305F7A6968706D3270305F7A6D6D756C3170305F7A61363472733170305F7A61616D6F3170305F7A616C7273633170305F7A66683170305F7A66686D696E3170305F7A63613170305F7A63643170305F7A62613170305F7A62623170305F7A62633170305F7A626B633170305F7A62733170305F7A6B743170305F7A76653332663170305F7A76653332783170305F7A76653634643170305F7A76653634663170305F7A76653634783170305F7A7666683170305F7A7666686D696E3170305F7A766B743170305F7A766C313238623170305F7A766C323536623170305F7A766C3332623170305F7A766C3634623170305F737363637074723170305F7373636F66706D663170305F7373636F756E746572656E773170305F737374633170305F73737476616C613170305F737374766563643170305F73766164653170305F7376626172653170305F7376696E76616C3170305F73766E61706F743170305F737670626D743170305F78736D7476646F7431703000EE010000040061000000010101FB0E0D000101010100000001000001006D6F64756C655F6D61696E5F6772617068246173796E635F64697370617463685F3138385F656D6265646465645F656C665F72697363765F36345F62656E63686D61726B2E6D6C6972000000000000090278160000000000000105100A030F025001A5500373824B083D3303794A675050037A4A5003754A4F88037A0286010150037A023601A4037A08586C037A08E4060369027A01051306031A022201051002B00A0F05134D0510EF051385051047051308AF05107F0513F505107F05138505107F0513F505107F051385051002DA1B0F060369083C051206031F083C05100378660512087C0510037866051208600510037808E40512089805100378660512022E1A051003784A0512087C051003786606036908E403178203694A03172E05120603744A0510030C027401051302701505104705138505107F05134D05107F05134D05107F05138505107F05138505107F05134D05107F05138505107F05134D05107F05138505107F051385051002D8010F0513BD0510022A15051208E6051008AA0512085A051048051208920510480512085A0510480512840603610262010510060317024A010513023A150510470513A105107F05128A0510037882051236051003784A050B030C82060B2E023A0001014952454500000000000000000000000000000000000000000000000000000000000000002300000000020900E04200000000000000000000000000000100000012000700E8310000000000001000000000000000002E64796E73796D002E68617368002E64796E737472002E72656C612E64796E002E726F64617461002E65685F6672616D65002E74657874002E646174612E72656C2E726F002E64796E616D6963002E72656C726F5F70616464696E67002E64656275675F616262726576002E64656275675F696E666F002E64656275675F737472002E64656275675F7075626E616D6573002E64656275675F7075627479706573002E72697363762E61747472696275746573002E64656275675F6C696E65002E636F6D6D656E74002E73796D746162002E7368737472746162002E7374727461620000697265655F68616C5F65786563757461626C655F6C6962726172795F7175657279005F44594E414D49430000000000000000000000000000000000000000000000000000000000000000000000000000000000000000000000000000000000000000000000000000000000010000000B0000000200000000000000000200000000000000020000000000003000000000000000030000000100000008000000000000001800000000000000090000000500000002000000000000003002000000000000300200000000000018000000000000000100000000000000040000000000000004000000000000000F0000000300000002000000000000004802000000000000480200000000000023000000000000000000000000000000010000000000000000000000000000001700000004000000020000000000000070020000000000007002000000000000200100000000000001000000000000000800000000000000180000000000000021000000010000000200000000000000C003000000000000C0030000000000004002000000000000000000000000000040000000000000000000000000000000290000000100000002000000000000000006000000000000000600000000000078000000000000000000000000000000080000000000000000000000000000003300000001000000060000000000000078160000000000007806000000000000801B0000000000000000000000000000020000000000000000000000000000003900000001000000030000000000000000420000000000000022000000000000E00000000000000000000000000000001000000000000000000000000000000046000000060000000300000000000000E042000000000000E022000000000000C0000000000000000300000000000000080000000000000010000000000000004F000000080000000300000000000000A043000000000000A023000000000000600C0000000000000000000000000000010000000000000000000000000000005E0000000100000000000000000000000000000000000000A02300000000000039000000000000000000000000000000010000000000000000000000000000006C0000000100000000000000000000000000000000000000D9230000000000004F000000000000000000000000000000010000000000000000000000000000007800000001000000300000000000000000000000000000002824000000000000E3000000000000000000000000000000010000000000000001000000000000008300000001000000000000000000000000000000000000000B250000000000004E0000000000000000000000000000000100000000000000000000000000000093000000010000000000000000000000000000000000000059250000000000001A00000000000000000000000000000001000000000000000000000000000000A3000000030000700000000000000000000000000000000073250000000000003F02000000000000000000000000000001000000000000000000000000000000B50000000100000000000000000000000000000000000000B227000000000000F201000000000000000000000000000001000000000000000000000000000000C10000000100000030000000000000000000000000000000A4290000000000000500000000000000000000000000000001000000000000000100000000000000CA0000000200000000000000000000000000000000000000B0290000000000004800000000000000150000000200000008000000000000001800000000000000D20000000300000000000000000000000000000000000000F829000000000000E400000000000000000000000000000001000000000000000000000000000000DC0000000300000000000000000000000000000000000000DC2A0000000000002C00000000000000000000000000000001000000000000000000000000000000"> : vector<12424xi8>
    vm.global.ref private mutable @__device_0_executable_0_main_graph$async_dispatch_188 : !vm.ref<!hal.executable>
    vm.global.ref private mutable @main_graph$async_dispatch_188_embedded_elf_riscv_64_main_graph$async_dispatch_188_matmul_like_64x49x256_f32_buffer : !vm.ref<!hal.buffer>
    vm.import private @hal.allocator.allocate(%allocator : !vm.ref<!hal.allocator>, %queue_affinity : i64, %memory_types : i32, %buffer_usage : i32, %allocation_size : i64) -> !vm.ref<!hal.buffer>
    vm.import private @hal.command_buffer.create(%device : !vm.ref<!hal.device>, %modes : i32, %command_categories : i32, %queue_affinity : i64, %binding_capacity : i32) -> !vm.ref<!hal.command_buffer> attributes {minimum_version = 6 : i32}
    vm.import private @hal.command_buffer.finalize(%command_buffer : !vm.ref<!hal.command_buffer>)
    vm.import private @hal.command_buffer.execution_barrier(%command_buffer : !vm.ref<!hal.command_buffer>, %source_stage_mask : i32, %target_stage_mask : i32, %flags : i64)
    vm.import private @hal.command_buffer.dispatch(%command_buffer : !vm.ref<!hal.command_buffer>, %executable : !vm.ref<!hal.executable>, %entry_point : i32, %workgroup_x : i32, %workgroup_y : i32, %workgroup_z : i32, %flags : i64, %constants : i32 ..., %bindings : tuple<i32, i32, !vm.ref<!hal.buffer>, i64, i64> ...)
    vm.import private @hal.device.allocator(%device : !vm.ref<!hal.device>) -> !vm.ref<!hal.allocator> attributes {nosideeffects}
    vm.import private @hal.device.query.i64(%device : !vm.ref<!hal.device>, %category : !vm.buffer, %key : !vm.buffer) -> (i32, i64) attributes {nosideeffects}
    vm.import private @hal.device.queue.execute(%device : !vm.ref<!hal.device>, %queue_affinity : i64, %wait_fence : !vm.ref<!hal.fence>, %signal_fence : !vm.ref<!hal.fence>, %command_buffer : !vm.ref<!hal.command_buffer>, %flags : i64)
    vm.import private @hal.devices.count() -> i32 attributes {nosideeffects}
    vm.import private @hal.devices.get(%index : i32) -> !vm.ref<!hal.device> attributes {nosideeffects}
    vm.import private @hal.executable.create(%device : !vm.ref<!hal.device>, %queue_affinity : i64, %executable_format : !vm.buffer, %executable_data : !vm.buffer, %constants : !vm.buffer) -> !vm.ref<!hal.executable> attributes {nosideeffects}
    vm.import private @hal.fence.create(%device : !vm.ref<!hal.device>, %flags : i64) -> !vm.ref<!hal.fence>
    vm.import private @hal.fence.await(%timeout_millis : i32, %flags : i64, %fences : !vm.ref<!hal.fence> ...) -> i32 attributes {vm.yield}
    vm.func private @main_graph$async_dispatch_188_embedded_elf_riscv_64_main_graph$async_dispatch_188_matmul_like_64x49x256_f32(%arg0: i32) attributes {iree.reflection = {iree.benchmark = "dispatch"}} {
      %c5 = vm.const.i32 5
      %c20 = vm.const.i32 20
      %c1 = vm.const.i32 1
      %c16 = vm.const.i32 16
      %zero = vm.const.i32.zero
      %c2 = vm.const.i32 2
      %c17 = vm.const.i32 17
      %c-1 = vm.const.i64 -1
      %zero_0 = vm.const.i64.zero
      %c32172032 = vm.const.i64 32172032
      %c14611584 = vm.const.i64 14611584
      %c46783744 = vm.const.i64 46783744
      %c1_1 = vm.const.i64 1
      %null = vm.const.ref.zero : !vm.ref<!hal.fence>
      %c-1_2 = vm.const.i32 -1
      %main_graph$async_dispatch_188_embedded_elf_riscv_64_main_graph$async_dispatch_188_matmul_like_64x49x256_f32_buffer = vm.global.load.ref @main_graph$async_dispatch_188_embedded_elf_riscv_64_main_graph$async_dispatch_188_matmul_like_64x49x256_f32_buffer : !vm.ref<!hal.buffer>
      %__device_0 = vm.global.load.ref @__device_0 : !vm.ref<!hal.device>
      %__device_0_executable_0_main_graph$async_dispatch_188 = vm.global.load.ref @__device_0_executable_0_main_graph$async_dispatch_188 : !vm.ref<!hal.executable>
      %0 = vm.ext.i32.i64.s %arg0 : i32 -> i64
      %ref = vm.call @hal.command_buffer.create(%__device_0, %c17, %c2, %c-1, %zero) : (!vm.ref<!hal.device>, i32, i32, i64, i32) -> !vm.ref<!hal.command_buffer>
      vm.br ^bb1(%zero_0 : i64)
    ^bb1(%1: i64):  // 2 preds: ^bb0, ^bb2
      %slt = vm.cmp.lt.i64.s %1, %0 : i64
      vm.cond_br %slt, ^bb2, ^bb3
    ^bb2:  // pred: ^bb1
      vm.call.variadic @hal.command_buffer.dispatch(%ref, %__device_0_executable_0_main_graph$async_dispatch_188, %zero, %c16, %c1, %c1, %zero_0, [], [(%zero, %zero, %main_graph$async_dispatch_188_embedded_elf_riscv_64_main_graph$async_dispatch_188_matmul_like_64x49x256_f32_buffer, %zero_0, %c32172032), (%zero, %zero, %main_graph$async_dispatch_188_embedded_elf_riscv_64_main_graph$async_dispatch_188_matmul_like_64x49x256_f32_buffer, %c32172032, %c14611584), (%zero, %zero, %main_graph$async_dispatch_188_embedded_elf_riscv_64_main_graph$async_dispatch_188_matmul_like_64x49x256_f32_buffer, %c46783744, %c32172032)]) : (!vm.ref<!hal.command_buffer>, !vm.ref<!hal.executable>, i32, i32, i32, i32, i64, i32 ..., tuple<i32, i32, !vm.ref<!hal.buffer>, i64, i64> ...)
      vm.call @hal.command_buffer.execution_barrier(%ref, %c20, %c5, %zero_0) : (!vm.ref<!hal.command_buffer>, i32, i32, i64) -> ()
      %2 = vm.add.i64 %1, %c1_1 : i64
      vm.br ^bb1(%2 : i64)
    ^bb3:  // pred: ^bb1
      vm.call @hal.command_buffer.finalize(%ref) : (!vm.ref<!hal.command_buffer>) -> ()
      %ref_3 = vm.call @hal.fence.create(%__device_0, %zero_0) : (!vm.ref<!hal.device>, i64) -> !vm.ref<!hal.fence>
      vm.call @hal.device.queue.execute(%__device_0, %c-1, %null, %ref_3, %ref, %zero_0) : (!vm.ref<!hal.device>, i64, !vm.ref<!hal.fence>, !vm.ref<!hal.fence>, !vm.ref<!hal.command_buffer>, i64) -> ()
      %3 = vm.call.variadic @hal.fence.await(%c-1_2, %zero_0, [%ref_3]) : (i32, i64, !vm.ref<!hal.fence> ...) -> i32
      vm.cond_br %3, ^bb5, ^bb4
    ^bb4:  // pred: ^bb3
      vm.return
    ^bb5:  // pred: ^bb3
      vm.fail %3, "failed to wait on timepoint"
    }
    vm.export @main_graph$async_dispatch_188_embedded_elf_riscv_64_main_graph$async_dispatch_188_matmul_like_64x49x256_f32 attributes {iree.abi.stub, iree.reflection = {iree.benchmark = "dispatch"}}
    vm.export @__init
    vm.func private @__init() {
      %c1 = vm.const.i32 1
      %null = vm.const.ref.zero : !vm.buffer
      %c78955776 = vm.const.i64 78955776
      %c3075 = vm.const.i32 3075
      %c48 = vm.const.i32 48
      %c-1 = vm.const.i64 -1
      %c14 = vm.const.i32 14
      %c18 = vm.const.i32 18
      %zero = vm.const.i32.zero
      %zero_0 = vm.const.i64.zero
      %c1_1 = vm.const.i64 1
      %null_2 = vm.const.ref.zero : !vm.ref<!hal.device>
      %0 = vm.call @hal.devices.count() {nosideeffects} : () -> i32
      %1 = vm.ext.i32.i64.s %0 : i32 -> i64
      vm.br ^bb1(%zero_0, %zero_0, %null_2 : i64, i64, !vm.ref<!hal.device>)
    ^bb1(%2: i64, %3: i64, %4: !vm.ref<!hal.device>):  // 2 preds: ^bb0, ^bb4
      %rnz = vm.cmp.nz.ref %4 : !vm.ref<!hal.device>
      %5 = vm.xor.i32 %rnz, %c1 : i32
      %slt = vm.cmp.lt.i64.s %2, %1 : i64
      %6 = vm.and.i32 %5, %slt : i32
      vm.cond_br %6, ^bb2, ^bb5
    ^bb2:  // pred: ^bb1
      %7 = vm.trunc.i64.i32 %2 : i64 -> i32
      %ref = vm.call @hal.devices.get(%7) {nosideeffects} : (i32) -> !vm.ref<!hal.device>
      %_utf8_hal_device_id_C1DCB7DBC4F49AE6 = vm.const.ref.rodata @_utf8_hal_device_id_C1DCB7DBC4F49AE6 : !vm.buffer
      %_utf8_local_3D3B5147158B235A = vm.const.ref.rodata @_utf8_local_3D3B5147158B235A : !vm.buffer
      %8:2 = vm.call @hal.device.query.i64(%ref, %_utf8_hal_device_id_C1DCB7DBC4F49AE6, %_utf8_local_3D3B5147158B235A) {nosideeffects} : (!vm.ref<!hal.device>, !vm.buffer, !vm.buffer) -> (i32, i64)
      %nz = vm.cmp.nz.i64 %8#1 : i64
      %9 = vm.select.i32 %8#0, %nz, %zero : i32
      vm.cond_br %9, ^bb3, ^bb4(%zero : i32)
    ^bb3:  // pred: ^bb2
      %_utf8_hal_executable_format_EAB228F999C2D3A1 = vm.const.ref.rodata @_utf8_hal_executable_format_EAB228F999C2D3A1 : !vm.buffer
      %_utf8_embedded_elf_riscv_64_38BEAC1DD46E6154 = vm.const.ref.rodata @_utf8_embedded_elf_riscv_64_38BEAC1DD46E6154 : !vm.buffer
      %10:2 = vm.call @hal.device.query.i64(%ref, %_utf8_hal_executable_format_EAB228F999C2D3A1, %_utf8_embedded_elf_riscv_64_38BEAC1DD46E6154) {nosideeffects} : (!vm.ref<!hal.device>, !vm.buffer, !vm.buffer) -> (i32, i64)
      %nz_3 = vm.cmp.nz.i64 %10#1 : i64
      %11 = vm.select.i32 %10#0, %nz_3, %zero : i32
      vm.br ^bb4(%11 : i32)
    ^bb4(%12: i32):  // 2 preds: ^bb2, ^bb3
      %eq = vm.cmp.eq.i64 %3, %zero_0 : i64
      %13 = vm.select.i64 %12, %c1_1, %zero_0 : i64
      %14 = vm.add.i64 %3, %13 : i64
      %15 = vm.and.i32 %12, %eq : i32
      %ref_4 = vm.select.ref %15, %ref, %null_2 : !vm.ref<!hal.device>
      %16 = vm.add.i64 %2, %c1_1 : i64
      vm.br ^bb1(%16, %14, %ref_4 : i64, i64, !vm.ref<!hal.device>)
    ^bb5:  // pred: ^bb1
      vm.cond_br %5, ^bb6, ^bb7
    ^bb6:  // pred: ^bb5
      vm.fail %c18, "HAL device `__device_0` not found or unavailable: #hal.device.target<\22local\22, [#hal.executable.target<\22llvm-cpu\22, \22embedded-elf-riscv_64\22, {cpu = \22spacemit-x60\22, cpu_features = \22+m,+a,+f,+d,+c,+v,+zvl256b,+zba,+zbb,+zbc,+zbs,+zicbom,+zicboz,+zicbop,+zihintpause\22, data_layout = \22e-m:e-p:64:64-i64:64-i128:128-n32:64-S128\22, iree.encoding.resolver = #iree_cpu.cpu_encoding_resolver<>, loop_vectorization = true, max_stack_allocation_size = 32768 : i64, native_vector_size = 32 : i64, target_abi = \22lp64d\22, target_triple = \22riscv64-unknown-unknown-eabi-elf\22}>]>"
    ^bb7:  // pred: ^bb5
      %_utf8_hal_executable_format_EAB228F999C2D3A1_5 = vm.const.ref.rodata @_utf8_hal_executable_format_EAB228F999C2D3A1 : !vm.buffer
      %_utf8_embedded_elf_riscv_64_38BEAC1DD46E6154_6 = vm.const.ref.rodata @_utf8_embedded_elf_riscv_64_38BEAC1DD46E6154 : !vm.buffer
      %17:2 = vm.call @hal.device.query.i64(%4, %_utf8_hal_executable_format_EAB228F999C2D3A1_5, %_utf8_embedded_elf_riscv_64_38BEAC1DD46E6154_6) {nosideeffects} : (!vm.ref<!hal.device>, !vm.buffer, !vm.buffer) -> (i32, i64)
      %nz_7 = vm.cmp.nz.i64 %17#1 : i64
      %18 = vm.select.i32 %17#0, %nz_7, %zero : i32
      %19 = vm.select.i64 %18, %zero_0, %c-1 : i64
      %eq_8 = vm.cmp.eq.i64 %19, %zero_0 : i64
      vm.global.store.ref %4, @__device_0 : !vm.ref<!hal.device>
      vm.cond_br %eq_8, ^bb8, ^bb9
    ^bb8:  // pred: ^bb7
      %main_graph_async_dispatch_188_embedded_elf_riscv_64 = vm.const.ref.rodata @main_graph_async_dispatch_188_embedded_elf_riscv_64 : !vm.buffer
      %ref_9 = vm.call @hal.executable.create(%4, %c-1, %_utf8_embedded_elf_riscv_64_38BEAC1DD46E6154_6, %main_graph_async_dispatch_188_embedded_elf_riscv_64, %null) {nosideeffects} : (!vm.ref<!hal.device>, i64, !vm.buffer, !vm.buffer, !vm.buffer) -> !vm.ref<!hal.executable>
      %__device_0 = vm.global.load.ref @__device_0 : !vm.ref<!hal.device>
      %ref_10 = vm.call @hal.device.allocator(%__device_0) {nosideeffects} : (!vm.ref<!hal.device>) -> !vm.ref<!hal.allocator>
      %ref_11 = vm.call @hal.allocator.allocate(%ref_10, %c-1, %c48, %c3075, %c78955776) : (!vm.ref<!hal.allocator>, i64, i32, i32, i64) -> !vm.ref<!hal.buffer>
      vm.global.store.ref %ref_9, @__device_0_executable_0_main_graph$async_dispatch_188 : !vm.ref<!hal.executable>
      vm.global.store.ref %ref_11, @main_graph$async_dispatch_188_embedded_elf_riscv_64_main_graph$async_dispatch_188_matmul_like_64x49x256_f32_buffer : !vm.ref<!hal.buffer>
      vm.return
    ^bb9:  // pred: ^bb7
      vm.fail %c14, "HAL device `__device_0` does not support any variant of executable `main_graph$async_dispatch_188`; available formats: [embedded-elf-riscv_64]"
    }
  }
}
