module {
  util.global private @__device_0 : !hal.device
  util.initializer {
    %c18_i32 = arith.constant 18 : i32
    %false = arith.constant false
    %c0 = arith.constant 0 : index
    %c1 = arith.constant 1 : index
    %0 = util.null : !hal.device
    %device_count = hal.devices.count : index
    cf.br ^bb1(%c0, %c0, %0 : index, index, !hal.device)
  ^bb1(%1: index, %2: index, %3: !hal.device):  // 2 preds: ^bb0, ^bb4
    %4 = util.cmp.eq %3, %0 : !hal.device
    %5 = arith.cmpi slt, %1, %device_count : index
    %6 = arith.andi %4, %5 : i1
    cf.cond_br %6, ^bb2, ^bb5
  ^bb2:  // pred: ^bb1
    %device_n = hal.devices.get %1 : !hal.device
    %ok, %value = hal.device.query<%device_n : !hal.device> key("hal.device.id" :: "local*") : i1, i1 = false
    cf.cond_br %value, ^bb3, ^bb4(%false : i1)
  ^bb3:  // pred: ^bb2
    %ok_0, %value_1 = hal.device.query<%device_n : !hal.device> key("hal.executable.format" :: "embedded-elf-riscv_64") : i1, i1 = false
    cf.br ^bb4(%value_1 : i1)
  ^bb4(%7: i1):  // 2 preds: ^bb2, ^bb3
    %8 = arith.cmpi eq, %2, %c0 : index
    %9 = arith.select %7, %c1, %c0 : index
    %10 = arith.addi %2, %9 : index
    %11 = arith.andi %7, %8 : i1
    %12 = arith.select %11, %device_n, %0 : !hal.device
    %13 = arith.addi %1, %c1 : index
    cf.br ^bb1(%13, %10, %12 : index, index, !hal.device)
  ^bb5:  // pred: ^bb1
    cf.cond_br %4, ^bb6, ^bb7
  ^bb6:  // pred: ^bb5
    util.status.check_ok %c18_i32, "HAL device `__device_0` not found or unavailable: #hal.device.target<\22local\22, [#hal.executable.target<\22llvm-cpu\22, \22embedded-elf-riscv_64\22, {cpu = \22spacemit-x60\22, cpu_features = \22+m,+a,+f,+d,+c,+v,+zvl256b,+zba,+zbb,+zbc,+zbs,+zicbom,+zicboz,+zicbop,+zihintpause\22, data_layout = \22e-m:e-p:64:64-i64:64-i128:128-n32:64-S128\22, iree.encoding.resolver = #iree_cpu.cpu_encoding_resolver<>, loop_vectorization = true, max_stack_allocation_size = 32768 : i64, native_vector_size = 32 : i64, target_abi = \22lp64d\22, target_triple = \22riscv64-unknown-unknown-eabi-elf\22}>]>"
    cf.br ^bb7
  ^bb7:  // 2 preds: ^bb5, ^bb6
    util.global.store %3, @__device_0 : !hal.device
    util.return
  }
  util.global private @__device_0_query_0_hal_executable_format_embedded_elf_riscv_64 : i1
  util.initializer {
    %__device_0 = util.global.load @__device_0 : !hal.device
    %ok, %value = hal.device.query<%__device_0 : !hal.device> key("hal.executable.format" :: "embedded-elf-riscv_64") : i1, i1 = false
    util.global.store %value, @__device_0_query_0_hal_executable_format_embedded_elf_riscv_64 : i1
    util.return
  }
  util.global private @__device_0_executable_0_main_graph$async_dispatch_211 : !hal.executable
  util.initializer {
    %0 = util.null : !hal.executable
    %c14_i32 = arith.constant 14 : i32
    %c0 = arith.constant 0 : index
    %c-1 = arith.constant -1 : index
    %c-1_i64 = arith.constant -1 : i64
    %__device_0_query_0_hal_executable_format_embedded_elf_riscv_64 = util.global.load @__device_0_query_0_hal_executable_format_embedded_elf_riscv_64 : i1
    %__device_0 = util.global.load @__device_0 : !hal.device
    %1 = arith.select %__device_0_query_0_hal_executable_format_embedded_elf_riscv_64, %c0, %c-1 : index
    %2 = arith.cmpi eq, %1, %c0 : index
    cf.cond_br %2, ^bb1, ^bb2
  ^bb1:  // pred: ^bb0
    %executable = hal.executable.create device(%__device_0 : !hal.device) affinity(%c-1_i64) target(@main_graph$async_dispatch_211::@embedded_elf_riscv_64) : !hal.executable
    cf.br ^bb3(%executable : !hal.executable)
  ^bb2:  // pred: ^bb0
    util.status.check_ok %c14_i32, "HAL device `__device_0` does not support any variant of executable `main_graph$async_dispatch_211`; available formats: [embedded-elf-riscv_64]"
    cf.br ^bb3(%0 : !hal.executable)
  ^bb3(%3: !hal.executable):  // 2 preds: ^bb1, ^bb2
    util.global.store %3, @__device_0_executable_0_main_graph$async_dispatch_211 : !hal.executable
    util.return
  }
  hal.executable private @main_graph$async_dispatch_211 {
    hal.executable.binary public @embedded_elf_riscv_64 attributes {data = dense<"0x7F454C460201010000000000000000000300F3000100000000000000000000004000000000000000B010000000000000050000004000380008004000160014000600000004000000400000000000000040000000000000004000000000000000C001000000000000C001000000000000080000000000000001000000040000000000000000000000000000000000000000000000000000003C050000000000003C05000000000000001000000000000001000000050000003C050000000000003C150000000000003C15000000000000F602000000000000F60200000000000000100000000000000100000006000000400800000000000040280000000000004028000000000000A001000000000000C00700000000000000100000000000000200000006000000200900000000000020290000000000002029000000000000C000000000000000C000000000000000080000000000000052E5746404000000400800000000000040280000000000004028000000000000A001000000000000C007000000000000010000000000000051E57464060000000000000000000000000000000000000000000000000000000000000000000000000000000000000000000000000000000300007004000000C90B000000000000000000000000000000000000000000003F020000000000003F02000000000000010000000000000000000000000000000000000000000000000000000000000001000000120007002218000000000000100000000000000002000000020000000000000001000000000000000000000000697265655F68616C5F65786563757461626C655F6C6962726172795F7175657279000000000000482800000000000003000000000000009003000000000000582800000000000003000000000000003C1500000000000060280000000000000300000000000000F00300000000000070280000000000000300000000000000330400000000000088280000000000000300000000000000D80400000000000090280000000000000300000000000000D804000000000000A02800000000000003000000000000004028000000000000C02800000000000003000000000000005828000000000000C8280000000000000300000000000000B003000000000000E02800000000000003000000000000006028000000000000F828000000000000030000000000000068280000000000000029000000000000030000000000000080280000000000006D61696E5F6772617068246173796E635F64697370617463685F323131000000000000000000000000000002010000000100000001000000000000000000000000000000000000000000000000000000000000000000000000000000000000006D61696E5F6772617068246173796E635F64697370617463685F3231315F656C656D656E74776973655F62726F6164636173745F363478323234783232345F663332002F73637261746368322F6D65726C696E2F73616D706C65732F636F72655F70696E6E696E675F73696E676C655F776F726B6C6F61642F6D6F64656C732F676C7064657074682F6D6F64656C732F62656E63686D61726B732F6D6F64756C655F6D61696E5F6772617068246173796E635F64697370617463685F3231315F656D6265646465645F656C665F72697363765F36345F62656E63686D61726B2E6D6C6972000000001000000000000000017A5200017801011B0C0200340000001800000048100000E602000000420E304C810188028903920493059406420C080003C6020C02304CC1C8C9D2D3D4420E000000001000000050000000F6120000100000000000000000000000797106F422F026EC4AE84EE452E00018814888718365060037E82A00B1669386065C18618332850093D725008D89939437001396670013953500B387D70293966500330E964093945500A20533060701858D37E75B0096951307C738338AA640BA953388B7003705003FD30705F0370500BF530705F0B707DE42D30600F0538607F03705004BB705803FD30505F0538505F0577094CD57A408521309000393038003B7220300938202E11303000429A085081698638E6820814F1395480093957800B38EA540428F3385CF01537035D05370F0005370F010D370E0005385D0A05380D62063070518530506A0D300C6206309051853A010205315B0A053811020631B0518D3F1A00053A031205315B0A0538031206311051A530536A05302C62019E15382312053A520C0D31522C053701008D3F020087695F69593194500131775009394450013957500B3053741058DE1547A87A104B38644015770900D57C5862A5770000D5716A94A57D5C70257D5A7925755A702F356210057D0A6665735A05C5750A67E57C9A75C5715292B57D0A56E5795204973902600575725035795A148D709095ED715E72A57700005D719A92057D0B56EF35621005770000D5795E04873902600D797A148F35621005795244B5770900D57C6A5025745A502573AE09E57700005571AF7205750E67E57C8E75C5770900D5736C1965770000D5797074B5770900D57C8E502573801975747E5025737E196739026005770000D571A490B5770900D5735A1965770000D877A06075798290B8778C60657960A938776E60657161AB30777A60657950693571547B357D5A0925755C0B22765070213070702E3E924EF850F130F8F38E39E7FE481B553801020530516A0D300C620E31B05E6D3000020532000205315B0A053811020E30905E653A500C0532005D053011020D3F1A00053A031205315B0A053803120E30305E653A501C0532005D053003020530536A05302C620E30C05E4A1BD0145130104FDA2700274E2644269A269026A456182809715000069359385E50733F5A50E828000000000000000000000000000000600000000000000000000000000000000000000000000000000000000000000000000000000000005000000A100000000000000000000000000000000000000000000000000000000000000000000000000000000000000000000000000000000000000000000000000000000000000000000000000000001000000000000000000000000000000000000000000000000000000000000000000000000000000000000000000000000000000000000000000000000000000000000000000000000000000000000000000000000000000000000000000000000000000000000001E000000000000000800000000000000FBFFFF6F000000000100000000000000070000000000000070020000000000000800000000000000200100000000000009000000000000001800000000000000F9FFFF6F000000000C00000000000000060000000000000000020000000000000B000000000000001800000000000000050000000000000048020000000000000A0000000000000023000000000000000400000000000000300200000000000000000000000000000000000000000000011101250E1305030E10171B0EB44219110112060000022E001101120640186E0E030E3A0B3B0B49133F190000032400030E3E0B0B0B0000004B0000000400000000000801E90000002C004300000000000000910000003C15000000000000E6020000023C15000000000000E602000001580000000000000000010147000000038D0000000504006D61696E5F6772617068246173796E635F64697370617463685F3231315F656C656D656E74776973655F62726F6164636173745F363478323234783232345F663332006D6F64756C655F6D61696E5F6772617068246173796E635F64697370617463685F3231315F656D6265646465645F656C665F72697363765F36345F62656E63686D61726B2E6D6C697200696E74002F73637261746368322F6D65726C696E2F73616D706C65732F636F72655F70696E6E696E675F73696E676C655F776F726B6C6F61642F6D6F64656C732F676C7064657074682F6D6F64656C732F62656E63686D61726B73004952454500550000000200000000004F0000002A0000006D61696E5F6772617068246173796E635F64697370617463685F3231315F656C656D656E74776973655F62726F6164636173745F363478323234783232345F6633320000000000160000000200000000004F00000047000000696E740000000000413E020000726973637600013402000004100572763634693270315F6D3270305F613270315F663270325F643270325F633270305F623170305F763170305F7A69633634623170305F7A6963626F6D3170305F7A6963626F703170305F7A6963626F7A3170305F7A696363616D6F613170305F7A69636369663170305F7A6963636C736D3170305F7A6963637273653170305F7A69636E74723270305F7A69636F6E643170305F7A696373723270305F7A6966656E6365693270305F7A6968696E7470617573653270305F7A6968706D3270305F7A6D6D756C3170305F7A61363472733170305F7A61616D6F3170305F7A616C7273633170305F7A66683170305F7A66686D696E3170305F7A63613170305F7A63643170305F7A62613170305F7A62623170305F7A62633170305F7A626B633170305F7A62733170305F7A6B743170305F7A76653332663170305F7A76653332783170305F7A76653634643170305F7A76653634663170305F7A76653634783170305F7A7666683170305F7A7666686D696E3170305F7A766B743170305F7A766C313238623170305F7A766C323536623170305F7A766C3332623170305F7A766C3634623170305F737363637074723170305F7373636F66706D663170305F7373636F756E746572656E773170305F737374633170305F73737476616C613170305F737374766563643170305F73766164653170305F7376626172653170305F7376696E76616C3170305F73766E61706F743170305F737670626D743170305F78736D7476646F743170300047010000040061000000010101FB0E0D000101010100000001000001006D6F64756C655F6D61696E5F6772617068246173796E635F64697370617463685F3231315F656D6265646465645F656C665F72697363765F36345F62656E63686D61726B2E6D6C697200000000000009023C150000000000000105100A0312082032D22F4D02240E4E060369026801051A06033A2E05120360D64D05134B4B4B4BBBC2F34BF50603519E06033082030E4A4B051A45051C30051A2C051C84051A80051C4C0510035B6605126A0513030982834B4B030B4A03764A83030982F3498448840875051A87051C84051303784ABD051A85051380051C85BC051385051CB681051388051A03794A051303094A051C037A4A051351051C03784A0513030B4A4B4B4B0510034D4A060369087405130603224A06035EBA06032A4A08AD4B08AF050B031FD6060B2E02140001014952454500000000000000000000000000000000000000000000000000230000000002090020290000000000000000000000000000010000001200070022180000000000001000000000000000002E64796E73796D002E68617368002E64796E737472002E72656C612E64796E002E726F64617461002E65685F6672616D65002E74657874002E646174612E72656C2E726F002E64796E616D6963002E72656C726F5F70616464696E67002E64656275675F616262726576002E64656275675F696E666F002E64656275675F737472002E64656275675F7075626E616D6573002E64656275675F7075627479706573002E72697363762E61747472696275746573002E64656275675F6C696E65002E636F6D6D656E74002E73796D746162002E7368737472746162002E7374727461620000697265655F68616C5F65786563757461626C655F6C6962726172795F7175657279005F44594E414D49430000000000000000000000000000000000000000000000000000000000000000000000000000000000000000000000000000000000000000000000000000000000010000000B0000000200000000000000000200000000000000020000000000003000000000000000030000000100000008000000000000001800000000000000090000000500000002000000000000003002000000000000300200000000000018000000000000000100000000000000040000000000000004000000000000000F000000030000000200000000000000480200000000000048020000000000002300000000000000000000000000000001000000000000000000000000000000170000000400000002000000000000007002000000000000700200000000000020010000000000000100000000000000080000000000000018000000000000002100000001000000020000000000000090030000000000009003000000000000480100000000000000000000000000001000000000000000000000000000000029000000010000000200000000000000D804000000000000D8040000000000006400000000000000000000000000000008000000000000000000000000000000330000000100000006000000000000003C150000000000003C05000000000000F6020000000000000000000000000000020000000000000000000000000000003900000001000000030000000000000040280000000000004008000000000000E0000000000000000000000000000000100000000000000000000000000000004600000006000000030000000000000020290000000000002009000000000000C0000000000000000300000000000000080000000000000010000000000000004F000000080000000300000000000000E029000000000000E00900000000000020060000000000000000000000000000010000000000000000000000000000005E0000000100000000000000000000000000000000000000E00900000000000039000000000000000000000000000000010000000000000000000000000000006C0000000100000000000000000000000000000000000000190A0000000000004F00000000000000000000000000000001000000000000000000000000000000780000000100000030000000000000000000000000000000680A000000000000EE00000000000000000000000000000001000000000000000100000000000000830000000100000000000000000000000000000000000000560B0000000000005900000000000000000000000000000001000000000000000000000000000000930000000100000000000000000000000000000000000000AF0B0000000000001A00000000000000000000000000000001000000000000000000000000000000A30000000300007000000000000000000000000000000000C90B0000000000003F02000000000000000000000000000001000000000000000000000000000000B50000000100000000000000000000000000000000000000080E0000000000004B01000000000000000000000000000001000000000000000000000000000000C10000000100000030000000000000000000000000000000530F0000000000000500000000000000000000000000000001000000000000000100000000000000CA0000000200000000000000000000000000000000000000580F0000000000004800000000000000150000000200000008000000000000001800000000000000D20000000300000000000000000000000000000000000000A00F000000000000E400000000000000000000000000000001000000000000000000000000000000DC000000030000000000000000000000000000000000000084100000000000002C00000000000000000000000000000001000000000000000000000000000000"> : vector<5680xi8>, format = "embedded-elf-riscv_64", mime_type = "application/x-elf"}
  }
  util.global private @main_graph$async_dispatch_211_embedded_elf_riscv_64_main_graph$async_dispatch_211_elementwise_broadcast_64x224x224_f32_buffer : !hal.buffer
  util.initializer {
    %memory_type = hal.memory_type<"DeviceVisible|DeviceLocal"> : i32
    %buffer_usage = hal.buffer_usage<"TransferSource|TransferTarget|Transfer|DispatchStorageRead|DispatchStorageWrite|DispatchStorage"> : i32
    %c64344064 = arith.constant 64344064 : index
    %c-1_i64 = arith.constant -1 : i64
    %__device_0 = util.global.load immutable @__device_0 : !hal.device
    %allocator = hal.device.allocator<%__device_0 : !hal.device> : !hal.allocator
    %buffer = hal.allocator.allocate<%allocator : !hal.allocator> affinity(%c-1_i64) type(%memory_type) usage(%buffer_usage) : !hal.buffer{%c64344064}
    util.global.store %buffer, @main_graph$async_dispatch_211_embedded_elf_riscv_64_main_graph$async_dispatch_211_elementwise_broadcast_64x224x224_f32_buffer : !hal.buffer
    util.return
  }
  util.func public @main_graph$async_dispatch_211_embedded_elf_riscv_64_main_graph$async_dispatch_211_elementwise_broadcast_64x224x224_f32(%arg0: i32) attributes {iree.abi.stub, iree.reflection = {iree.benchmark = "dispatch"}} {
    %c-1_i32 = arith.constant -1 : i32
    %0 = util.null : !hal.fence
    %c1 = arith.constant 1 : index
    %c32172032 = arith.constant 32172032 : index
    %c0 = arith.constant 0 : index
    %c-1_i64 = arith.constant -1 : i64
    %c16 = arith.constant 16 : index
    %main_graph$async_dispatch_211_embedded_elf_riscv_64_main_graph$async_dispatch_211_elementwise_broadcast_64x224x224_f32_buffer = util.global.load immutable @main_graph$async_dispatch_211_embedded_elf_riscv_64_main_graph$async_dispatch_211_elementwise_broadcast_64x224x224_f32_buffer : !hal.buffer
    %__device_0 = util.global.load immutable @__device_0 : !hal.device
    %__device_0_executable_0_main_graph$async_dispatch_211 = util.global.load immutable @__device_0_executable_0_main_graph$async_dispatch_211 : !hal.executable
    %1 = arith.index_cast %arg0 : i32 to index
    %cmd = hal.command_buffer.create device(%__device_0 : !hal.device) mode("OneShot|AllowInlineExecution") categories(Dispatch) affinity(%c-1_i64) : !hal.command_buffer
    cf.br ^bb1(%c0 : index)
  ^bb1(%2: index):  // 2 preds: ^bb0, ^bb2
    %3 = arith.cmpi slt, %2, %1 : index
    cf.cond_br %3, ^bb2, ^bb3
  ^bb2:  // pred: ^bb1
    hal.command_buffer.dispatch<%cmd : !hal.command_buffer> target(%__device_0_executable_0_main_graph$async_dispatch_211 : !hal.executable)[%c0] workgroups([%c16, %c1, %c1]) bindings([
      (%main_graph$async_dispatch_211_embedded_elf_riscv_64_main_graph$async_dispatch_211_elementwise_broadcast_64x224x224_f32_buffer : !hal.buffer)[%c0, %c32172032], 
      (%main_graph$async_dispatch_211_embedded_elf_riscv_64_main_graph$async_dispatch_211_elementwise_broadcast_64x224x224_f32_buffer : !hal.buffer)[%c32172032, %c32172032]
    ]) flags("None")
    hal.command_buffer.execution_barrier<%cmd : !hal.command_buffer> source("Dispatch|CommandRetire") target("CommandIssue|Dispatch") flags("None")
    %4 = arith.addi %2, %c1 : index
    cf.br ^bb1(%4 : index)
  ^bb3:  // pred: ^bb1
    hal.command_buffer.finalize<%cmd : !hal.command_buffer>
    %fence = hal.fence.create device(%__device_0 : !hal.device) flags("None") : !hal.fence
    hal.device.queue.execute<%__device_0 : !hal.device> affinity(%c-1_i64) wait(%0) signal(%fence) commands(%cmd) flags("None")
    %status = hal.fence.await until([%fence]) timeout_millis(%c-1_i32) flags("None") : i32
    util.status.check_ok %status, "failed to wait on timepoint"
    util.return
  }
}
