module {
  util.global private @__device_0 : !hal.device
  util.initializer {
    %c18_i32 = arith.constant 18 : i32
    %false = arith.constant false
    %c0 = arith.constant 0 : index
    %c1 = arith.constant 1 : index
    %0 = util.null : !hal.device
    %device_count = hal.devices.count : index
    cf.br ^bb1(%c0, %c0, %0 : index, index, !hal.device)
  ^bb1(%1: index, %2: index, %3: !hal.device):  // 2 preds: ^bb0, ^bb4
    %4 = util.cmp.eq %3, %0 : !hal.device
    %5 = arith.cmpi slt, %1, %device_count : index
    %6 = arith.andi %4, %5 : i1
    cf.cond_br %6, ^bb2, ^bb5
  ^bb2:  // pred: ^bb1
    %device_n = hal.devices.get %1 : !hal.device
    %ok, %value = hal.device.query<%device_n : !hal.device> key("hal.device.id" :: "local*") : i1, i1 = false
    cf.cond_br %value, ^bb3, ^bb4(%false : i1)
  ^bb3:  // pred: ^bb2
    %ok_0, %value_1 = hal.device.query<%device_n : !hal.device> key("hal.executable.format" :: "embedded-elf-riscv_64") : i1, i1 = false
    cf.br ^bb4(%value_1 : i1)
  ^bb4(%7: i1):  // 2 preds: ^bb2, ^bb3
    %8 = arith.cmpi eq, %2, %c0 : index
    %9 = arith.select %7, %c1, %c0 : index
    %10 = arith.addi %2, %9 : index
    %11 = arith.andi %7, %8 : i1
    %12 = arith.select %11, %device_n, %0 : !hal.device
    %13 = arith.addi %1, %c1 : index
    cf.br ^bb1(%13, %10, %12 : index, index, !hal.device)
  ^bb5:  // pred: ^bb1
    cf.cond_br %4, ^bb6, ^bb7
  ^bb6:  // pred: ^bb5
    util.status.check_ok %c18_i32, "HAL device `__device_0` not found or unavailable: #hal.device.target<\22local\22, [#hal.executable.target<\22llvm-cpu\22, \22embedded-elf-riscv_64\22, {cpu = \22spacemit-x60\22, cpu_features = \22+m,+a,+f,+d,+c,+v,+zvl256b,+zba,+zbb,+zbc,+zbs,+zicbom,+zicboz,+zicbop,+zihintpause\22, data_layout = \22e-m:e-p:64:64-i64:64-i128:128-n32:64-S128\22, iree.encoding.resolver = #iree_cpu.cpu_encoding_resolver<>, loop_vectorization = true, max_stack_allocation_size = 32768 : i64, native_vector_size = 32 : i64, target_abi = \22lp64d\22, target_triple = \22riscv64-unknown-unknown-eabi-elf\22}>]>"
    cf.br ^bb7
  ^bb7:  // 2 preds: ^bb5, ^bb6
    util.global.store %3, @__device_0 : !hal.device
    util.return
  }
  util.global private @__device_0_query_0_hal_executable_format_embedded_elf_riscv_64 : i1
  util.initializer {
    %__device_0 = util.global.load @__device_0 : !hal.device
    %ok, %value = hal.device.query<%__device_0 : !hal.device> key("hal.executable.format" :: "embedded-elf-riscv_64") : i1, i1 = false
    util.global.store %value, @__device_0_query_0_hal_executable_format_embedded_elf_riscv_64 : i1
    util.return
  }
  util.global private @__device_0_executable_0_main_graph$async_dispatch_60 : !hal.executable
  util.initializer {
    %0 = util.null : !hal.executable
    %c14_i32 = arith.constant 14 : i32
    %c0 = arith.constant 0 : index
    %c-1 = arith.constant -1 : index
    %c-1_i64 = arith.constant -1 : i64
    %__device_0_query_0_hal_executable_format_embedded_elf_riscv_64 = util.global.load @__device_0_query_0_hal_executable_format_embedded_elf_riscv_64 : i1
    %__device_0 = util.global.load @__device_0 : !hal.device
    %1 = arith.select %__device_0_query_0_hal_executable_format_embedded_elf_riscv_64, %c0, %c-1 : index
    %2 = arith.cmpi eq, %1, %c0 : index
    cf.cond_br %2, ^bb1, ^bb2
  ^bb1:  // pred: ^bb0
    %executable = hal.executable.create device(%__device_0 : !hal.device) affinity(%c-1_i64) target(@main_graph$async_dispatch_60::@embedded_elf_riscv_64) : !hal.executable
    cf.br ^bb3(%executable : !hal.executable)
  ^bb2:  // pred: ^bb0
    util.status.check_ok %c14_i32, "HAL device `__device_0` does not support any variant of executable `main_graph$async_dispatch_60`; available formats: [embedded-elf-riscv_64]"
    cf.br ^bb3(%0 : !hal.executable)
  ^bb3(%3: !hal.executable):  // 2 preds: ^bb1, ^bb2
    util.global.store %3, @__device_0_executable_0_main_graph$async_dispatch_60 : !hal.executable
    util.return
  }
  hal.executable private @main_graph$async_dispatch_60 {
    hal.executable.binary public @embedded_elf_riscv_64 attributes {data = dense<"0x7F454C460201010000000000000000000300F3000100000000000000000000004000000000000000303A000000000000050000004000380008004000160014000600000004000000400000000000000040000000000000004000000000000000C001000000000000C001000000000000080000000000000001000000040000000000000000000000000000000000000000000000000000006C0D0000000000006C0D000000000000001000000000000001000000050000006C0D0000000000006C1D0000000000006C1D0000000000000C250000000000000C2500000000000000100000000000000100000006000000803200000000000080520000000000008052000000000000A001000000000000800D00000000000000100000000000000200000006000000603300000000000060530000000000006053000000000000C000000000000000C000000000000000080000000000000052E5746404000000803200000000000080520000000000008052000000000000A001000000000000800D000000000000010000000000000051E57464060000000000000000000000000000000000000000000000000000000000000000000000000000000000000000000000000000000300007004000000D235000000000000000000000000000000000000000000003F020000000000003F02000000000000010000000000000000000000000000000000000000000000000000000000000001000000120007006842000000000000100000000000000002000000020000000000000001000000000000000000000000697265655F68616C5F65786563757461626C655F6C6962726172795F717565727900000000000088520000000000000300000000000000A00B000000000000985200000000000003000000000000006C1D000000000000A0520000000000000300000000000000000C000000000000B0520000000000000300000000000000280C000000000000C8520000000000000300000000000000D00C000000000000D0520000000000000300000000000000D00C000000000000E0520000000000000300000000000000805200000000000000530000000000000300000000000000985200000000000008530000000000000300000000000000C00B00000000000020530000000000000300000000000000A05200000000000038530000000000000300000000000000A85200000000000040530000000000000300000000000000C0520000000000000000000000000000000000000000000000000000000000000000000000000000000000000000000000000000000000000000000000000000000000000000000000000000000000000000000000000000000000000000000000000000000000000000000000000000000000000000000000000000000020000000000000000000000001002100000000000000000000000200220000000000000000000000030023000000000000000000000004002400000000000000000000000500250000000000000000000000060026000000000000000000000007002700000000000000000000000800280000000000000000000000200000000000000000000000010021000000000000000000000002002200000000000000000000000300230000000000000000000000040024000000000000000000000005002500000000000000000000000600260000000000000000000000070027000000000000000000000008002800000000000000000000000900000000000000000000002000000000000000000000000100210000000000000000000000020022000000000000000000000003002300000000000000000000000400240000000000000000000000050025000000000000000000000006002600000000000000000000000700270000000000000000000000080028000000000000000000000000000000000000000000000000000100000000000100000000000000020000000000020000000000000003000000000003000000000000000400000000000000000000000000000000000000000000000000000000000000000000000000000000000000000000000000000000000000000000000000000000003B00000000000000000000001C003C00000000000000000000001D003D00000000000000000000001E003E00000000000000000000001F003F000000000000000000000000000000000000000000000000000000000000000000000000000000000000000000000000000000000000000000000000000000000000000000000000000000000000001C003C00000000000000000000001D003D00000000000000000000001E003E00000000000000000000001F003F00000000000000000000000000000000000000000000000000000000000000000000000000000000000000000000000000000000000000000000000000000000000000000000000000000000001B003B00000000000000000000001C003C00000000000000000000001D003D00000000000000000000001E003E00000000000000000000001F003F00000000000000000000000000000000000000000000000000000000000000000000000000000000000000000000000000000000000000000000000000000000000000120032000000000000000000000013003300000000000000000000001400340000000000000000000000150035000000000000000000000016003600000000000000000000001700370000000000000000000000180038000000000000000000000019003900000000000000000000001A003A00000000000000000000001B000000000000000000000013003300000000000000000000001400340000000000000000000000150035000000000000000000000016003600000000000000000000001700370000000000000000000000180038000000000000000000000019003900000000000000000000001A003A00000000000000000000001B003B00000000000000120032000000000000000000000013003300000000000000000000001400340000000000000000000000150035000000000000000000000016003600000000000000000000001700370000000000000000000000180038000000000000000000000019003900000000000000000000001A003A0000000000000000000000000009000000000009000000000000000A00000000000A000000000000000B00000000000B000000000000000C00000000000C000000000000000D00000000000000000000000000000000000000000000000000000000000000000000000000000000000000000000000000000000000000000000000000000000000000000009002900000000000000000000000A002A00000000000000000000000B002B00000000000000000000000C002C00000000000000000000000D002D00000000000000000000000E002E00000000000000000000000F002F0000000000000000000000100030000000000000000000000011003100000000000000000000002900000000000000000000000A002A00000000000000000000000B002B00000000000000000000000C002C00000000000000000000000D002D00000000000000000000000E002E00000000000000000000000F002F0000000000000000000000100030000000000000000000000011003100000000000000000000001200320000000000000009002900000000000000000000000A002A00000000000000000000000B002B00000000000000000000000C002C00000000000000000000000D002D00000000000000000000000E002E00000000000000000000000F002F00000000000000000000001000300000000000000000000000110031000000000000000000000004000000000000000500000000000500000000000000060000000000060000000000000007000000000007000000000000000800000000000800000030180C0683C16030180C0683C160301820100804028140200C0683C16030180C100804028140201040201008040281400000000000000000000000000000000000000D000000000000000E00000000000E000000000000000F00000000000F006D61696E5F6772617068246173796E635F64697370617463685F363000000000000000000000000000000002010000000100000001000000000000000000000000000000000000000000000000000000000000000000000000000000000000006D61696E5F6772617068246173796E635F64697370617463685F36305F756E7061636B5F663332002F73637261746368322F6D65726C696E2F73616D706C65732F636F72655F70696E6E696E675F73696E676C655F776F726B6C6F61642F6D6F64656C732F676C7064657074682F6D6F64656C732F62656E63686D61726B732F6D6F64756C655F6D61696E5F6772617068246173796E635F64697370617463685F36305F656D6265646465645F656C665F72697363765F36345F62656E63686D61726B2E6D6C697200000000000000001000000000000000017A5200017801011B0C02006C0000001800000080100000FC24000000440E800B0260810188029203930494059506960797089809990A9A0B9B0CA80DA90EB20FB310B411B512B613B714B815B916BA17BB18440C0800032E240C02800B0260C1C8D2D3D4D5D6D7D8D9DADBE8E9F2F3F4F5F6F7F8F9FAFB440E000010000000880000000C350000100000000000000000000000130101A8233C1156233881562334215723303157233C4155233851552334615523307155233C8153233891532334A1532330B153273C8150273891502734215127303151273C414F2738514F2734614F2730714F273C814D2738914D2734A14D2730B14D13040158732520C29306500D3305D5023301A140137101F88146014E88718365060037580F0093080031130600040D67376302001307071057F063CC5724846EF32720C28A979387074C27848702B383E5025724847E1307014C2704870295621C61833E850013070348BAE013976500130503842AFC3387E840AEE48605AEE53347C70AC2973EF8F6931EF49383027817E9FFFF1309095A4AFD97E9FFFF938969614EF917FAFFFF130A4ACE52F597EAFFFF938A2A6856F117FBFFFF130B8BCB5AED97EBFFFF938BEB6E5EE917FCFFFF130CCCCC62E597ECFFFF938CAC7566E117EDFFFF130D0D7DEAFCB76D3018938D1D0CEEF817F8FFFF1308C883C2F43785C1601305653097F7FFFF9387A7CABEF0B71508049605B7C7603093858540AEEC1389371893000002B722140037331400BAE1EA794A7AAA7A0A7BEA6B4A6CAA6C0A6DE67DA678867F01A8C6658589054E854699C16F20802DB6E8A665B146E3E6B6FE01488665B30EBE02E275B305BE02C276F696B6E9A276338FB600B3050741B327B0005770600C57C4075E5734806693A7250093C71700D7C4075ED7349066F32620C21307D00CB386E6028A969386064CA784860293A7350093C7170057C5075ED734A066F32620C21307500CB386E6028A969386064CA784860293A7450093C71700D7C5075ED734B066F32620C21307D00BB386E6028A969386064CA784860293A7550093C7170057C6075E5736C06693A7650093C71700D7C6075ED736D06693A7750093C7170057C7075E5737E06693A7850093C71700D7C7075ED737F06693A7950093C7170057C8075E5738006793A7A50093C71700D7C8075ED738106793A7B50093C7170057C9075E5739206793A7C50093C71700D7C9075ED739306793A7D50093C7170057CA075E573A406793A7E50093C71700D7CA075ED73A506793A7F50093C7170057CB075E573B606793A7050193C71700D7CB075ED73B706793A7150193C7170057CC075E573C806793A7250193C71700D7CC075ED73C906793A7350193C7170057CD075E573DA06793A7450193C71700D7CD075ED73DB06793A7550193C7170057CE075E573EC06793A7650193C71700D7CE075ED73ED06793A7750193C7170057CF075E573FE06793A7850193C71700D7CF075ED73FF06793A7950193C71700D7C3075ED733706693A7A50193C7170057C3075E5733606693A7B50193C71700D7C2075ED732506693A7C50193C7170057C2075E5732406693A7D50193C71700D7C1075ED731306693A7E50193C7170057C1075E5731206693A7F50193C71700D7C0075ED730106693A5050293C5150057C0055E57300066F32520C28A959385054C07858502D734809E5724A4629305014C87858502D7A495665724946AF32520C293965500B6958A959385054C27848502F32520C29306D00CB385D5028A959385054C8784850257A4A462D7A495665724946AF32520C296058A959385054C27848502F32520C29306500CB385D5028A959385054C8784850257A4A462D7A495665724946AF32520C293965500B385B6408A959385054C27848502F32520C29306D00BB385D5028A959385054C8784850257A4A462D7A495665724946AF32520C2F946B385D5028A959385054C278485025724A662D7A4C5665724946AF32520C2F546B385D5028A959385054C2784850257A4A662D7A4D5665724946AF32520C2F146B385D5028A959385054C278485025724A762D7A4E5665724946AF32520C2ED46B385D5028A959385054C2784850257A4A762D7A4F5665724946AF32520C2E946B385D5028A959385054C278485025724A862D7A405675724946AF32520C2E546B385D5028A959385054C2784850257A4A862D7A415675724946AF32520C28E05B3A5B5208A959385054C278485025724A962D7A425675724946AF32520C2DD46B385D5028A959385054C2784850257A4A962D7A435675724946AF32520C2D946B385D5028A959385054C278485025724AA62D7A445675724946AF32520C2D546B385D5028A959385054C2784850257A4AA62D7A455675724946AF32520C28A05B3C5B5208A959385054C278485025724AB62D7A465675724946AF32520C2CD46B385D5028A959385054C2784850257A4AB62D7A475675724946AF32520C28605B3E5B5208A959385054C278485025724AC62D7A485675724946AF32520C293964500B6958A959385054C2784850257A4AC62D7A495675724946AF32520C292058A959385054C278485025724AD62D7A4A5675724946AF32520C293964500B385B6408A959385054C2784850257A4AD62D7A4B5675724946AF32520C2B946B385D5028A959385054C278485025724AE62D7A4C5675724946AF32520C2B546B385D5028A959385054C2784850257A4AE62D7A4D5675724946AF32520C28A05B3A5B5208A959385054C278485025724AF62D7A4E5675724946AF32520C2AD46B385D5028A959385054C2784850257A4AF62D7A4F5675724946AF32520C28605B3C5B5208A959385054C2784850257A4A362D7A475665724946AF32520C2B3E5B5208A959385054C278485025724A362D7A465665724946AF32520C2B3E525209385054C2784850257A4A262D7A455665724946AF32520C293963500B385B6408A959385054C278485025724A262D7A445665724946AF32520C28605B3A5B5208A959385054C2784850257A4A162D7A435665724946AF32520C2B3C5B5208A959385054C278485025724A162D7A425665724946AF32520C2B3C525209385054C2784850257A4A062C2F193555800D7A415665724946AF32620C2B3A6D6208A969386064C27848602AE66B695939775005724A062AA05D7A405665724946AF32620C2B3A626209386064C278486029D8DCE66B695AEF5E55EFAED4678666E9D0EB3E5DE21B3C5D521A181B387BE40E217E593BE95E215E991B3857502AE76B69557F0200D07E80502F32620C21307D005B386E6028A969386064C278886E2938705089E869383051007E407029387051807E00302B683F32620C213075009B386E6028A969386064C278086E207EC0702F32620C21307D00CB386E6028A969386064C278486E2F32620C21307500BB386E6028A969386064C278C86E25770360D57C8803AF32620C21307D00AB386E6028A969386064C278886E257F080CD07F40A02F32620C21307D007B386E6028A969386064C278486025770360557C0803BF32620C21307500AB386E6028A969386064C278086E207540A0207D60902F32620C21307D00AB386E6028A969386064C078C86E25708843BF32620C21307D007B386E6028A969386064C878186025730309EF32620C21307500AB386E6028A969386064C078C86E2570886395704085EF32620C21307D006B386E6028A969386064C278886E2938705209386052857F0200D07E80702732720C29307D00B3307F7020A971307074C270887E29385053007EC0602F32620C21307500CB386E6028A969386064C278C86E257F080CD07F00B025770360557C8803BF32620C21307D009B386E6028A969386064C278886E207520B025704023957F0200D07EC050207520C0257F080CD07F00C0257F0B00D5708823B5770360D5704885CF32520C293065007B385D5028A959385054C278485E257F080CD576008425770360507DE0D0207520D02F32520C29306D00AB385D5028A959385054C078485E257088E3AF32520C29306500AB385D5028A959385054C078485E25708823857F080CD576005425770360507DE0802F32520C29306D009B385D5028A959385054C078485E257088E38F32520C293065008B385D5028A959385054C278885E25770A8CD07D60F0257600E425704863B97E5FFFF5770360D5704045DF32620C21307D008B386E6028A969386064C278486E297E6FFFF9317390217E7FFFF9385A5ED938686F3CA9757F080CD57E007425770360507DE060207D20502F32520C29306D00AB385D5028A959385054C078485E257088E3AF32520C29306500AB385D5028A959385054C078485E257088238F32520C293065006B385D5028A959385054C278885E2930507FB07D205025730309EF32520C29306D009B385D5028A959385054C078485E25708823897E5FFFF97E6FFFF9385E51F9386A6F957F080CD07F0050257F0B00D07D306025704833B5770360D5704045DF32520C29306D007B385D5028A959385054C278485E297E5FFFF9385C5FD97E6FFFF13173502938646052A9757F080CD576007425770360507DE060207D20502F32520C29306D00AB385D5028A959385054C078485E257088E3AF32520C29306500AB385D5028A959385054C078485E257088238F32520C29306D00AB385D5028A959385054C278885E297E5FFFF97E6FFFF938505139386460657F080CD07F005025770360507DE0602F32520C29306D009B385D5028A959385054C078485E257088E38F32520C29306500AB385D5028A959385054C278885E2F32520C29306D00CB385D5028A959385054C078485E257F010CD57B4843ED7178042F32520C293065009B385D5028A959385054C078885E257B4043F57178042F32520C29306500BB385D5028A959385054C078485E257B4843ED7168042F32520C29306D00BB385D5028A959385054C078485E257B4843E57168042F32520C29306500CB385D5028A959385054C078485E257B4843EF32520C29306500CB385D5028A959385054C078085E2D715804257B4843FF32520C29306A002B385D5028A959385054C278C85E257158042F32520C29306D00CB385D5028A959385054C078485E25734853E571080425734053FD7108042F32520C29306500BB385D5028A959385054C078485E25734853E57118042F32520C29306D00CB385D5028A959385054C078485E257F000CD57B4803ED711804257B4003F57128042F32520C29306500BB385D5028A959385054C078485E257B4803ED7128042F32520C29306D00BB385D5028A959385054C078485E257B4803E5713804257B4003ED713804257B4803F57188042F32520C29306D00CB385D5028A959385054C078485E25734823ED71880425734023F57B0019F571E8042F32520C29306500BB385D5028A959385054C078C85E25734823FD71E8042F32520C29306D005B385D5028A959385054C078485E257B6803EF32520C293067003B385D5028A959385054C278685025736823EF32520C293062004B385D5028A959385054C27868502F32520C29306D00BB385D5028A959385054C078885E25736023FF32520C293066003B385D5028A959385054C2786850257B6823EF32520C28E05B3E5B5208A959385054C2786850257B6023EF32520C29A058A959385054C27868502F32520C29306D00BB385D5028A959385054C078885E257B6023FF32520C293063004B385D5028A959385054C278685025736833EF32520C293061005B385D5028A959385054C278685025736033EF32520C29306D004B385D5028A959385054C27868502F32520C29306D00BB385D5028A959385054C078885E25736033FF32520C29306F004B385D5028A959385054C2786850257B6833EF32520C29306A005B385D5028A959385054C2786850257B6033EF32520C293065005B385D5028A959385054C27868502F32520C29306D00BB385D5028A959385054C078885E257B6033FF32520C29306D009B385D5028A959385054C27868502F32520C29306500CB385D5028A959385054C078085E25736023EF32520C293062003B385D5028A959385054C27868502F32520C29306D00CB385D5028A959385054C078085E257B6023EF32520C293065003B385D5028A959385054C2786850257B6823FF32520C293068003B385D5028A959385054C27868502F32520C29306500CB385D5028A959385054C078085E257B6023EF32520C29306B003B385D5028A959385054C27868502F32520C29306D00CB385D5028A959385054C078085E25736033EF32520C293966500B6958A959385054C278685025736833FF32520C293064004B385D5028A959385054C27868502F32520C29306500CB385D5028A959385054C078085E25736033EF32520C293067004B385D5028A959385054C27868502F32520C29306D00CB385D5028A959385054C078085E257B6033EF32520C29306E004B385D5028A959385054C2786850257B6833FF32520C29205B3C5B5208A959385054C27868502F32520C29306500CB385D5028A959385054C078085E257B6033EF32520C293062005B385D5028A959385054C2786850257F010CD57B6843EF32520C293068005B385D5028A959385054C278685225736853EF32520C29306B005B385D5028A959385054C278685225736053FF32520C293066005B385D5028A959385054C2786852257B6863EF32520C293063005B385D5028A959385054C27868522F32520C293065009B385D5028A959385054C078C85E257B6863FF32520C293069004B385D5028A959385054C2786852257B6063FF32520C293065004B385D5028A959385054C278685225736873EF32520C29306B004B385D5028A959385054C278685225736873FF32520C29306E003B385D5028A959385054C278685225736073FF32520C293069003B385D5028A959385054C2786852257B6873EF32520C29306C003B385D5028A959385054C2786852257B6873FF32520C293063003B385D5028A959385054C27868522F32520C29306D00CB385D5028A959385054C078085E257B6063EF32520C293062002B385D5028A959385054C2786852257F0200D0C0227E40502F32520C29306D00CB385D5028A959385054C078485E257F010CD573A873E072F411457B6873EF32520C293066002B385D5028A959385054C2786852257F0200D9305014027E4050257F010CD57B4073FF32520C28E05B3C5B5208A959385054C27848522872F4144F32520C29306500BB385D5028A959385054C078485E257B6863E57F0200D0C0727EC050257F010CD573B873E0724413C57B7873EF32520C28A05B3E5B5208A959385054C2787852257F0200D0C0627E40502F32520C29306500CB385D5028A959385054C078085E257F010CD5734053E0729413457B5063E57F0200D0C0527E8050257F010CD5737073E8724412C57B8073E57F0200D0C0427E00502F32520C293067003B385D5028A959385054C87858502577004CDD734B032F32520C293066003B385D5028A9587A9054CD7D4913EF32520C293062003B385D5028A9587A1054CD754923ED7D4923EF32520C29306A002B385D5028A959385054C078C85E2D735823F5712B042D754933EF32520C293065003B385D5028A9587A2054CD7D4933ED754983EF32520C29306500CB385D5028A959385054CA7848502F32520C293062004B385D5028A959385054C87858502D734B032F32520C29A058A9507A3054CD7D4983EF32520C293068003B385D5028A9587A3054CD7549E3EF32520C293063004B385D5028A9507A8054CD7D49E3EF32520C29306B003B385D5028A9587A8054CD7D4993ED7D4913EF32520C28E05B3E5B5208A959385054C87868502D735D032D754923EF32520C29306D00CB385D5028A959385054CA7848502D7B4823FD7119042D7D4B23EF32520C293966500B6958A9507A2054CD754933EF32520C29306D004B385D5028A9587A2054CD7D4933EF32520C293064004B385D5028A9507A3054CD754983EF32520C29306F004B385D5028A9587A3054CD7D4983ED7D4913EF32520C29306D00BB385D5028A959385054CA7848502F32520C293061005B385D5028A959385054C87858502D734B032F32520C293067004B385D5028A9587A1054CD754923ED7D4923ED735833F5712B042D754933EF32520C29306E004B385D5028A9587A2054CD7D4933EF32520C293065005B385D5028A9507A3054CD7D4913ED754923EF32520C29306500BB385D5028A959385054CA7848502F32520C29306A005B385D5028A959385054C87858502D734B032F32520C29205B3C5B5208A9587A1054CD7D4923EF32520C29306D009B385D5028A9507A2054CD754933EF32520C293062005B385D5028A9587A2054CD7D4913ED754923ED7B5833FD711B042D7D4923EF32520C293068005B385D5028A959385054C07898522D7352033D7D4913EF32520C29306D009B385D5028A959385054CA7848502F32520C293066005B385D5028A959385054C07898522D7112043D7D4B73ED71780425754973ED7D5863E57F010CD5734853F57178042577004CD5754B63EF32520C293062002B385D5028A959385054C07898522D716204357D4853EF32520C29306B005B385D5028A959385054C07898522D73420335754853EF32520C293065009B385D5028A959385054C27848502F32520C293069004B385D5028A959385054C07898522571620435754903ED715C04257D4803EF32520C293065004B385D5028A959385054C078685225715C0425754813E5710A04257D4813EF32520C293063005B385D5028A959385054C078685225735C03257D4873E5754873EF32520C29306B005B385D5028A959385054C2784850257F010CD57B4863FD7178042577004CD57D4A63E571740435754863EF32520C29306E003B385D5028A959385054C07858522D716A04257D4853E571660435754853EF32520C293069003B385D5028A959385054C07858522D715A0425754803EF32520C29306B004B385D5028A959385054C07858522D734A03257D4873EF32520C29306D005B385D5028A959385054C27848502D717E0425754973E57D5863E57F010CD5734873F57178042577004CD5754A63EF32520C293066002B385D5028A959385054C07858522D716A04257D4853EF32520C293063003B385D5028A959385054C078585225716A04257D4873EF32520C29306C003B385D5028A959385054C07858522D734A0325754873EF32520C29306A005B385D5028A959385054C27848502F32520C28A05B3E5B5208A959385054C07858522D717A04257D4963EF32520C28E05B3C5B5208A959385054C078585225717A0425754863ED716004357D4873E5755873E57F010CD57B4873FD7178042577004CD57D4A63E97D5FFFF57D4873EF32620C213078005B386E6028A969386064C278486029385853A57540F5E97D6FFFF57D48F3E9386263D5754843E0727412457F0200D1803276C0702577004CD5759893E57F080CD07F006028727411C57F0B00D07D805025704883B577004CD57D8243FF32520C29306500AB385D5028A959385054C078C85E25770360D5704845D577004CD5758073F8725811C0725C11C8726811D57D8073FF32520C29306500AB385D5028A959385054C2788850207268114072081448720813C0721C114872181150727C1150722C144872281458727C1455758065E5758003F072681340720C13C0723813D072BC13D57D8003F8720812C8723C134072881358728C135272A110F5758063F87288124072EC12C872E812D0726C12D57D8003F8720C124072F8125872FC125272CF10F57D8083F57D8053FF32520C293066005B385D5028A959385054C278885025758015E5758023F5758003F57D8033F57580E3F57D8003F5758053FF32520C293065005B385D5028A959385054C2788850257D8015EF32520C29306D006B385D5028A959385054C078C85E2577018CD5739873FF32520C293063005B385D5028A959385054C27898522577004CD57D8023FF32520C29306D00AB385D5028A959385054C078C85E2577018CD57B9863FF32520C29306D006B385D5028A959385054C27898522577004CD5758033FF32520C293065006B385D5028A959385054C078C85E2577018CD5739863FF32520C29306D00AB385D5028A959385054C27898522577004CD5758083F57D80E3F577028CD573A883EF32520C293065006B385D5028A959385054C278A8562577034CD9305000357CC853E577004CDD7540F3FD7DC963E8723412607228126872BC11D872F411E8721811E8726C11E272ED10E072C411607248116072EC11607200117872C4146072A81460728C14687250147872D413E8724813E872EC13E8720013F072D4136072981368728C136072501378726412E872A812E072FC12E0721012F93850290FA95F32620C213075007B386E6028A969386064C078086E2577028CD5736083E577034CD9306800357C8063E5734009E8729C126872201270723011FF32620C213975600BA968A969386064C0780860257F003CD27E40500577004CDD754075ED7D4973E9385429CF32620C21307500CB386E6028A969386064C0784860257F003CD57B5803EFA95F32620C296068A969386064C0780860227E50500938582A8F32620C213073005B386E6028A969386064C07858622577018CD5735C13AFA95F32620C213975600B306D7408A969386064C0780860257F003CD27E505009385C2B4577018CD57B5C23EFA95F32620C27947B386E6028A969386064C0780860257F003CD27E50500938502C1F32620C21307D00CB386E6028A969386064C0784860257B5803EFA95F32620C27547B386E6028A969386064C0780860227E50500938542CDF32620C21307D00BB386E6028A969386064C0784860257B5803EFA95F32620C27147B386E6028A969386064C0780860227E50500938582D9F32620C21307500BB386E6028A969386064C0784860257B5803EFA95577004CDD7549B3EF32620C26D47B386E6028A969386064C0780860257F003CD27E50500F32520C29306D009B385D5028A959385054C0784850257B5803E9385C2E5FA95938602F2732720C2E9473307F7020A971307074C0700870227E50500FA96F32520C26547B385E5028A959385054C0780850227E80600938542FEF32620C213075009B386E6028A969386064C0784860257B5803EFA95F32620C28E06B3A6D6208A969386064C0780860227E505009385820AF32620C21307B005B386E6028A969386064C0784860257B5803EFA95F32620C25D47B386E6028A969386064C0780860227E505009385C216F32620C21307D006B386E6028A969386064C07858622F32620C213075006B386E6028A969386064C07868662577018CD57B5C13AFA95F32620C25947B386E6028A969386064C0780860257F003CD27E5050093850223577018CD5735C23EFA95F32620C25547B386E6028A969386064C0780860257F003CD27E505009385422FF32620C21307D005B386E6028A969386064C0784860257B5803EFA95F32620C28A06B3C6D6208A969386064C0780860227E505009385823BF32620C21307A005B386E6028A969386064C0784860257B5803EFA95F32620C24D47B386E6028A969386064C0780860227E505009385C247F32620C213078005B386E6028A969386064C0784860257B5803EFA95F32620C28606B3E6D6208A969386064C0780860227E5050093850254577004CD8727410FD7D4973EFA95F32620C213974600BA968A969386064C0780860257F003CD27EC0500577004CD5754963EF32520C293065008B385D5028A959385054C078885E2577018CD57BA053F577004CD8727810F57D4873E57DB8B3EF32520C29306D007B385D5028A959385054C078485E2577028CD5738883E577034CD9305800257C4853E577004CDD7540C5EF32520C29306D008B385D5028A959385054C078085E2577028CD5736083E577004CDD7D49C3ED7D49D3E93854260F32620C21307500AB386E6028A969386064C0785860257F003CD57B5A03EFA95F32620C292068A969386064C0780860227E50500577004CDD7549D3ED7D4963E9385826CF32620C213076005B386E6028A969386064C0785860257F003CD57B5A03EFA95F32620C213974600B306D7408A969386064C0780860227E50500577004CDD7D4933ED7D49F3E9385C278F32620C213075005B386E6028A969386064C0785860257F003CD57B5A03EFA95F32620C23947B386E6028A969386064C0780860227E50500577004CD5755045E5755AA3E93050385F32620C21307D00AB386E6028A969386064C07878622577018CD5737023BFA95F32620C23547B386E6028A969386064C0780860257F003CD27E70500577004CD57D7A43E577018CD57B5013F577004CDD755E93ED7D5BA3E93054391D755B23EFA95F32620C28A06B3A6D6208A969386064C0780860257F003CD27E50500577004CD57D5B13ED7550E5E9305839D57F003CD57B7903FFA95F32620C22D47B386E6028A969386064C0780860227E70500577004CDD755B83ED7D5BE3E9305C3A957F003CD57B7603FFA95F32620C28606B3C6D6208A969386064C0780860227E70500577004CDD7D5B83ED755BF3E930503B6D7D5B93EFA95F32620C2B3E6D6208A969386064C0780860257F003CD27E40500577004CD8727C10F57D4B73ED755005E930543C257F003CDD7B4903EFA95F32620C2B3E626209386064C07808602A7E40500577004CDD7D4B53ED7D4903E930583CE57F003CD57B5A03EFA95F32620C213973600B306D7408A969386064C0780860227E50500577004CDD754953ED754913E9305C3DA57F003CD57B4803EFA95F32620C28606B3A6D6208A969386064C0780860227E40500577004CD57D4923E5754833E930503E757F003CD57B4803EFA95F32620C2B3C6D6208A969386064C0780860227E40500930543F3577018CD57BAC23AFA95F32620C2B3C626209386064C0780860257F003CD27EA0500930583FF577018CD5734C13EFA95F32620C2B3A6D6208A969386064C0780860257F003CD27E405009305C30B577018CD57B4C43EFA95F32620C2B3A626209386064C0780860257F003CD27E40500710F9305A00263F4BE006FE00FC20E7813080802930500626E6F33CFE5210E676354E8006FD09FD56FD03FD20145130104A883308157033401570339815683390156033A8155833A0155033B8154833B0154033C8153833C0153033D8152833D015207348151873401510739815087390150073A814F873A014F073B814E873B014E073C814D873C014D073D814C873D014C1301015882809715000069359385850733F5A50E828000000000000000000600000000000000000000000000000000000000000000000000000000000000000000000000000005000000A000000000000000000000000000000000000000000000000000000000000000000000000000000000000000000000000000000000000000000000000000000000000000000000000000000001000000000000000000000000000000000000000000000000000000000000000000000000000000000000000000000000000000000000000000000000000000000000000000000000000000000000000000000000000000000000000000000000000000000000001E000000000000000800000000000000FBFFFF6F000000000100000000000000070000000000000070020000000000000800000000000000200100000000000009000000000000001800000000000000F9FFFF6F000000000C00000000000000060000000000000000020000000000000B000000000000001800000000000000050000000000000048020000000000000A0000000000000023000000000000000400000000000000300200000000000000000000000000000000000000000000011101250E1305030E10171B0EB44219110112060000022E001101120640186E0E030E3A0B3B0B49133F190000032400030E3E0B0B0B0000004B0000000400000000000801A50000002C005C00000000000000040000006C1D000000000000FC240000026C1D000000000000FC2400000158AA000000AA0000000101470000000300000000050400696E74002F73637261746368322F6D65726C696E2F73616D706C65732F636F72655F70696E6E696E675F73696E676C655F776F726B6C6F61642F6D6F64656C732F676C7064657074682F6D6F64656C732F62656E63686D61726B73006D6F64756C655F6D61696E5F6772617068246173796E635F64697370617463685F36305F656D6265646465645F656C665F72697363765F36345F62656E63686D61726B2E6D6C69720049524545006D61696E5F6772617068246173796E635F64697370617463685F36305F756E7061636B5F663332003A0000000200000000004F0000002A0000006D61696E5F6772617068246173796E635F64697370617463685F36305F756E7061636B5F6633320000000000160000000200000000004F00000047000000696E740000000000413E020000726973637600013402000004100572763634693270315F6D3270305F613270315F663270325F643270325F633270305F623170305F763170305F7A69633634623170305F7A6963626F6D3170305F7A6963626F703170305F7A6963626F7A3170305F7A696363616D6F613170305F7A69636369663170305F7A6963636C736D3170305F7A6963637273653170305F7A69636E74723270305F7A69636F6E643170305F7A696373723270305F7A6966656E6365693270305F7A6968696E7470617573653270305F7A6968706D3270305F7A6D6D756C3170305F7A61363472733170305F7A61616D6F3170305F7A616C7273633170305F7A66683170305F7A66686D696E3170305F7A63613170305F7A63643170305F7A62613170305F7A62623170305F7A62633170305F7A626B633170305F7A62733170305F7A6B743170305F7A76653332663170305F7A76653332783170305F7A76653634643170305F7A76653634663170305F7A76653634783170305F7A7666683170305F7A7666686D696E3170305F7A766B743170305F7A766C313238623170305F7A766C323536623170305F7A766C3332623170305F7A766C3634623170305F737363637074723170305F7373636F66706D663170305F7373636F756E746572656E773170305F737374633170305F73737476616C613170305F737374766563643170305F73766164653170305F7376626172653170305F7376696E76616C3170305F73766E61706F743170305F737670626D743170305F78736D7476646F7431703000BB000000040060000000010101FB0E0D000101010100000001000001006D6F64756C655F6D61696E5F6772617068246173796E635F64697370617463685F36305F656D6265646465645F656C665F72697363765F36345F62656E63686D61726B2E6D6C697200000000000009026C1D0000000000000105100A030C02800101051532051002420E2F0515A10510087005154E06036F02C2010103112E036FBA03114A036F6603110858036F0296450103112E050B0608AE060B2E026A0001014952454500000000000000000000000000000000000000000000000000000000230000000002090060530000000000000000000000000000010000001200070068420000000000001000000000000000002E64796E73796D002E68617368002E64796E737472002E72656C612E64796E002E726F64617461002E65685F6672616D65002E74657874002E646174612E72656C2E726F002E64796E616D6963002E72656C726F5F70616464696E67002E64656275675F616262726576002E64656275675F696E666F002E64656275675F737472002E64656275675F7075626E616D6573002E64656275675F7075627479706573002E72697363762E61747472696275746573002E64656275675F6C696E65002E636F6D6D656E74002E73796D746162002E7368737472746162002E7374727461620000697265655F68616C5F65786563757461626C655F6C6962726172795F7175657279005F44594E414D49430000000000000000000000000000000000000000000000000000000000000000000000000000000000000000000000000000000000000000000000000000000000010000000B0000000200000000000000000200000000000000020000000000003000000000000000030000000100000008000000000000001800000000000000090000000500000002000000000000003002000000000000300200000000000018000000000000000100000000000000040000000000000004000000000000000F000000030000000200000000000000480200000000000048020000000000002300000000000000000000000000000001000000000000000000000000000000170000000400000002000000000000007002000000000000700200000000000020010000000000000100000000000000080000000000000018000000000000002100000001000000120000000000000000040000000000000004000000000000D00800000000000000000000000000008000000000000000000000000000000029000000010000000200000000000000D00C000000000000D00C0000000000009C00000000000000000000000000000008000000000000000000000000000000330000000100000006000000000000006C1D0000000000006C0D0000000000000C250000000000000000000000000000020000000000000000000000000000003900000001000000030000000000000080520000000000008032000000000000E0000000000000000000000000000000100000000000000000000000000000004600000006000000030000000000000060530000000000006033000000000000C0000000000000000300000000000000080000000000000010000000000000004F00000008000000030000000000000020540000000000002034000000000000E00B0000000000000000000000000000010000000000000000000000000000005E0000000100000000000000000000000000000000000000203400000000000039000000000000000000000000000000010000000000000000000000000000006C000000010000000000000000000000000000000000000059340000000000004F00000000000000000000000000000001000000000000000000000000000000780000000100000030000000000000000000000000000000A834000000000000D2000000000000000000000000000000010000000000000001000000000000008300000001000000000000000000000000000000000000007A350000000000003E00000000000000000000000000000001000000000000000000000000000000930000000100000000000000000000000000000000000000B8350000000000001A00000000000000000000000000000001000000000000000000000000000000A30000000300007000000000000000000000000000000000D2350000000000003F02000000000000000000000000000001000000000000000000000000000000B500000001000000000000000000000000000000000000001138000000000000BF00000000000000000000000000000001000000000000000000000000000000C10000000100000030000000000000000000000000000000D0380000000000000500000000000000000000000000000001000000000000000100000000000000CA0000000200000000000000000000000000000000000000D8380000000000004800000000000000150000000200000008000000000000001800000000000000D200000003000000000000000000000000000000000000002039000000000000E400000000000000000000000000000001000000000000000000000000000000DC0000000300000000000000000000000000000000000000043A0000000000002C00000000000000000000000000000001000000000000000000000000000000"> : vector<16304xi8>, format = "embedded-elf-riscv_64", mime_type = "application/x-elf"}
  }
  util.global private @main_graph$async_dispatch_60_embedded_elf_riscv_64_main_graph$async_dispatch_60_unpack_f32_buffer : !hal.buffer
  util.initializer {
    %memory_type = hal.memory_type<"DeviceVisible|DeviceLocal"> : i32
    %buffer_usage = hal.buffer_usage<"TransferSource|TransferTarget|Transfer|DispatchStorageRead|DispatchStorageWrite|DispatchStorage"> : i32
    %c64344064 = arith.constant 64344064 : index
    %c-1_i64 = arith.constant -1 : i64
    %__device_0 = util.global.load immutable @__device_0 : !hal.device
    %allocator = hal.device.allocator<%__device_0 : !hal.device> : !hal.allocator
    %buffer = hal.allocator.allocate<%allocator : !hal.allocator> affinity(%c-1_i64) type(%memory_type) usage(%buffer_usage) : !hal.buffer{%c64344064}
    util.global.store %buffer, @main_graph$async_dispatch_60_embedded_elf_riscv_64_main_graph$async_dispatch_60_unpack_f32_buffer : !hal.buffer
    util.return
  }
  util.func public @main_graph$async_dispatch_60_embedded_elf_riscv_64_main_graph$async_dispatch_60_unpack_f32(%arg0: i32) attributes {iree.abi.stub, iree.reflection = {iree.benchmark = "dispatch"}} {
    %c-1_i32 = arith.constant -1 : i32
    %0 = util.null : !hal.fence
    %c1 = arith.constant 1 : index
    %c32172032 = arith.constant 32172032 : index
    %c0 = arith.constant 0 : index
    %c-1_i64 = arith.constant -1 : i64
    %c13 = arith.constant 13 : index
    %main_graph$async_dispatch_60_embedded_elf_riscv_64_main_graph$async_dispatch_60_unpack_f32_buffer = util.global.load immutable @main_graph$async_dispatch_60_embedded_elf_riscv_64_main_graph$async_dispatch_60_unpack_f32_buffer : !hal.buffer
    %__device_0 = util.global.load immutable @__device_0 : !hal.device
    %__device_0_executable_0_main_graph$async_dispatch_60 = util.global.load immutable @__device_0_executable_0_main_graph$async_dispatch_60 : !hal.executable
    %1 = arith.index_cast %arg0 : i32 to index
    %cmd = hal.command_buffer.create device(%__device_0 : !hal.device) mode("OneShot|AllowInlineExecution") categories(Dispatch) affinity(%c-1_i64) : !hal.command_buffer
    cf.br ^bb1(%c0 : index)
  ^bb1(%2: index):  // 2 preds: ^bb0, ^bb2
    %3 = arith.cmpi slt, %2, %1 : index
    cf.cond_br %3, ^bb2, ^bb3
  ^bb2:  // pred: ^bb1
    hal.command_buffer.dispatch<%cmd : !hal.command_buffer> target(%__device_0_executable_0_main_graph$async_dispatch_60 : !hal.executable)[%c0] workgroups([%c13, %c1, %c1]) bindings([
      (%main_graph$async_dispatch_60_embedded_elf_riscv_64_main_graph$async_dispatch_60_unpack_f32_buffer : !hal.buffer)[%c0, %c32172032], 
      (%main_graph$async_dispatch_60_embedded_elf_riscv_64_main_graph$async_dispatch_60_unpack_f32_buffer : !hal.buffer)[%c32172032, %c32172032]
    ]) flags("None")
    hal.command_buffer.execution_barrier<%cmd : !hal.command_buffer> source("Dispatch|CommandRetire") target("CommandIssue|Dispatch") flags("None")
    %4 = arith.addi %2, %c1 : index
    cf.br ^bb1(%4 : index)
  ^bb3:  // pred: ^bb1
    hal.command_buffer.finalize<%cmd : !hal.command_buffer>
    %fence = hal.fence.create device(%__device_0 : !hal.device) flags("None") : !hal.fence
    hal.device.queue.execute<%__device_0 : !hal.device> affinity(%c-1_i64) wait(%0) signal(%fence) commands(%cmd) flags("None")
    %status = hal.fence.await until([%fence]) timeout_millis(%c-1_i32) flags("None") : i32
    util.status.check_ok %status, "failed to wait on timepoint"
    util.return
  }
}
