module attributes {vm.toplevel} {
  vm.module public @module {
    vm.global.ref private mutable @__device_0 : !vm.ref<!hal.device>
    vm.rodata private @_utf8_hal_device_id_C1DCB7DBC4F49AE6 {alignment = 1 : i64} "hal.device.id"
    vm.rodata private @_utf8_local_3D3B5147158B235A {alignment = 1 : i64} "local*"
    vm.rodata private @_utf8_hal_executable_format_EAB228F999C2D3A1 {alignment = 1 : i64} "hal.executable.format"
    vm.rodata private @_utf8_embedded_elf_riscv_64_38BEAC1DD46E6154 {alignment = 1 : i64} "embedded-elf-riscv_64"
    vm.rodata private @main_graph_async_dispatch_162_embedded_elf_riscv_64 {alignment = 16 : i64, mime_type = "application/x-elf"} dense<"0x7F454C460201010000000000000000000300F30001000000000000000000000040000000000000003016000000000000050000004000380008004000160014000600000004000000400000000000000040000000000000004000000000000000C001000000000000C001000000000000080000000000000001000000040000000000000000000000000000000000000000000000000000004805000000000000480500000000000000100000000000000100000005000000480500000000000048150000000000004815000000000000CC07000000000000CC0700000000000000100000000000000100000006000000200D000000000000202D000000000000202D000000000000A001000000000000E00200000000000000100000000000000200000006000000000E000000000000002E000000000000002E000000000000C000000000000000C000000000000000080000000000000052E5746404000000200D000000000000202D000000000000202D000000000000A001000000000000E002000000000000010000000000000051E574640600000000000000000000000000000000000000000000000000000000000000000000000000000000000000000000000000000003000070040000009910000000000000000000000000000000000000000000003F020000000000003F0200000000000001000000000000000000000000000000000000000000000000000000000000000100000012000700041D000000000000100000000000000002000000020000000000000001000000000000000000000000697265655F68616C5F65786563757461626C655F6C6962726172795F7175657279000000000000282D00000000000003000000000000009003000000000000382D00000000000003000000000000004815000000000000402D0000000000000300000000000000F003000000000000502D00000000000003000000000000002B04000000000000682D0000000000000300000000000000D004000000000000702D0000000000000300000000000000D004000000000000802D0000000000000300000000000000202D000000000000A02D0000000000000300000000000000382D000000000000A82D0000000000000300000000000000B003000000000000C02D0000000000000300000000000000402D000000000000D82D0000000000000300000000000000482D000000000000E02D0000000000000300000000000000602D0000000000006D61696E5F6772617068246173796E635F64697370617463685F313632000000000000000000000000000103010000000100000001000000000000000000000000000000000000000000000000000000000000000000000000000000000000006D61696E5F6772617068246173796E635F64697370617463685F3136325F6D61746D756C5F6C696B655F3130323478377837783235365F663332002F73637261746368322F6D65726C696E2F73616D706C65732F636F72655F70696E6E696E675F73696E676C655F776F726B6C6F61642F6D6F64656C732F676C7064657074682F6D6F64656C732F62656E63686D61726B732F6D6F64756C655F6D61696E5F6772617068246173796E635F64697370617463685F3136325F656D6265646465645F656C665F72697363765F36345F62656E63686D61726B2E6D6C6972000000001000000000000000017A5200017801011B0C020048000000180000005C100000BC07000000440E90045E810188028903920493059406950796089709980A990B9A0C9B0D420C08000374070C0290045EC1C8C9D2D3D4D5D6D7D8D9DADB440E001000000064000000CC170000100000000000000000000000130101DF2334112023308120A6FFCAFBCEF7D2F3D6EFDAEBDEE7E2E366FF6AFB6EF7000C233004EC886D8C7137570A0037580F0083600600B7140B0003650500946190658C691307076093820460938804209397800036972338E4F87199C295233CB4EA3E96B692233454F832952334A4ECB698233014F9138504E03695233CA4F637050B00938504A013060560B6952338B4F636962334C4F693050520130605E0B6952330B4F63696233CC4F4130505A0B7F50A0036952338A4F41385056036952334A4F41385052036952330A4F4138505E03695233CA4F237E50A00938505A013060560B6952338B4F236962334C4F293050520130605E0B6952330B4F23696233CC4F0130505A0B7D50A0036952338A4F01385056036952334A4F01385052036952330A4F0138505E03695233CA4EE37C50A00938505A013060560B6952338B4EE36962334C4EE93050520130605E0B6952330B4EE3696233CC4EC130505A0B7B50A0036952338A4EC93880560B698233814EB93820520B692233454EA138305E03693233064EA37A50A00938305A0130E0560B693233C74E8369E2338C4E9930E0520130F05E0B69E2334D4E9369F2330E4E9930F05A037950A00B69F233CF4E7130905603699233824E793090520B699233434E7130A05E0369A233044E7B7850A00930A05A0138B0560B69A233C54E5369B233864E5938B0520138C05E0B69B233474E5369C233084E5938C05A037750A00B69C233C94E3130D0560369D2338A4E3930D0520B69D2334B4E3130805E03698233004E3130705A03697233CE4E0B7650A00138505609384052036952338A4E0B694233494E0138605E0938705A057F003CD5734005ED30700F036962330C4E0033684ECBE96233CD4DE9A00233814DE833204EB033384EA833304EA033E84E9833E04E9033F84E8833F04E8033984E7833904E7033A84E6833A04E6033B84E5833B04E5033C84E4833C04E4033D84E3833D04E3033884E2833804E2833404E1833584E0833604E081402334C4EC5737809ED737809E5736809ED736809E5735809ED735809ED734809E033584E1033784DF833704F9869757F070CD07E80702B307170007E90702B387140087E80702B307150087E90702B3871800577071C9D7B8303B57F070CD87E90702B387160057F071C9D738313B57F070CD87E90702B3871500577071C957B8203B57F070CD07E90702B307180057F071C95738313B57F070CD87E90702B3871D0007270600577072CD57B8213B57F070CD07E90702B3071C0057F003CD5738123B57F070CD87E80702B3871B0057F003CD575707B357F070CD07E80702B3071B00577071C9D7B8003B57F070CD07E80702B3071D0057F071C9D738013B57F070CD07E80702B3871C00577071C9D7B9203B57F070CD07E90702B3871A0057F071C9D739013B57F070CD07E80702B3071A00577072CDD7B9213B57F070CD07E90702B3871F0057F003CDD739123B57F070CD87E80702B3071F0057F003CDD75737B357F070CD87E90702B3871E00577071C9D7B8303B57F070CD87E90702B387190057F071C9D738313B57F070CD87E90702B3071900577071C957B8203B57F070CD07E90702B3071E0057F071C95738313B57F070CD87E90702B3871300577072CD57B8213B57F070CD07E90702833704ED869757F003CD5738123B57F070CD87E80702833784ED869757F003CD575607B357F070CD07E80702833704EE8697577071C9D7B8003B57F070CD07E80702B307130057F071C9D738013B57F070CD07E80702B3871200577071C9D7B9203B57F070CD07E90702833784EE869757F071C9D739013B57F070CD07E80702833704EF8697577072CDD7B9213B57F070CD07E90702833784F0869757F003CDD739123B57F070CD87E80702833704F1869757F003CDD75637B357F070CD87E90702833784F18697577071C9D7B8303B57F070CD87E90702833784EF869757F071C9D738313B57F070CD87E90702833704F08697577071C957B8203B57F070CD07E90702833704F2869757F071C95738313B57F070CD87E90702833784F28697577072CD57B8213B57F070CD07E90702833704F4869757F003CD5738123B57F070CD87E80702833784F4869757F003CD575507B357F070CD07E80702833704F58697577071C9D7B8003B57F070CD07E80702833704F3869757F071C9D738013B57F070CD07E80702833784F38697577071C9D7B9203B57F070CD07E90702833784F5869757F071C9D739013B57F070CD07E80702833784F78697577072CDD7B9213B57F070CD07E90702833704F8869757F003CDD739123B57F070CD87E80702833784F88697577071C957B9103B57F070CD87E80702833704F6869757F071C95739113B57F070CD87E80702833784F68697577071C957B8103B57F070CD87E80702833704F7869757F071C95738113B57F070CD87E8070257F003CDD75537B3577072CD57B8113B57F003CD5738223B9100D75407B385673E9693070040E39EF0BE033704EC033604DF3A963366C62057D7E702D7D7F7023366C62057D6C702D7D6D702833784EB3346F62057D5A702D7D5B7029307860227E707029307C604A7E707029307060727E6070293074609A7E607029307860B27E507029307C60DD7D49702A7E50702130606100507A7640602033684EC11062330E4EC13050004E318A7B40145130104DF8330812003340120FE745E79BE791E7AFE6A5E6BBE6B1E6CFA7C5A7DBA7D1301012182809715000069359385C50733F5A50E82800000000000000000000000000600000000000000000000000000000000000000000000000000000000000000000000000000000005000000A100000000000000000000000000000000000000000000000000000000000000000000000000000000000000000000000000000000000000000000000000000000000000000000000000000001000000000000000000000000000000000000000000000000000000000000000000000000000000000000000000000000000000000000000000000000000000000000000000000000000000000000000000000000000000000000000000000000000000000000001E000000000000000800000000000000FBFFFF6F000000000100000000000000070000000000000070020000000000000800000000000000200100000000000009000000000000001800000000000000F9FFFF6F000000000C00000000000000060000000000000000020000000000000B000000000000001800000000000000050000000000000048020000000000000A0000000000000023000000000000000400000000000000300200000000000000000000000000000000000000000000011101250E1305030E10171B0EB44219110112060000022E001101120640186E0E030E3A0B3B0B49133F190000032400030E3E0B0B0B0000004B0000000400000000000801E10000002C003F00000000000000890000004815000000000000BC070000024815000000000000BC07000001580000000000000000010147000000033B0000000504006D61696E5F6772617068246173796E635F64697370617463685F3136325F6D61746D756C5F6C696B655F3130323478377837783235365F66333200696E74006D6F64756C655F6D61696E5F6772617068246173796E635F64697370617463685F3136325F656D6265646465645F656C665F72697363765F36345F62656E63686D61726B2E6D6C6972002F73637261746368322F6D65726C696E2F73616D706C65732F636F72655F70696E6E696E675F73696E676C655F776F726B6C6F61642F6D6F64656C732F676C7064657074682F6D6F64656C732F62656E63686D61726B730049524545004D0000000200000000004F0000002A0000006D61696E5F6772617068246173796E635F64697370617463685F3136325F6D61746D756C5F6C696B655F3130323478377837783235365F6633320000000000160000000200000000004F00000047000000696E740000000000413E020000726973637600013402000004100572763634693270315F6D3270305F613270315F663270325F643270325F633270305F623170305F763170305F7A69633634623170305F7A6963626F6D3170305F7A6963626F703170305F7A6963626F7A3170305F7A696363616D6F613170305F7A69636369663170305F7A6963636C736D3170305F7A6963637273653170305F7A69636E74723270305F7A69636F6E643170305F7A696373723270305F7A6966656E6365693270305F7A6968696E7470617573653270305F7A6968706D3270305F7A6D6D756C3170305F7A61363472733170305F7A61616D6F3170305F7A616C7273633170305F7A66683170305F7A66686D696E3170305F7A63613170305F7A63643170305F7A62613170305F7A62623170305F7A62633170305F7A626B633170305F7A62733170305F7A6B743170305F7A76653332663170305F7A76653332783170305F7A76653634643170305F7A76653634663170305F7A76653634783170305F7A7666683170305F7A7666686D696E3170305F7A766B743170305F7A766C313238623170305F7A766C323536623170305F7A766C3332623170305F7A766C3634623170305F737363637074723170305F7373636F66706D663170305F7373636F756E746572656E773170305F737374633170305F73737476616C613170305F737374766563643170305F73766164653170305F7376626172653170305F7376696E76616C3170305F73766E61706F743170305F737670626D743170305F78736D7476646F7431703000F7010000040061000000010101FB0E0D000101010100000001000001006D6F64756C655F6D61696E5F6772617068246173796E635F64697370617463685F3136325F656D6265646465645F656C665F72697363765F36345F62656E63686D61726B2E6D6C6972000000000000090248150000000000000105100A030D0228010511030ABA05100379BA2F2F0511DB051003794A672F6505113406036802F80401060318022E01051302261505117F0513BD05117F0513BD05117F0513BD05117F0513BD0511B70513BD05117F0513BD05117F0513BD05117F0513BD05117F0513BD05117F0513BD05117F0513BD05117F0513BD05117F0513BD05117F0513BD05117F0513BD05117F0513BD05117F0513BD05117F0513BD05117F0513D905117F0513D905117F0513D905117F0513BD05117F0513BD05117F0513D905117F0513D905117F0513D905117F0513D905117F0513D905117F0513D905117F0513D905117F0513D905117F0513D905117F0513D905117F0513D905117F0513D905117F0513D905117F0513D905117F0513D905117F0513D905117F0513D905117F0513D905117F0513D905117F0513D905117F0513D905117F05138505110871051331051147060368BA0318820513066E051103788205135205110378BA05135205110378820513022C1A051103784A050B030C08E4060B2E022800010149524545000000000000000000000000000000000000000000000000002300000000020900002E00000000000000000000000000000100000012000700041D0000000000001000000000000000002E64796E73796D002E68617368002E64796E737472002E72656C612E64796E002E726F64617461002E65685F6672616D65002E74657874002E646174612E72656C2E726F002E64796E616D6963002E72656C726F5F70616464696E67002E64656275675F616262726576002E64656275675F696E666F002E64656275675F737472002E64656275675F7075626E616D6573002E64656275675F7075627479706573002E72697363762E61747472696275746573002E64656275675F6C696E65002E636F6D6D656E74002E73796D746162002E7368737472746162002E7374727461620000697265655F68616C5F65786563757461626C655F6C6962726172795F7175657279005F44594E414D49430000000000000000000000000000000000000000000000000000000000000000000000000000000000000000000000000000000000000000000000000000000000010000000B0000000200000000000000000200000000000000020000000000003000000000000000030000000100000008000000000000001800000000000000090000000500000002000000000000003002000000000000300200000000000018000000000000000100000000000000040000000000000004000000000000000F000000030000000200000000000000480200000000000048020000000000002300000000000000000000000000000001000000000000000000000000000000170000000400000002000000000000007002000000000000700200000000000020010000000000000100000000000000080000000000000018000000000000002100000001000000020000000000000090030000000000009003000000000000400100000000000000000000000000001000000000000000000000000000000029000000010000000200000000000000D004000000000000D00400000000000078000000000000000000000000000000080000000000000000000000000000003300000001000000060000000000000048150000000000004805000000000000CC0700000000000000000000000000000200000000000000000000000000000039000000010000000300000000000000202D000000000000200D000000000000E00000000000000000000000000000001000000000000000000000000000000046000000060000000300000000000000002E000000000000000E000000000000C0000000000000000300000000000000080000000000000010000000000000004F000000080000000300000000000000C02E000000000000C00E00000000000040010000000000000000000000000000010000000000000000000000000000005E0000000100000000000000000000000000000000000000C00E00000000000039000000000000000000000000000000010000000000000000000000000000006C0000000100000000000000000000000000000000000000F90E0000000000004F00000000000000000000000000000001000000000000000000000000000000780000000100000030000000000000000000000000000000480F000000000000E6000000000000000000000000000000010000000000000001000000000000008300000001000000000000000000000000000000000000002E1000000000000051000000000000000000000000000000010000000000000000000000000000009300000001000000000000000000000000000000000000007F100000000000001A00000000000000000000000000000001000000000000000000000000000000A3000000030000700000000000000000000000000000000099100000000000003F02000000000000000000000000000001000000000000000000000000000000B50000000100000000000000000000000000000000000000D812000000000000FB01000000000000000000000000000001000000000000000000000000000000C10000000100000030000000000000000000000000000000D3140000000000000500000000000000000000000000000001000000000000000100000000000000CA0000000200000000000000000000000000000000000000D8140000000000004800000000000000150000000200000008000000000000001800000000000000D200000003000000000000000000000000000000000000002015000000000000E400000000000000000000000000000001000000000000000000000000000000DC000000030000000000000000000000000000000000000004160000000000002C00000000000000000000000000000001000000000000000000000000000000"> : vector<7088xi8>
    vm.global.ref private mutable @__device_0_executable_0_main_graph$async_dispatch_162 : !vm.ref<!hal.executable>
    vm.global.ref private mutable @main_graph$async_dispatch_162_embedded_elf_riscv_64_main_graph$async_dispatch_162_matmul_like_1024x7x7x256_f32_buffer : !vm.ref<!hal.buffer>
    vm.import private @hal.allocator.allocate(%allocator : !vm.ref<!hal.allocator>, %queue_affinity : i64, %memory_types : i32, %buffer_usage : i32, %allocation_size : i64) -> !vm.ref<!hal.buffer>
    vm.import private @hal.command_buffer.create(%device : !vm.ref<!hal.device>, %modes : i32, %command_categories : i32, %queue_affinity : i64, %binding_capacity : i32) -> !vm.ref<!hal.command_buffer> attributes {minimum_version = 6 : i32}
    vm.import private @hal.command_buffer.finalize(%command_buffer : !vm.ref<!hal.command_buffer>)
    vm.import private @hal.command_buffer.execution_barrier(%command_buffer : !vm.ref<!hal.command_buffer>, %source_stage_mask : i32, %target_stage_mask : i32, %flags : i64)
    vm.import private @hal.command_buffer.dispatch(%command_buffer : !vm.ref<!hal.command_buffer>, %executable : !vm.ref<!hal.executable>, %entry_point : i32, %workgroup_x : i32, %workgroup_y : i32, %workgroup_z : i32, %flags : i64, %constants : i32 ..., %bindings : tuple<i32, i32, !vm.ref<!hal.buffer>, i64, i64> ...)
    vm.import private @hal.device.allocator(%device : !vm.ref<!hal.device>) -> !vm.ref<!hal.allocator> attributes {nosideeffects}
    vm.import private @hal.device.query.i64(%device : !vm.ref<!hal.device>, %category : !vm.buffer, %key : !vm.buffer) -> (i32, i64) attributes {nosideeffects}
    vm.import private @hal.device.queue.execute(%device : !vm.ref<!hal.device>, %queue_affinity : i64, %wait_fence : !vm.ref<!hal.fence>, %signal_fence : !vm.ref<!hal.fence>, %command_buffer : !vm.ref<!hal.command_buffer>, %flags : i64)
    vm.import private @hal.devices.count() -> i32 attributes {nosideeffects}
    vm.import private @hal.devices.get(%index : i32) -> !vm.ref<!hal.device> attributes {nosideeffects}
    vm.import private @hal.executable.create(%device : !vm.ref<!hal.device>, %queue_affinity : i64, %executable_format : !vm.buffer, %executable_data : !vm.buffer, %constants : !vm.buffer) -> !vm.ref<!hal.executable> attributes {nosideeffects}
    vm.import private @hal.fence.create(%device : !vm.ref<!hal.device>, %flags : i64) -> !vm.ref<!hal.fence>
    vm.import private @hal.fence.await(%timeout_millis : i32, %flags : i64, %fences : !vm.ref<!hal.fence> ...) -> i32 attributes {vm.yield}
    vm.func private @main_graph$async_dispatch_162_embedded_elf_riscv_64_main_graph$async_dispatch_162_matmul_like_1024x7x7x256_f32(%arg0: i32) attributes {iree.reflection = {iree.benchmark = "dispatch"}} {
      %c5 = vm.const.i32 5
      %c20 = vm.const.i32 20
      %c1 = vm.const.i32 1
      %c16 = vm.const.i32 16
      %zero = vm.const.i32.zero
      %c2 = vm.const.i32 2
      %c17 = vm.const.i32 17
      %c-1 = vm.const.i64 -1
      %c5424896 = vm.const.i32 5424896
      %zero_0 = vm.const.i64.zero
      %c32172032 = vm.const.i64 32172032
      %c14611584 = vm.const.i64 14611584
      %c46783744 = vm.const.i64 46783744
      %c1_1 = vm.const.i64 1
      %null = vm.const.ref.zero : !vm.ref<!hal.fence>
      %c-1_2 = vm.const.i32 -1
      %main_graph$async_dispatch_162_embedded_elf_riscv_64_main_graph$async_dispatch_162_matmul_like_1024x7x7x256_f32_buffer = vm.global.load.ref @main_graph$async_dispatch_162_embedded_elf_riscv_64_main_graph$async_dispatch_162_matmul_like_1024x7x7x256_f32_buffer : !vm.ref<!hal.buffer>
      %__device_0 = vm.global.load.ref @__device_0 : !vm.ref<!hal.device>
      %__device_0_executable_0_main_graph$async_dispatch_162 = vm.global.load.ref @__device_0_executable_0_main_graph$async_dispatch_162 : !vm.ref<!hal.executable>
      %0 = vm.ext.i32.i64.s %arg0 : i32 -> i64
      %ref = vm.call @hal.command_buffer.create(%__device_0, %c17, %c2, %c-1, %zero) : (!vm.ref<!hal.device>, i32, i32, i64, i32) -> !vm.ref<!hal.command_buffer>
      vm.br ^bb1(%zero_0 : i64)
    ^bb1(%1: i64):  // 2 preds: ^bb0, ^bb2
      %slt = vm.cmp.lt.i64.s %1, %0 : i64
      vm.cond_br %slt, ^bb2, ^bb3
    ^bb2:  // pred: ^bb1
      vm.call.variadic @hal.command_buffer.dispatch(%ref, %__device_0_executable_0_main_graph$async_dispatch_162, %zero, %c16, %c1, %c1, %zero_0, [%c5424896], [(%zero, %zero, %main_graph$async_dispatch_162_embedded_elf_riscv_64_main_graph$async_dispatch_162_matmul_like_1024x7x7x256_f32_buffer, %zero_0, %c32172032), (%zero, %zero, %main_graph$async_dispatch_162_embedded_elf_riscv_64_main_graph$async_dispatch_162_matmul_like_1024x7x7x256_f32_buffer, %c32172032, %c14611584), (%zero, %zero, %main_graph$async_dispatch_162_embedded_elf_riscv_64_main_graph$async_dispatch_162_matmul_like_1024x7x7x256_f32_buffer, %c46783744, %c32172032)]) : (!vm.ref<!hal.command_buffer>, !vm.ref<!hal.executable>, i32, i32, i32, i32, i64, i32 ..., tuple<i32, i32, !vm.ref<!hal.buffer>, i64, i64> ...)
      vm.call @hal.command_buffer.execution_barrier(%ref, %c20, %c5, %zero_0) : (!vm.ref<!hal.command_buffer>, i32, i32, i64) -> ()
      %2 = vm.add.i64 %1, %c1_1 : i64
      vm.br ^bb1(%2 : i64)
    ^bb3:  // pred: ^bb1
      vm.call @hal.command_buffer.finalize(%ref) : (!vm.ref<!hal.command_buffer>) -> ()
      %ref_3 = vm.call @hal.fence.create(%__device_0, %zero_0) : (!vm.ref<!hal.device>, i64) -> !vm.ref<!hal.fence>
      vm.call @hal.device.queue.execute(%__device_0, %c-1, %null, %ref_3, %ref, %zero_0) : (!vm.ref<!hal.device>, i64, !vm.ref<!hal.fence>, !vm.ref<!hal.fence>, !vm.ref<!hal.command_buffer>, i64) -> ()
      %3 = vm.call.variadic @hal.fence.await(%c-1_2, %zero_0, [%ref_3]) : (i32, i64, !vm.ref<!hal.fence> ...) -> i32
      vm.cond_br %3, ^bb5, ^bb4
    ^bb4:  // pred: ^bb3
      vm.return
    ^bb5:  // pred: ^bb3
      vm.fail %3, "failed to wait on timepoint"
    }
    vm.export @main_graph$async_dispatch_162_embedded_elf_riscv_64_main_graph$async_dispatch_162_matmul_like_1024x7x7x256_f32 attributes {iree.abi.stub, iree.reflection = {iree.benchmark = "dispatch"}}
    vm.export @__init
    vm.func private @__init() {
      %c1 = vm.const.i32 1
      %null = vm.const.ref.zero : !vm.buffer
      %c78955776 = vm.const.i64 78955776
      %c3075 = vm.const.i32 3075
      %c48 = vm.const.i32 48
      %c-1 = vm.const.i64 -1
      %c14 = vm.const.i32 14
      %c18 = vm.const.i32 18
      %zero = vm.const.i32.zero
      %zero_0 = vm.const.i64.zero
      %c1_1 = vm.const.i64 1
      %null_2 = vm.const.ref.zero : !vm.ref<!hal.device>
      %0 = vm.call @hal.devices.count() {nosideeffects} : () -> i32
      %1 = vm.ext.i32.i64.s %0 : i32 -> i64
      vm.br ^bb1(%zero_0, %zero_0, %null_2 : i64, i64, !vm.ref<!hal.device>)
    ^bb1(%2: i64, %3: i64, %4: !vm.ref<!hal.device>):  // 2 preds: ^bb0, ^bb4
      %rnz = vm.cmp.nz.ref %4 : !vm.ref<!hal.device>
      %5 = vm.xor.i32 %rnz, %c1 : i32
      %slt = vm.cmp.lt.i64.s %2, %1 : i64
      %6 = vm.and.i32 %5, %slt : i32
      vm.cond_br %6, ^bb2, ^bb5
    ^bb2:  // pred: ^bb1
      %7 = vm.trunc.i64.i32 %2 : i64 -> i32
      %ref = vm.call @hal.devices.get(%7) {nosideeffects} : (i32) -> !vm.ref<!hal.device>
      %_utf8_hal_device_id_C1DCB7DBC4F49AE6 = vm.const.ref.rodata @_utf8_hal_device_id_C1DCB7DBC4F49AE6 : !vm.buffer
      %_utf8_local_3D3B5147158B235A = vm.const.ref.rodata @_utf8_local_3D3B5147158B235A : !vm.buffer
      %8:2 = vm.call @hal.device.query.i64(%ref, %_utf8_hal_device_id_C1DCB7DBC4F49AE6, %_utf8_local_3D3B5147158B235A) {nosideeffects} : (!vm.ref<!hal.device>, !vm.buffer, !vm.buffer) -> (i32, i64)
      %nz = vm.cmp.nz.i64 %8#1 : i64
      %9 = vm.select.i32 %8#0, %nz, %zero : i32
      vm.cond_br %9, ^bb3, ^bb4(%zero : i32)
    ^bb3:  // pred: ^bb2
      %_utf8_hal_executable_format_EAB228F999C2D3A1 = vm.const.ref.rodata @_utf8_hal_executable_format_EAB228F999C2D3A1 : !vm.buffer
      %_utf8_embedded_elf_riscv_64_38BEAC1DD46E6154 = vm.const.ref.rodata @_utf8_embedded_elf_riscv_64_38BEAC1DD46E6154 : !vm.buffer
      %10:2 = vm.call @hal.device.query.i64(%ref, %_utf8_hal_executable_format_EAB228F999C2D3A1, %_utf8_embedded_elf_riscv_64_38BEAC1DD46E6154) {nosideeffects} : (!vm.ref<!hal.device>, !vm.buffer, !vm.buffer) -> (i32, i64)
      %nz_3 = vm.cmp.nz.i64 %10#1 : i64
      %11 = vm.select.i32 %10#0, %nz_3, %zero : i32
      vm.br ^bb4(%11 : i32)
    ^bb4(%12: i32):  // 2 preds: ^bb2, ^bb3
      %eq = vm.cmp.eq.i64 %3, %zero_0 : i64
      %13 = vm.select.i64 %12, %c1_1, %zero_0 : i64
      %14 = vm.add.i64 %3, %13 : i64
      %15 = vm.and.i32 %12, %eq : i32
      %ref_4 = vm.select.ref %15, %ref, %null_2 : !vm.ref<!hal.device>
      %16 = vm.add.i64 %2, %c1_1 : i64
      vm.br ^bb1(%16, %14, %ref_4 : i64, i64, !vm.ref<!hal.device>)
    ^bb5:  // pred: ^bb1
      vm.cond_br %5, ^bb6, ^bb7
    ^bb6:  // pred: ^bb5
      vm.fail %c18, "HAL device `__device_0` not found or unavailable: #hal.device.target<\22local\22, [#hal.executable.target<\22llvm-cpu\22, \22embedded-elf-riscv_64\22, {cpu = \22spacemit-x60\22, cpu_features = \22+m,+a,+f,+d,+c,+v,+zvl256b,+zba,+zbb,+zbc,+zbs,+zicbom,+zicboz,+zicbop,+zihintpause\22, data_layout = \22e-m:e-p:64:64-i64:64-i128:128-n32:64-S128\22, iree.encoding.resolver = #iree_cpu.cpu_encoding_resolver<>, loop_vectorization = true, max_stack_allocation_size = 32768 : i64, native_vector_size = 32 : i64, target_abi = \22lp64d\22, target_triple = \22riscv64-unknown-unknown-eabi-elf\22}>]>"
    ^bb7:  // pred: ^bb5
      %_utf8_hal_executable_format_EAB228F999C2D3A1_5 = vm.const.ref.rodata @_utf8_hal_executable_format_EAB228F999C2D3A1 : !vm.buffer
      %_utf8_embedded_elf_riscv_64_38BEAC1DD46E6154_6 = vm.const.ref.rodata @_utf8_embedded_elf_riscv_64_38BEAC1DD46E6154 : !vm.buffer
      %17:2 = vm.call @hal.device.query.i64(%4, %_utf8_hal_executable_format_EAB228F999C2D3A1_5, %_utf8_embedded_elf_riscv_64_38BEAC1DD46E6154_6) {nosideeffects} : (!vm.ref<!hal.device>, !vm.buffer, !vm.buffer) -> (i32, i64)
      %nz_7 = vm.cmp.nz.i64 %17#1 : i64
      %18 = vm.select.i32 %17#0, %nz_7, %zero : i32
      %19 = vm.select.i64 %18, %zero_0, %c-1 : i64
      %eq_8 = vm.cmp.eq.i64 %19, %zero_0 : i64
      vm.global.store.ref %4, @__device_0 : !vm.ref<!hal.device>
      vm.cond_br %eq_8, ^bb8, ^bb9
    ^bb8:  // pred: ^bb7
      %main_graph_async_dispatch_162_embedded_elf_riscv_64 = vm.const.ref.rodata @main_graph_async_dispatch_162_embedded_elf_riscv_64 : !vm.buffer
      %ref_9 = vm.call @hal.executable.create(%4, %c-1, %_utf8_embedded_elf_riscv_64_38BEAC1DD46E6154_6, %main_graph_async_dispatch_162_embedded_elf_riscv_64, %null) {nosideeffects} : (!vm.ref<!hal.device>, i64, !vm.buffer, !vm.buffer, !vm.buffer) -> !vm.ref<!hal.executable>
      %__device_0 = vm.global.load.ref @__device_0 : !vm.ref<!hal.device>
      %ref_10 = vm.call @hal.device.allocator(%__device_0) {nosideeffects} : (!vm.ref<!hal.device>) -> !vm.ref<!hal.allocator>
      %ref_11 = vm.call @hal.allocator.allocate(%ref_10, %c-1, %c48, %c3075, %c78955776) : (!vm.ref<!hal.allocator>, i64, i32, i32, i64) -> !vm.ref<!hal.buffer>
      vm.global.store.ref %ref_9, @__device_0_executable_0_main_graph$async_dispatch_162 : !vm.ref<!hal.executable>
      vm.global.store.ref %ref_11, @main_graph$async_dispatch_162_embedded_elf_riscv_64_main_graph$async_dispatch_162_matmul_like_1024x7x7x256_f32_buffer : !vm.ref<!hal.buffer>
      vm.return
    ^bb9:  // pred: ^bb7
      vm.fail %c14, "HAL device `__device_0` does not support any variant of executable `main_graph$async_dispatch_162`; available formats: [embedded-elf-riscv_64]"
    }
  }
}
