module attributes {vm.toplevel} {
  vm.module public @module {
    vm.global.ref private mutable @__device_0 : !vm.ref<!hal.device>
    vm.rodata private @_utf8_hal_device_id_C1DCB7DBC4F49AE6 {alignment = 1 : i64} "hal.device.id"
    vm.rodata private @_utf8_local_3D3B5147158B235A {alignment = 1 : i64} "local*"
    vm.rodata private @_utf8_hal_executable_format_EAB228F999C2D3A1 {alignment = 1 : i64} "hal.executable.format"
    vm.rodata private @_utf8_embedded_elf_riscv_64_38BEAC1DD46E6154 {alignment = 1 : i64} "embedded-elf-riscv_64"
    vm.rodata private @main_graph_async_dispatch_190_embedded_elf_riscv_64 {alignment = 16 : i64, mime_type = "application/x-elf"} dense<"0x7F454C460201010000000000000000000300F3000100000000000000000000004000000000000000702F000000000000050000004000380008004000160014000600000004000000400000000000000040000000000000004000000000000000C001000000000000C001000000000000080000000000000001000000040000000000000000000000000000000000000000000000000000007806000000000000780600000000000000100000000000000100000005000000780600000000000078160000000000007816000000000000EA1F000000000000EA1F00000000000000100000000000000100000006000000702600000000000070460000000000007046000000000000A001000000000000900900000000000000100000000000000200000006000000502700000000000050470000000000005047000000000000C000000000000000C000000000000000080000000000000052E5746404000000702600000000000070460000000000007046000000000000A0010000000000009009000000000000010000000000000051E57464060000000000000000000000000000000000000000000000000000000000000000000000000000000000000000000000000000000300007004000000E529000000000000000000000000000000000000000000003F020000000000003F02000000000000010000000000000000000000000000000000000000000000000000000000000001000000120007005236000000000000100000000000000002000000020000000000000001000000000000000000000000697265655F68616C5F65786563757461626C655F6C6962726172795F717565727900000000000078460000000000000300000000000000C004000000000000884600000000000003000000000000007816000000000000904600000000000003000000000000002005000000000000A04600000000000003000000000000005905000000000000B84600000000000003000000000000000006000000000000C04600000000000003000000000000000006000000000000D04600000000000003000000000000007046000000000000F04600000000000003000000000000008846000000000000F8460000000000000300000000000000E00400000000000010470000000000000300000000000000904600000000000028470000000000000300000000000000984600000000000030470000000000000300000000000000B046000000000000000000000000000000000000000000000000000000000000000000000000000000000000000000000000000000000000395E99BDACDB48BD01C9863D56A713BDA1C488BD79374ABD107B07BD1AE51DBD25469B3A2CAF04BCBD9B9ABC851D60BC1A3ACA3C90FA0E3D3350803C92CE8DBDF9737F3D542C64BBC48E143DD1F325BC45C4603DBF698EBDF7899A3D94F4C43CA4520FBDA048A13D45BD1DBDC1F05C3D8BFC6CBD1ACE213DB58D44BDA041243DFEC7C7BC0759A9BC3B877ABDC10065BC3E2270BDBB7839BCABCA773D5629693D86CB7B3D1DCC693D484B6E3DAFEE4E3DB62E973D9715A23C3F0B8EBC407F9ABDFD803CBD13EE573C71A34EBD4C512FBC0A084FBD43651F3D82B251BBC45355BD318C95BDD88D86BD486BC8BC645B483DC40841BD8C0A703D8030373D47B587BD6D61696E5F6772617068246173796E635F64697370617463685F313930000000000000000000000000000003010000000100000001000000000000000000000000000000000000000000000000000000000000000000000000000000000000006D61696E5F6772617068246173796E635F64697370617463685F3139305F6D61746D756C5F6C696B655F363478313936783136305F663332002F73637261746368322F6D65726C696E2F73616D706C65732F636F72655F70696E6E696E675F73696E676C655F776F726B6C6F61642F6D6F64656C732F676C7064657074682F6D6F64656C732F62656E63686D61726B732F6D6F64756C655F6D61696E5F6772617068246173796E635F64697370617463685F3139305F656D6265646465645F656C665F72697363765F36345F62656E63686D61726B2E6D6C69720000000000001000000000000000017A5200017801011B0C020048000000180000005C100000DA1F000000440EC00468810188029203930494059506960797089809990A9A0B9B0C420C0800037E1F0C02C00468C1C8D2D3D4D5D6D7D8D9DADB440E000000001000000064000000EA2F0000100000000000000000000000130101DC233C1122233881222334212323303123233C4121233851212334612123307121E2FFE6FBEAF7EEF38004732520C29306C0023305D5023301A140137101FC814C8C71B758D200B70609008367060013071003938D08E0938208B8138E06F0886503B30500946993F337001396270032F8937506FF3387E3021386150032F1AA9296E0F2961386250032ED1386350032E989831386450032E5B3C7F7201386550032E12EF59905AEFC3AFE36FD3346D7209395B700AAE8AA959306400CEEECAE9D1EFCB386D3021305060CAAF8938B0DD8138D0D2813870D501385085837260600AA951306C603138C05289AE41A963385C60097F6FFFF13860550938626C536F9AAF413054508AAF09308000293020004414393030008130E0010930E0020130F0040856F09699169216A9300002881472A7533E8AC008A7AE69A56F64A753345A8202AF26A6B669B4A6566952AFA930A0031B3065803B6F957F003CD1275076505023275B3065503B6FD577018CD5734A032732520C2B9463305D5020A951305051E2704852257B4A032732520C20A053325A5200A951305051E270485225734A132732520C206053345A5200A951305051E27048522B3065B03B6F557B4A132732520C2336525201305051E27048522AA66E6965275330B550333855603AAF10A686698E676E6EDE69633085803B38C56035734A232732520C206053325A5200A951305051E2704852257B4A232732520C2334525201305051E270485225734A09E8813270485225734A332732520C2332525201305051E27048522EA764E7536952AFA6E7536952AF62E7536952AF2DAE9369B5AEE8E7AB69A56EAC2E1369842E6E6E5E69636E22678814CBE8A428B5770100D5731005E573F005E5737005E5733005E5732005E573B005E573A005E57F0E0CC5734015ED734045E5739015E573D045E577004CD5735E33F5730809E577001C557B5E23C732520C216050A951305051E27058502577004C55735623E5730909E57B5413C57E60842D730613F5700065ED7B0403DD7B5E33F5730809E577001C5D735E33C732520C2E9463305D5020A951305051EA7058502577004C5D7B5623E5730909ED735423C57B4613F5730C09E5734413D57EC024257000C5E57B4203C732520C29306A0023305D5020A951305051E27048522577018C55734E43F5730209F57B4E33C5738633E5730A09F57B8423C577001C95708045E577018C55734623F57EE08425730C09F57B4413D577014CD5736243E57F003C95734C33A577002C95704085E732520C2930660023305D5020A951305051E27048522577018C557B4E43F5730209F5734E43C57B8633E5730A09F5738433C577001C95708045E577018C557B4623F5730C09F5734423D5730809F577004C557B4C238577002C95704085E732520C20E053345A5200A951305051E27048522577018C55734E53F5730209F57B4E43C5738643E5730A09F57B8433C577001C95708045E577018C55734633F5730C09F57B4423D5730809F577004C55734C238577002C95704085E732520C2930620023305D5020A951305051E27048522577018C557B4E53F5730209F5734E53C57B8643E5730A09F5738443C577001C95708045E577018C557B4633F5730C09F5734433D5730809F577004C557B4C138577002C95704085E732520C2F9463305D5020A951305051E27048522577018C55734E63FD736209F5730209F57B4E53C5739653E5730A09F57B9443C577001C95709045E577018C55734643FD738C09F5730C09F57B4433D5730809F577004C55734C138577002C95704095E732520C2F1463305D5020A951305051E27048522577018C557B4E63F5730D09E5734E63C57BE653E5730A09F573E453C577001C9570E045E577018C557B4643F5730109F5734443D5730809F577004C557B4C038577002C957040E5E732520C20A053345A5200A951305051E27048522577018C55734E73F5730D09E57B4E63C573E663E5730A09F57BE453C577001C9570E045E577018C55734653F5730109F57B4443D577082CD57B0035E5704C45C577002C957040E5E732520C20A053365A5200A951305051E27048522577018C557B4E73F5730D09E5734E73C57BE663E5730A09FD739A09F573E463C577001C9570E045E577018C557BD653F5730109FD736109F573D453D5730809F577004C557BDC03C577002C9570D0E5E5734E13E577001CDD734E13357700009D7B4803A5730609E5780045E57B4E13E577004CDD7B4E133577001C9D7B4803A57B4613E57F001C9D734813A5738409E5788045E5734E23E577004CDD734E233577001C9D7B4803A5734623E57F001C9D734813A5734423E577002C9D7B4813A5739609F5789045E57B4E23E577004CDD7B4E233577001C9D7B4803A57B4623E57F001C9D734813A57B4423E577002C9D7B4813A57B4623F57F002C9D734823A573C409F578C045E732520C216050A951305051E07048502577001C95705045E577002C9D700055E5735209E577003C95785005E732520C2E9463305D5020A951305051E07048502577001C9D705045E732520C29306A0023305D5020A951305051E07048522577002C95784055E732520C29306A0023305D5020A951305051E27048522D7B8005ED73B025EB387950133059C015736E09E57F000C957B6E033573EE09F57F070CD07E40702577001C957BEE03A57F070CD87640502577071C957B4903A33859B01B307960157F070CD8764050233859D0187E5070257F071C95734B13A57F070CD87650502577071C9D7B4B03A33059D01B307970157F070CD8765050257F071C9D734B13A57F070CD87E50702577072CDD7B4B13A577004CDD734823A57F001C9573E613A57B4603E5736813A57B4403E577002C957B6813A57B4603F57F002C95736823A57B4403F577003C957B6823A57B4203E57F003C95736833A577002C957BE413A5734413E57B0813A5734613F57F002C95730823A5734413F577003C957B0823A5734213E57F003C95730833A573F009E57F002C9573E623B57B4613F5738823A57B4413F577003C957B8823A57B4213E57F003C95738833A577003C957BE423B5734423F57B9823A87278BFC5734223E57F003C95739833A07274BFC573E233A57B4223E8726CBFC07260BFD577004CD57D697B257F003C9573C833A577004CD575E97B257B7C09E5730109F577018C557B7C03D573AE09F577004CD57DA96B207274BFD573FC09F732520C206053365A5200A951305051E270E8522577001C957BFC03A573BC09E57F011C9573F413B732520C2D9463305D5020A951305051E270A85225730709F577018C557B74039577004CD575896B287268BFD0726CBFD87270BFE575997B2577012C957BF013B732520C20E053325A5200A951305051E27088522D73E309F5730309F577018C557370139577004CD57DC96B25760034257F012C9573F223B732520C2E9463305D5020A951305051E27098522577018C557B72139577013C957BF823B732520C216050A951305051E270C85225730D09E577018C557378239577004CD575596B207274BFED7E2024257F013C9573FA33A5730509E577018C557B7A238732520C29306A0023305D5020A951305051E070A85225738409F577004CD57D897B287268BFE0726CBFE87270BFF732520C2930660023305D5020A951305051E07068522575697B257E00342577014C957BF033B732520C29306A0023305D5020A951305051E27088522577018C557370339732520C20E053345A5200A951305051E07088522577004CD57D896B257600E42577018C5573FC43A732520C2930660023305D5020A951305051E2706852257B7C338732520C2930620023305D5020A951305051E070985225736209F577004CD575696B257E00E42577015C957BF043B732520C20E053345A5200A951305051E27088522577018C557370439573AC09E07274BFF57F015C9573F453BD7660F425730D09E577018C557B744395732C09E732520C2F9463305D5020A951305051E07018522577004CD57D197B287278BFF8726CBFF07260B00732520C2F1463305D5020A951305051E070C85225739809F575997B21315B028D76B0542577016C957BF253A5730709F577018C5573725385736209E732520C20A053345A5200A951305051E07088522577004CD57D897B257E00F4257F016C9573F263B732520C2F1463305D5020A951305051E27098522577018C557B72539732520C20A053365A5200A951305051E070C8522577004CD57DC96B2577017C957BF063B57600942577004CD575D96B2577018C5573706395734009F57E0094257F017C9573F873B577018C557B7863957BFA73B57600A425737A739573AC13F57F0E0CCD730015E5730109E577011C557BA603D732520C2D9463305D5020A951305051E070385225770100957030A5E732520C20E053325A5200A951305051E07088522732520C20E053325A5200A951305051E270885225730D09F577018C557B30039732520C2E9463305D5020A951305051E07098522D76803425730109F573321395738209F732520C216050A951305051E07098522D7E408425730909E57B321395730509E5733A238732520C29306A0023305D5020A951305051E070A8522732520C29306A0023305D5020A951305051E270A8522D7E903425730309F57B34239732520C2930660023305D5020A951305051E070A8522732520C2930660023305D5020A951305051E270A8522D7610E425730309E57334339732520C20E053345A5200A951305051E070A8522732520C20E053345A5200A951305051E270A8522D7EE0E425730D09F57B343395730D09E573344385731409E732520C2F9463305D5020A951305051E270685225730709F57B3C438732520C2F1463305D5020A951305051E0706852257E00F425733C538573EC09E5736809E5760094257B3C538732520C20A053365A5200A951305051E270C852257E0094257338639732520C2930620023305D5020A951305051E270D8522D7650A425730B09E57B3A639732520C206053365A5200A951305051E070D852257BAA13F5730109E573A613D573C609F732520C212050A951305051E270C852257F0E0CCD730025E5730109E732520C2D9463305D5020A951305051E07068522573BC09E57F011C557BA603D732520C20E053325A5200A951305051E070285225770100957020A5E5736009F732520C2E9463305D5020A951305051E270685225730109F577018C557B2C0385736209F732520C216050A951305051E270685225730909ED73D909E5732C138D7EC02425730909F57B2A138732520C29306A0023305D5020A951305051E07068522732520C29306A0023305D5020A951305051E270685225730309F5732C238732520C2930660023305D5020A951305051E070885225730309E57B20239732520C20E053345A5200A951305051E070985225736209F732520C20E053345A5200A951305051E270685225730D09F5732C338D7680F425730109F57B22338732520C2F9463305D5020A951305051E07068522732520C2F9463305D5020A951305051E27068522D739709F5730709F5732C438D7E40F425730909E57B2C439D76E09425730D09F57328538732520C20A053365A5200A951305051E07068522732520C20A053365A5200A951305051E27068522D7E409425730909E57B2C538732520C2930620023305D5020A951305051E07068522732520C2930620023305D5020A951305051E2706852257600A425732C638573AA23F57F0E0CCD734015E5730909E577018C557BA813D5730109E573A613D57F0E0CCD736045E5730D09E732520C20E053325A5200A951305051E070B85225736609F577012C557BAC03C732520C2E9463305D5020A951305051E070B852257701009570B0A5E732520C216050A951305051E070A8522732520C216050A951305051E270A85225730B09F577018C557BB40395730909F573BA138732520C29306A0023305D5020A951305051E070A8522732520C29306A0023305D5020A951305051E270A852257E0034257BB4139573A009FD7600E425730109E573B42395739009F732520C20E053345A5200A951305051E070A8522732520C20E053345A5200A951305051E270A852257E00E4257BB42395730109F573B2338732520C2F9463305D5020A951305051E070D85225730309F57BBA3395738C09F732520C2F1463305D5020A951305051E2708852257E00F42573B0439732520C20A053345A5200A951305051E270485225730D09F57BB8438732520C20A053365A5200A951305051E070C85225734809F732520C20A053365A5200A951305051E2704852257E00942573B8538732520C2930620023305D5020A951305051E070E85225734C09F732520C2930620023305D5020A951305051E27048522D7610A425730309E57BB8538732520C206053365A5200A951305051E0704852257B4823E57F0E0CC5730015E732520C212050A951305051E070A8522577018C55734423D57F0E0CC5730025E732520C2D9463305D5020A951305051E070A8522577018C557B4413D5730D09E5734C13C57600342732520C2E9463305D5020A951305051E0706852257F012C557B4C03C732520C216050A951305051E070A852257701009570A045E57E00242577018C557BAA038732520C29306A0023305D5020A951305051E0708852257E00342573A01395734209F732520C2930660023305D5020A951305051E270485225730109E57BA8138732520C20E053345A5200A951305051E07048522732520C20E053345A5200A951305051E27048522D7EE0E425730D09F573A82385736209E57600F4257BAC2385730309F573AA339573EA09F732520C2F1463305D5020A951305051E0704852257E00F4257BA83385739809E732520C20A053345A5200A951305051E070C852257600942573A8439732520C20A053365A5200A951305051E070D852257E0094257BAA439732520C2930620023305D5020A951305051E07048522732520C2930620023305D5020A951305051E270485225730309E573A8538732520C206053365A5200A951305051E070485225734833E57F0E0CC5730015E732520C212050A951305051E07018522577018C557B4223C57F0E0CC5730025E732520C2D9463305D5020A951305051E07018522577018C55734223C57F0E0CC5730045E732520C20E053325A5200A951305051E07018522577018C557B4213C57600342732520C2E9463305D5020A951305051E070185225734213C57E00842732520C216050A951305051E07018522577013C557B4203C577010095705045E57E00342577018C557B50039732520C2930660023305D5020A951305051E070485225730109E57358138732520C20E053345A5200A951305051E070485225730D09F57B5813857600F425735C238D730309F5730309F57B5C23957E00F42573523395760094257B5833957E009425735A439732520C2930620023305D5020A951305051E0704852257600A4257B58438910C130B0B315701055E63841C006FE07FD5732520C2B9463305D5020A951305051E0704852257148F0272755695F32620C28A06B3A6D6208A969386061E078686225716C702D276B347D520F32620C28606B3C6D6208A969386061E078786225717E302B276B346D520732B20C2336B2B20130B0B1E07088B225718020327E407029277B347F52027E60602F266B346D52027E70702D267B347F52027E80602F32620C28606B3A6D6208A969386061E0784862257148B0227E40702B266B346D520F32720C2B3C727209387071E0784872257148A0292673345F520F32720C2B3A727209387071E078687225715C50227E406022765050293870A011308080463F41A016FE0BFC38147577004CD5734005E86763385FB0057F070CD876405023385FD00076505023305FD00876505023385F500076605023305FC00876605023305F60007670502577071C957B6D03A3305F70057F071C95736E13A87A70600577071C9D7B4A03A57F070CD0765050257F071C9D734B13A577072CDD7B4A13A577004CDD734C23A910757D497B293860631E39117F88813070585225714A402D7B4803EC6764E7536955735813ED7B5813E57F070CD2764050257F000CD5736823E6E753695D7B6823E57F070CDA764050257F000CD5734833E2E75369557F070CD276505024E653695A76505020E753695276605020E653695A76605022E6536952764050213850F18EE66938C7600AA9BAA9D2A9D2A97AA952A9C2A961D4563F4A6006FE0FF9D0145C2769395260093E585034A76B29587A7050013E6E60093E6F6001307003107A74500B308E602B382E602577018CD57D4075EF32520C2B3A525209385051E278485229305400C3346C620B3C6D6206277B30EB7025754075E8C13278485221E069E0686633383C300B693EA75AE98AE92B725060057F0E0CCD7BE005EA666B695E667C666B697AE9EB297130810034146130E011457B9005E130F0002930F00041309000893090010130A0020930A0040856B896C116DA16D130B1002AA863305A8403355C50A577018CD57A408525740856A138506FD3335A000577051CC5744055E57348066732520C216050A951305051E2704850213B5F6025744055E57348066732520C2F9453305B5020A951305051E2704850213B5E6025744055E57348066732520C2F1453305B5020A951305051E2704850213B5D6025744055E57348066732520C2E9453305B5020A951305051E2704850213B5C6025744055E57348066732520C20E053325A5200A951305051E2704850213B5B6025744055E57348066732520C2D9453305B5020A951305051E2704850213B5A6025744055E57348066732520C20A053345A5200A951305051E2704850213B596025744055E57348066732520C206053365A5200A951305051E2704850213B586025744055E57348066732520C212050A951305051E2704850213B576025744055E57348066732520C2B9453305B5020A951305051E2704850213B566025744055E57348066732520C20A053325A5200A951305051E2704850213B556025744055E57348066732520C206053345A5200A951305051E2704850213B546025744055E57348066732520C2336525201305051E2704850213B536025744055E57348066732520C206053325A5200A951305051E2704850213B526025744055E57348066732520C2334525201305051E27048502732520C2930520023305B5020A951305051E27008502577018CD573C005E276C0E00727C369C07620E021E871A85F68536E4F32620C293002002B38616028A969386061E0780860257F070CD876B0502076407025731809F577071CDD7BB803AD73F209F577018CD07E905005730D09F577071C557B1403C57B42033577001CDD734413E5733813F5786045E577071CD57B6603A577001CD5735213FF32620C296068A969386061E07808602577071C557918BB05734A032F32620C2F940B38616028A969386061E0780860257968BB0F32620C29300A002B38616028A969386061E278686225730D09F57B3903C57B4A032577001CDD734423E573E823F5786045E577071CD57B6C03B577001CD5735223FF32620C2F140B38616028A969386061E07808602577071C557938BB05734A032F32620C2E940B38616028A969386061E0780860257968BB0F32620C28E06B3C6D6208A969386061E278686225730D09F57BE903C57B4A032577001CDD734433E573F833F5786045E577071CD57B6E03B577001CD5735233FF32620C28E06B3A6D6208A969386061E07808602577071C5579E8BB05734A032F32620C2D940B38616028A969386061E0780860257968BB0F32620C293006002B38616028A969386061E278686225730D09F57BF903C57B4A032577011CD5736443E573D843F573BC09E577071CD57BBA03B577011CD5737243FF32620C28A06B3C6D6208A969386061E07808602577071C5579F8BB05734E032F32620C28606B3E6D6208A969386061E07808602579B8BB05730D09F57BDC03C57B4E032577011CD5736453E573A853F5735C09E577071CD57B5403B577011CD5738253FF32620C292068A969386061E07808602577071C5579D8BB057340033F32620C2B940B38616028A969386061E0780860257958BB0F32620C28A06B3E6D6208A969386061E278586225730D09F57BAC03C57B40033577011CD5736463E5737863F5738C09E577071CD57B8E03A577011CD5735263FF32620C28A06B3A6D6208A969386061E07808602577071C5579A8BB05734A032F32620C28606B3C6D6208A969386061E0780860257988BB05730D09F57B7C03CD7B5A032D736409E577011CD5732473E577071CDD7B6803B577011CD573C873F5736409E577071CD57B6803B577011CD5734273FF32620C2B3E626209386061E07808602577071C55797BBB0D7348032F32620C28606B3A6D6208A969386061E0780860257969BB0573520335739F09F5730D09F57BC403C5795DBA2D7B4803257B2A09E577011C957B2203AF32620C2B3C626209386061E07808602577071C5579C9BB05730F09F577018C557B1A03C57F0E0CC5730025EF32620C29300A002B38616028A969386061E07848622577012C95732813A577018C557B1803857F0E0CC5730045E577012C957B2613A577018C557316138F32620C28E06B3C6D6208A969386061E0784862257600642577013C95732823A577018C557B18138D734D09F577013C957B2C23B57600F42577018C55731C239D73E909EF32020C293066002B380D002A2668A909380001E0785802257E00F42577014C95732A33A577018C557B1A238577014C957B2E33B57600942577018C55731E33957E00942577015C95732643B577018C557B16339577015C957B2A43B57600A42577018C55731A439F32020C28A00B3E010208A909380001E0785802257E00A42577016C95732A53A577018C557B1A438577016C957B2453B5730109E577018C55731453957E00B42577017C95732063B577018C557B10539577017C957B2E63A57E00C42577018C55731E63857600D425732C73A57B1C63857B2873B57E00D4257318739570C015E1105938505311107E315F5AE732520C2930520023305B5020A951305051E0700850227620E0033451C2107640E02B3455C20732720C2332727201307071E070587225714A4029813070587225715AC022764050027E5050013850601938E0E04E3EA66870145130104DC83308123033401230339812283390122033A8121833A0121033B8120833B01207E7CDE7C3E7D9E7D1301012482809715000069359385E50733F5A50E828000000000000000000000000000000600000000000000000000000000000000000000000000000000000000000000000000000000000005000000A100000000000000000000000000000000000000000000000000000000000000000000000000000000000000000000000000000000000000000000000000000000000000000000000000000001000000000000000000000000000000000000000000000000000000000000000000000000000000000000000000000000000000000000000000000000000000000000000000000000000000000000000000000000000000000000000000000000000000000000001E000000000000000800000000000000FBFFFF6F000000000100000000000000070000000000000070020000000000000800000000000000200100000000000009000000000000001800000000000000F9FFFF6F000000000C00000000000000060000000000000000020000000000000B000000000000001800000000000000050000000000000048020000000000000A0000000000000023000000000000000400000000000000300200000000000000000000000000000000000000000000011101250E1305030E10171B0EB44219110112060000022E001101120640186E0E030E3A0B3B0B49133F190000032400030E3E0B0B0B0000004B0000000400000000000801DF0000002C0004000000000000004E0000007816000000000000DA1F0000027816000000000000DA1F00000158A6000000A60000000101470000000300000000050400696E74006D6F64756C655F6D61696E5F6772617068246173796E635F64697370617463685F3139305F656D6265646465645F656C665F72697363765F36345F62656E63686D61726B2E6D6C6972002F73637261746368322F6D65726C696E2F73616D706C65732F636F72655F70696E6E696E675F73696E676C655F776F726B6C6F61642F6D6F64656C732F676C7064657074682F6D6F64656C732F62656E63686D61726B73006D61696E5F6772617068246173796E635F64697370617463685F3139305F6D61746D756C5F6C696B655F363478313936783136305F6633320049524545004B0000000200000000004F0000002A0000006D61696E5F6772617068246173796E635F64697370617463685F3139305F6D61746D756C5F6C696B655F363478313936783136305F6633320000000000160000000200000000004F00000047000000696E740000000000413E020000726973637600013402000004100572763634693270315F6D3270305F613270315F663270325F643270325F633270305F623170305F763170305F7A69633634623170305F7A6963626F6D3170305F7A6963626F703170305F7A6963626F7A3170305F7A696363616D6F613170305F7A69636369663170305F7A6963636C736D3170305F7A6963637273653170305F7A69636E74723270305F7A69636F6E643170305F7A696373723270305F7A6966656E6365693270305F7A6968696E7470617573653270305F7A6968706D3270305F7A6D6D756C3170305F7A61363472733170305F7A61616D6F3170305F7A616C7273633170305F7A66683170305F7A66686D696E3170305F7A63613170305F7A63643170305F7A62613170305F7A62623170305F7A62633170305F7A626B633170305F7A62733170305F7A6B743170305F7A76653332663170305F7A76653332783170305F7A76653634643170305F7A76653634663170305F7A76653634783170305F7A7666683170305F7A7666686D696E3170305F7A766B743170305F7A766C313238623170305F7A766C323536623170305F7A766C3332623170305F7A766C3634623170305F737363637074723170305F7373636F66706D663170305F7373636F756E746572656E773170305F737374633170305F73737476616C613170305F737374766563643170305F73766164653170305F7376626172653170305F7376696E76616C3170305F73766E61706F743170305F737670626D743170305F78736D7476646F7431703000E9010000040061000000010101FB0E0D000101010100000001000001006D6F64756C655F6D61696E5F6772617068246173796E635F64697370617463685F3139305F656D6265646465645F656C665F72697363765F36345F62656E63686D61726B2E6D6C6972000000000000090278160000000000000105100A030F024401A5037A083C2D4C33037A08744BDB060369029E010106031D4A06036302B80201051306031A022601051002DE090F0513850510EF05138505107F05138505107F0513087705107F05138505107F0513F505107F051385051002B61A0F0603690820051206031F083C05100378660512086005100378660512087C051003786605120844051003784A051202361A051003784A05120898051003786605120844051003784A0603690874060317BA051302341505107F05134D051008390513850510087105133105104706036982051206031F6605100378BA051236051003788205128A051003789E051236051003784A05128A051003789E060369024C0106031D4A037A024E0150037A022A01060369023E0103172E0512060374820510030CBA0512037402F603010510030C66060369BA03170874051306BD0510EF051385051002D2090F060369BA051306031A085805124F05104805124C05100378022A01050B030CBA060B2E023200010149524545000000000000000000000000000000000000000000000000000000230000000002090050470000000000000000000000000000010000001200070052360000000000001000000000000000002E64796E73796D002E68617368002E64796E737472002E72656C612E64796E002E726F64617461002E65685F6672616D65002E74657874002E646174612E72656C2E726F002E64796E616D6963002E72656C726F5F70616464696E67002E64656275675F616262726576002E64656275675F696E666F002E64656275675F737472002E64656275675F7075626E616D6573002E64656275675F7075627479706573002E72697363762E61747472696275746573002E64656275675F6C696E65002E636F6D6D656E74002E73796D746162002E7368737472746162002E7374727461620000697265655F68616C5F65786563757461626C655F6C6962726172795F7175657279005F44594E414D49430000000000000000000000000000000000000000000000000000000000000000000000000000000000000000000000000000000000000000000000000000000000010000000B0000000200000000000000000200000000000000020000000000003000000000000000030000000100000008000000000000001800000000000000090000000500000002000000000000003002000000000000300200000000000018000000000000000100000000000000040000000000000004000000000000000F0000000300000002000000000000004802000000000000480200000000000023000000000000000000000000000000010000000000000000000000000000001700000004000000020000000000000070020000000000007002000000000000200100000000000001000000000000000800000000000000180000000000000021000000010000000200000000000000C003000000000000C0030000000000004002000000000000000000000000000040000000000000000000000000000000290000000100000002000000000000000006000000000000000600000000000078000000000000000000000000000000080000000000000000000000000000003300000001000000060000000000000078160000000000007806000000000000EA1F0000000000000000000000000000020000000000000000000000000000003900000001000000030000000000000070460000000000007026000000000000E0000000000000000000000000000000100000000000000000000000000000004600000006000000030000000000000050470000000000005027000000000000C0000000000000000300000000000000080000000000000010000000000000004F00000008000000030000000000000010480000000000001028000000000000F0070000000000000000000000000000010000000000000000000000000000005E0000000100000000000000000000000000000000000000102800000000000039000000000000000000000000000000010000000000000000000000000000006C000000010000000000000000000000000000000000000049280000000000004F000000000000000000000000000000010000000000000000000000000000007800000001000000300000000000000000000000000000009828000000000000E4000000000000000000000000000000010000000000000001000000000000008300000001000000000000000000000000000000000000007C290000000000004F00000000000000000000000000000001000000000000000000000000000000930000000100000000000000000000000000000000000000CB290000000000001A00000000000000000000000000000001000000000000000000000000000000A30000000300007000000000000000000000000000000000E5290000000000003F02000000000000000000000000000001000000000000000000000000000000B50000000100000000000000000000000000000000000000242C000000000000ED01000000000000000000000000000001000000000000000000000000000000C10000000100000030000000000000000000000000000000112E0000000000000500000000000000000000000000000001000000000000000100000000000000CA0000000200000000000000000000000000000000000000182E0000000000004800000000000000150000000200000008000000000000001800000000000000D20000000300000000000000000000000000000000000000602E000000000000E400000000000000000000000000000001000000000000000000000000000000DC0000000300000000000000000000000000000000000000442F0000000000002C00000000000000000000000000000001000000000000000000000000000000"> : vector<13552xi8>
    vm.global.ref private mutable @__device_0_executable_0_main_graph$async_dispatch_190 : !vm.ref<!hal.executable>
    vm.global.ref private mutable @main_graph$async_dispatch_190_embedded_elf_riscv_64_main_graph$async_dispatch_190_matmul_like_64x196x160_f32_buffer : !vm.ref<!hal.buffer>
    vm.import private @hal.allocator.allocate(%allocator : !vm.ref<!hal.allocator>, %queue_affinity : i64, %memory_types : i32, %buffer_usage : i32, %allocation_size : i64) -> !vm.ref<!hal.buffer>
    vm.import private @hal.command_buffer.create(%device : !vm.ref<!hal.device>, %modes : i32, %command_categories : i32, %queue_affinity : i64, %binding_capacity : i32) -> !vm.ref<!hal.command_buffer> attributes {minimum_version = 6 : i32}
    vm.import private @hal.command_buffer.finalize(%command_buffer : !vm.ref<!hal.command_buffer>)
    vm.import private @hal.command_buffer.execution_barrier(%command_buffer : !vm.ref<!hal.command_buffer>, %source_stage_mask : i32, %target_stage_mask : i32, %flags : i64)
    vm.import private @hal.command_buffer.dispatch(%command_buffer : !vm.ref<!hal.command_buffer>, %executable : !vm.ref<!hal.executable>, %entry_point : i32, %workgroup_x : i32, %workgroup_y : i32, %workgroup_z : i32, %flags : i64, %constants : i32 ..., %bindings : tuple<i32, i32, !vm.ref<!hal.buffer>, i64, i64> ...)
    vm.import private @hal.device.allocator(%device : !vm.ref<!hal.device>) -> !vm.ref<!hal.allocator> attributes {nosideeffects}
    vm.import private @hal.device.query.i64(%device : !vm.ref<!hal.device>, %category : !vm.buffer, %key : !vm.buffer) -> (i32, i64) attributes {nosideeffects}
    vm.import private @hal.device.queue.execute(%device : !vm.ref<!hal.device>, %queue_affinity : i64, %wait_fence : !vm.ref<!hal.fence>, %signal_fence : !vm.ref<!hal.fence>, %command_buffer : !vm.ref<!hal.command_buffer>, %flags : i64)
    vm.import private @hal.devices.count() -> i32 attributes {nosideeffects}
    vm.import private @hal.devices.get(%index : i32) -> !vm.ref<!hal.device> attributes {nosideeffects}
    vm.import private @hal.executable.create(%device : !vm.ref<!hal.device>, %queue_affinity : i64, %executable_format : !vm.buffer, %executable_data : !vm.buffer, %constants : !vm.buffer) -> !vm.ref<!hal.executable> attributes {nosideeffects}
    vm.import private @hal.fence.create(%device : !vm.ref<!hal.device>, %flags : i64) -> !vm.ref<!hal.fence>
    vm.import private @hal.fence.await(%timeout_millis : i32, %flags : i64, %fences : !vm.ref<!hal.fence> ...) -> i32 attributes {vm.yield}
    vm.func private @main_graph$async_dispatch_190_embedded_elf_riscv_64_main_graph$async_dispatch_190_matmul_like_64x196x160_f32(%arg0: i32) attributes {iree.reflection = {iree.benchmark = "dispatch"}} {
      %c5 = vm.const.i32 5
      %c20 = vm.const.i32 20
      %c1 = vm.const.i32 1
      %c16 = vm.const.i32 16
      %zero = vm.const.i32.zero
      %c2 = vm.const.i32 2
      %c17 = vm.const.i32 17
      %c-1 = vm.const.i64 -1
      %zero_0 = vm.const.i64.zero
      %c32172032 = vm.const.i64 32172032
      %c14611584 = vm.const.i64 14611584
      %c46783744 = vm.const.i64 46783744
      %c1_1 = vm.const.i64 1
      %null = vm.const.ref.zero : !vm.ref<!hal.fence>
      %c-1_2 = vm.const.i32 -1
      %main_graph$async_dispatch_190_embedded_elf_riscv_64_main_graph$async_dispatch_190_matmul_like_64x196x160_f32_buffer = vm.global.load.ref @main_graph$async_dispatch_190_embedded_elf_riscv_64_main_graph$async_dispatch_190_matmul_like_64x196x160_f32_buffer : !vm.ref<!hal.buffer>
      %__device_0 = vm.global.load.ref @__device_0 : !vm.ref<!hal.device>
      %__device_0_executable_0_main_graph$async_dispatch_190 = vm.global.load.ref @__device_0_executable_0_main_graph$async_dispatch_190 : !vm.ref<!hal.executable>
      %0 = vm.ext.i32.i64.s %arg0 : i32 -> i64
      %ref = vm.call @hal.command_buffer.create(%__device_0, %c17, %c2, %c-1, %zero) : (!vm.ref<!hal.device>, i32, i32, i64, i32) -> !vm.ref<!hal.command_buffer>
      vm.br ^bb1(%zero_0 : i64)
    ^bb1(%1: i64):  // 2 preds: ^bb0, ^bb2
      %slt = vm.cmp.lt.i64.s %1, %0 : i64
      vm.cond_br %slt, ^bb2, ^bb3
    ^bb2:  // pred: ^bb1
      vm.call.variadic @hal.command_buffer.dispatch(%ref, %__device_0_executable_0_main_graph$async_dispatch_190, %zero, %c16, %c1, %c1, %zero_0, [], [(%zero, %zero, %main_graph$async_dispatch_190_embedded_elf_riscv_64_main_graph$async_dispatch_190_matmul_like_64x196x160_f32_buffer, %zero_0, %c32172032), (%zero, %zero, %main_graph$async_dispatch_190_embedded_elf_riscv_64_main_graph$async_dispatch_190_matmul_like_64x196x160_f32_buffer, %c32172032, %c14611584), (%zero, %zero, %main_graph$async_dispatch_190_embedded_elf_riscv_64_main_graph$async_dispatch_190_matmul_like_64x196x160_f32_buffer, %c46783744, %c32172032)]) : (!vm.ref<!hal.command_buffer>, !vm.ref<!hal.executable>, i32, i32, i32, i32, i64, i32 ..., tuple<i32, i32, !vm.ref<!hal.buffer>, i64, i64> ...)
      vm.call @hal.command_buffer.execution_barrier(%ref, %c20, %c5, %zero_0) : (!vm.ref<!hal.command_buffer>, i32, i32, i64) -> ()
      %2 = vm.add.i64 %1, %c1_1 : i64
      vm.br ^bb1(%2 : i64)
    ^bb3:  // pred: ^bb1
      vm.call @hal.command_buffer.finalize(%ref) : (!vm.ref<!hal.command_buffer>) -> ()
      %ref_3 = vm.call @hal.fence.create(%__device_0, %zero_0) : (!vm.ref<!hal.device>, i64) -> !vm.ref<!hal.fence>
      vm.call @hal.device.queue.execute(%__device_0, %c-1, %null, %ref_3, %ref, %zero_0) : (!vm.ref<!hal.device>, i64, !vm.ref<!hal.fence>, !vm.ref<!hal.fence>, !vm.ref<!hal.command_buffer>, i64) -> ()
      %3 = vm.call.variadic @hal.fence.await(%c-1_2, %zero_0, [%ref_3]) : (i32, i64, !vm.ref<!hal.fence> ...) -> i32
      vm.cond_br %3, ^bb5, ^bb4
    ^bb4:  // pred: ^bb3
      vm.return
    ^bb5:  // pred: ^bb3
      vm.fail %3, "failed to wait on timepoint"
    }
    vm.export @main_graph$async_dispatch_190_embedded_elf_riscv_64_main_graph$async_dispatch_190_matmul_like_64x196x160_f32 attributes {iree.abi.stub, iree.reflection = {iree.benchmark = "dispatch"}}
    vm.export @__init
    vm.func private @__init() {
      %c1 = vm.const.i32 1
      %null = vm.const.ref.zero : !vm.buffer
      %c78955776 = vm.const.i64 78955776
      %c3075 = vm.const.i32 3075
      %c48 = vm.const.i32 48
      %c-1 = vm.const.i64 -1
      %c14 = vm.const.i32 14
      %c18 = vm.const.i32 18
      %zero = vm.const.i32.zero
      %zero_0 = vm.const.i64.zero
      %c1_1 = vm.const.i64 1
      %null_2 = vm.const.ref.zero : !vm.ref<!hal.device>
      %0 = vm.call @hal.devices.count() {nosideeffects} : () -> i32
      %1 = vm.ext.i32.i64.s %0 : i32 -> i64
      vm.br ^bb1(%zero_0, %zero_0, %null_2 : i64, i64, !vm.ref<!hal.device>)
    ^bb1(%2: i64, %3: i64, %4: !vm.ref<!hal.device>):  // 2 preds: ^bb0, ^bb4
      %rnz = vm.cmp.nz.ref %4 : !vm.ref<!hal.device>
      %5 = vm.xor.i32 %rnz, %c1 : i32
      %slt = vm.cmp.lt.i64.s %2, %1 : i64
      %6 = vm.and.i32 %5, %slt : i32
      vm.cond_br %6, ^bb2, ^bb5
    ^bb2:  // pred: ^bb1
      %7 = vm.trunc.i64.i32 %2 : i64 -> i32
      %ref = vm.call @hal.devices.get(%7) {nosideeffects} : (i32) -> !vm.ref<!hal.device>
      %_utf8_hal_device_id_C1DCB7DBC4F49AE6 = vm.const.ref.rodata @_utf8_hal_device_id_C1DCB7DBC4F49AE6 : !vm.buffer
      %_utf8_local_3D3B5147158B235A = vm.const.ref.rodata @_utf8_local_3D3B5147158B235A : !vm.buffer
      %8:2 = vm.call @hal.device.query.i64(%ref, %_utf8_hal_device_id_C1DCB7DBC4F49AE6, %_utf8_local_3D3B5147158B235A) {nosideeffects} : (!vm.ref<!hal.device>, !vm.buffer, !vm.buffer) -> (i32, i64)
      %nz = vm.cmp.nz.i64 %8#1 : i64
      %9 = vm.select.i32 %8#0, %nz, %zero : i32
      vm.cond_br %9, ^bb3, ^bb4(%zero : i32)
    ^bb3:  // pred: ^bb2
      %_utf8_hal_executable_format_EAB228F999C2D3A1 = vm.const.ref.rodata @_utf8_hal_executable_format_EAB228F999C2D3A1 : !vm.buffer
      %_utf8_embedded_elf_riscv_64_38BEAC1DD46E6154 = vm.const.ref.rodata @_utf8_embedded_elf_riscv_64_38BEAC1DD46E6154 : !vm.buffer
      %10:2 = vm.call @hal.device.query.i64(%ref, %_utf8_hal_executable_format_EAB228F999C2D3A1, %_utf8_embedded_elf_riscv_64_38BEAC1DD46E6154) {nosideeffects} : (!vm.ref<!hal.device>, !vm.buffer, !vm.buffer) -> (i32, i64)
      %nz_3 = vm.cmp.nz.i64 %10#1 : i64
      %11 = vm.select.i32 %10#0, %nz_3, %zero : i32
      vm.br ^bb4(%11 : i32)
    ^bb4(%12: i32):  // 2 preds: ^bb2, ^bb3
      %eq = vm.cmp.eq.i64 %3, %zero_0 : i64
      %13 = vm.select.i64 %12, %c1_1, %zero_0 : i64
      %14 = vm.add.i64 %3, %13 : i64
      %15 = vm.and.i32 %12, %eq : i32
      %ref_4 = vm.select.ref %15, %ref, %null_2 : !vm.ref<!hal.device>
      %16 = vm.add.i64 %2, %c1_1 : i64
      vm.br ^bb1(%16, %14, %ref_4 : i64, i64, !vm.ref<!hal.device>)
    ^bb5:  // pred: ^bb1
      vm.cond_br %5, ^bb6, ^bb7
    ^bb6:  // pred: ^bb5
      vm.fail %c18, "HAL device `__device_0` not found or unavailable: #hal.device.target<\22local\22, [#hal.executable.target<\22llvm-cpu\22, \22embedded-elf-riscv_64\22, {cpu = \22spacemit-x60\22, cpu_features = \22+m,+a,+f,+d,+c,+v,+zvl256b,+zba,+zbb,+zbc,+zbs,+zicbom,+zicboz,+zicbop,+zihintpause\22, data_layout = \22e-m:e-p:64:64-i64:64-i128:128-n32:64-S128\22, iree.encoding.resolver = #iree_cpu.cpu_encoding_resolver<>, loop_vectorization = true, max_stack_allocation_size = 32768 : i64, native_vector_size = 32 : i64, target_abi = \22lp64d\22, target_triple = \22riscv64-unknown-unknown-eabi-elf\22}>]>"
    ^bb7:  // pred: ^bb5
      %_utf8_hal_executable_format_EAB228F999C2D3A1_5 = vm.const.ref.rodata @_utf8_hal_executable_format_EAB228F999C2D3A1 : !vm.buffer
      %_utf8_embedded_elf_riscv_64_38BEAC1DD46E6154_6 = vm.const.ref.rodata @_utf8_embedded_elf_riscv_64_38BEAC1DD46E6154 : !vm.buffer
      %17:2 = vm.call @hal.device.query.i64(%4, %_utf8_hal_executable_format_EAB228F999C2D3A1_5, %_utf8_embedded_elf_riscv_64_38BEAC1DD46E6154_6) {nosideeffects} : (!vm.ref<!hal.device>, !vm.buffer, !vm.buffer) -> (i32, i64)
      %nz_7 = vm.cmp.nz.i64 %17#1 : i64
      %18 = vm.select.i32 %17#0, %nz_7, %zero : i32
      %19 = vm.select.i64 %18, %zero_0, %c-1 : i64
      %eq_8 = vm.cmp.eq.i64 %19, %zero_0 : i64
      vm.global.store.ref %4, @__device_0 : !vm.ref<!hal.device>
      vm.cond_br %eq_8, ^bb8, ^bb9
    ^bb8:  // pred: ^bb7
      %main_graph_async_dispatch_190_embedded_elf_riscv_64 = vm.const.ref.rodata @main_graph_async_dispatch_190_embedded_elf_riscv_64 : !vm.buffer
      %ref_9 = vm.call @hal.executable.create(%4, %c-1, %_utf8_embedded_elf_riscv_64_38BEAC1DD46E6154_6, %main_graph_async_dispatch_190_embedded_elf_riscv_64, %null) {nosideeffects} : (!vm.ref<!hal.device>, i64, !vm.buffer, !vm.buffer, !vm.buffer) -> !vm.ref<!hal.executable>
      %__device_0 = vm.global.load.ref @__device_0 : !vm.ref<!hal.device>
      %ref_10 = vm.call @hal.device.allocator(%__device_0) {nosideeffects} : (!vm.ref<!hal.device>) -> !vm.ref<!hal.allocator>
      %ref_11 = vm.call @hal.allocator.allocate(%ref_10, %c-1, %c48, %c3075, %c78955776) : (!vm.ref<!hal.allocator>, i64, i32, i32, i64) -> !vm.ref<!hal.buffer>
      vm.global.store.ref %ref_9, @__device_0_executable_0_main_graph$async_dispatch_190 : !vm.ref<!hal.executable>
      vm.global.store.ref %ref_11, @main_graph$async_dispatch_190_embedded_elf_riscv_64_main_graph$async_dispatch_190_matmul_like_64x196x160_f32_buffer : !vm.ref<!hal.buffer>
      vm.return
    ^bb9:  // pred: ^bb7
      vm.fail %c14, "HAL device `__device_0` does not support any variant of executable `main_graph$async_dispatch_190`; available formats: [embedded-elf-riscv_64]"
    }
  }
}
