module {
  util.global private @__device_0 : !hal.device
  util.initializer {
    %c18_i32 = arith.constant 18 : i32
    %false = arith.constant false
    %c0 = arith.constant 0 : index
    %c1 = arith.constant 1 : index
    %0 = util.null : !hal.device
    %device_count = hal.devices.count : index
    cf.br ^bb1(%c0, %c0, %0 : index, index, !hal.device)
  ^bb1(%1: index, %2: index, %3: !hal.device):  // 2 preds: ^bb0, ^bb4
    %4 = util.cmp.eq %3, %0 : !hal.device
    %5 = arith.cmpi slt, %1, %device_count : index
    %6 = arith.andi %4, %5 : i1
    cf.cond_br %6, ^bb2, ^bb5
  ^bb2:  // pred: ^bb1
    %device_n = hal.devices.get %1 : !hal.device
    %ok, %value = hal.device.query<%device_n : !hal.device> key("hal.device.id" :: "local*") : i1, i1 = false
    cf.cond_br %value, ^bb3, ^bb4(%false : i1)
  ^bb3:  // pred: ^bb2
    %ok_0, %value_1 = hal.device.query<%device_n : !hal.device> key("hal.executable.format" :: "embedded-elf-riscv_64") : i1, i1 = false
    cf.br ^bb4(%value_1 : i1)
  ^bb4(%7: i1):  // 2 preds: ^bb2, ^bb3
    %8 = arith.cmpi eq, %2, %c0 : index
    %9 = arith.select %7, %c1, %c0 : index
    %10 = arith.addi %2, %9 : index
    %11 = arith.andi %7, %8 : i1
    %12 = arith.select %11, %device_n, %0 : !hal.device
    %13 = arith.addi %1, %c1 : index
    cf.br ^bb1(%13, %10, %12 : index, index, !hal.device)
  ^bb5:  // pred: ^bb1
    cf.cond_br %4, ^bb6, ^bb7
  ^bb6:  // pred: ^bb5
    util.status.check_ok %c18_i32, "HAL device `__device_0` not found or unavailable: #hal.device.target<\22local\22, [#hal.executable.target<\22llvm-cpu\22, \22embedded-elf-riscv_64\22, {cpu = \22spacemit-x60\22, cpu_features = \22+m,+a,+f,+d,+c,+v,+zvl256b,+zba,+zbb,+zbc,+zbs,+zicbom,+zicboz,+zicbop,+zihintpause\22, data_layout = \22e-m:e-p:64:64-i64:64-i128:128-n32:64-S128\22, iree.encoding.resolver = #iree_cpu.cpu_encoding_resolver<>, loop_vectorization = true, max_stack_allocation_size = 32768 : i64, native_vector_size = 32 : i64, target_abi = \22lp64d\22, target_triple = \22riscv64-unknown-unknown-eabi-elf\22}>]>"
    cf.br ^bb7
  ^bb7:  // 2 preds: ^bb5, ^bb6
    util.global.store %3, @__device_0 : !hal.device
    util.return
  }
  util.global private @__device_0_query_0_hal_executable_format_embedded_elf_riscv_64 : i1
  util.initializer {
    %__device_0 = util.global.load @__device_0 : !hal.device
    %ok, %value = hal.device.query<%__device_0 : !hal.device> key("hal.executable.format" :: "embedded-elf-riscv_64") : i1, i1 = false
    util.global.store %value, @__device_0_query_0_hal_executable_format_embedded_elf_riscv_64 : i1
    util.return
  }
  util.global private @__device_0_executable_0_main_graph$async_dispatch_189 : !hal.executable
  util.initializer {
    %0 = util.null : !hal.executable
    %c14_i32 = arith.constant 14 : i32
    %c0 = arith.constant 0 : index
    %c-1 = arith.constant -1 : index
    %c-1_i64 = arith.constant -1 : i64
    %__device_0_query_0_hal_executable_format_embedded_elf_riscv_64 = util.global.load @__device_0_query_0_hal_executable_format_embedded_elf_riscv_64 : i1
    %__device_0 = util.global.load @__device_0 : !hal.device
    %1 = arith.select %__device_0_query_0_hal_executable_format_embedded_elf_riscv_64, %c0, %c-1 : index
    %2 = arith.cmpi eq, %1, %c0 : index
    cf.cond_br %2, ^bb1, ^bb2
  ^bb1:  // pred: ^bb0
    %executable = hal.executable.create device(%__device_0 : !hal.device) affinity(%c-1_i64) target(@main_graph$async_dispatch_189::@embedded_elf_riscv_64) : !hal.executable
    cf.br ^bb3(%executable : !hal.executable)
  ^bb2:  // pred: ^bb0
    util.status.check_ok %c14_i32, "HAL device `__device_0` does not support any variant of executable `main_graph$async_dispatch_189`; available formats: [embedded-elf-riscv_64]"
    cf.br ^bb3(%0 : !hal.executable)
  ^bb3(%3: !hal.executable):  // 2 preds: ^bb1, ^bb2
    util.global.store %3, @__device_0_executable_0_main_graph$async_dispatch_189 : !hal.executable
    util.return
  }
  hal.executable private @main_graph$async_dispatch_189 {
    hal.executable.binary public @embedded_elf_riscv_64 attributes {data = dense<"0x7F454C460201010000000000000000000300F30001000000000000000000000040000000000000007813000000000000050000004000380008004000160014000600000004000000400000000000000040000000000000004000000000000000C001000000000000C001000000000000080000000000000001000000040000000000000000000000000000000000000000000000000000004C050000000000004C05000000000000001000000000000001000000050000004C050000000000004C150000000000004C150000000000002205000000000000220500000000000000100000000000000100000006000000700A000000000000702A000000000000702A000000000000A001000000000000900500000000000000100000000000000200000006000000500B000000000000502B000000000000502B000000000000C000000000000000C000000000000000080000000000000052E5746404000000700A000000000000702A000000000000702A000000000000A0010000000000009005000000000000010000000000000051E57464060000000000000000000000000000000000000000000000000000000000000000000000000000000000000000000000000000000300007004000000EF0D000000000000000000000000000000000000000000003F020000000000003F02000000000000010000000000000000000000000000000000000000000000000000000000000001000000120007005E1A000000000000100000000000000002000000020000000000000001000000000000000000000000697265655F68616C5F65786563757461626C655F6C6962726172795F7175657279000000000000782A0000000000000300000000000000A803000000000000882A00000000000003000000000000004C15000000000000902A00000000000003000000000000001004000000000000A02A00000000000003000000000000004E04000000000000B82A0000000000000300000000000000F004000000000000C02A0000000000000300000000000000F004000000000000D02A0000000000000300000000000000702A000000000000F02A0000000000000300000000000000882A000000000000F82A0000000000000300000000000000D003000000000000102B0000000000000300000000000000902A000000000000282B0000000000000300000000000000982A000000000000302B0000000000000300000000000000B02A000000000000E1E514BC9C829753254992244992244993244992244992246D61696E5F6772617068246173796E635F64697370617463685F3138390000000000000000000000000000000000000000000002010000000100000001000000000000000000000000000000000000000000000000000000000000000000000000000000000000006D61696E5F6772617068246173796E635F64697370617463685F3138395F656C656D656E74776973655F62726F6164636173745F31323534345F663332002F73637261746368322F6D65726C696E2F73616D706C65732F636F72655F70696E6E696E675F73696E676C655F776F726B6C6F61642F6D6F64656C732F676C7064657074682F6D6F64656C732F62656E63686D61726B732F6D6F64756C655F6D61696E5F6772617068246173796E635F64697370617463685F3138395F656D6265646465645F656C665F72697363765F36345F62656E63686D61726B2E6D6C6972001000000000000000017A5200017801011B0C02002C00000018000000401000001205000000420E20488101880289039204420C080003FA040C022048C1C8C9D2420E0000100000004800000022150000100000000000000000000000011106EC22E826E44AE000100363060088718D650566938505109318C30093364300B3851541FD1633C8C50AB345D80013D6F54337870A0075921C61B29537D6080083328500130507708D85130606E0B3C3D5003389C700139633003A03AA9263547024014597F5FFFF17F7FFFF03BE65DE833EA7DE97F5FFFF03BFE5DCB705003FD38705F0B70500BF538705F03707C040D30600F0530607F0B705004BB707803FD38505F0538507F0B3876200577094CD57A40852B94F9D45B384A80021055770900D57C5842A57B6A0A25766CE9257B6C0A257E7CE9257B7E0A257E7CFAE57E6AFAE5735A1A25765AF925770000D5718E94A57D7070357D7E7925757E70257D0E6665737E05C5750E67ED717C94A5746E75CD7D6F702D7D6D792D756D70257D0D666D736D05C5770900D5735A2A25770000D5750D67ED746D75C5717C62A57D0E56EF35421005797C04873902400D797E1485707065E5770900D57E8A596577000055717F620D757C5025795F72A57D0A56EF35421005770000D5795F048739024005799A148F35421005795C44A5770900D5705050357E5A596573CF09E57700005579C27215750F67ED747F75C5799F74AD797D62A57D0F56E5770900D570809035770000DD797D04873902400D797F148D78C065E57700005D79CF620D757D5025770900D57E805975770000D5799F72A57D0256FF35421005799F0487390240057992149578D075E57700005579D27215750F67ED747F75CF35421005799D44A5770900D570AA902573A41975770000D579BF74A5770900D5705AB025735A1965709090357080B0357380197739024005770000D571B860B5716C70AD79BA60B5770900D573721975770000D0779A9065795DC0A87754907D716A99207790907D796BBB28775E9065715A992579575B35715C5925715DBB227E5070293870702E34BC5E0635C0625139553008E0357F003CD57A808521A951303F0073387A2003705003FB70500BFD30705F0538705F0577004CDD738005EB707C040D30600F0538607F03705004BB705803FD30505F0538505F0B30578405769034257F093CD57A5085239439302400C1D45B386C8005770900D57CAA62A5764438757E742875766838E576443AF5767E5965770000DD799C94A57D6370357D6C7925756C70257D0C6665736C05CD796894A5750C67E57D4D702D7C4C75C57D487925754870257D086665736805C5794942A5750C67EF356210057D4856ED7C9C75C5700045E5796904873902600575B95025796C148578A045ED7166B2B57700005579AC42057D0D56EF35621005770000D579460497390260057948148F35621005796944A5770900D5706E6025766C596D73A609F57700005D71A8B205750667F57C4675D579B874A5770900D5707EB025770000D5794392B5770900D5767E5965770000D57D0856E5794304973902600575B350357948148578E095ED71B6B2B57700005579E892057C4056F57D0756FF3562100D70E0B5E5770000DD79B604973902600D79B714957700005D71E7B215750667F57CF675DF3562100579B344B5770900D570CCB025770000D579DE74B5770900D5706CD02573C81975736C196570BEB025707ED02573B6197573D109FD73D109F573F109FD73F109F57208966739026005770000DD79A540BD7149A0A5770900D5737E19657700005571A3E0B077D8905D799D90B877DC90457964D93077F69055796A9B3877FE904D7964F93D7163FB3D7949692D794CAB221065700045EA764070013070702E115E34A06E10145130104FEE2604264A2640269056182809715000069359385250733F5A50E828000000600000000000000000000000000000000000000000000000000000000000000000000000000000005000000A100000000000000000000000000000000000000000000000000000000000000000000000000000000000000000000000000000000000000000000000000000000000000000000000000000001000000000000000000000000000000000000000000000000000000000000000000000000000000000000000000000000000000000000000000000000000000000000000000000000000000000000000000000000000000000000000000000000000000000000001E000000000000000800000000000000FBFFFF6F000000000100000000000000070000000000000070020000000000000800000000000000200100000000000009000000000000001800000000000000F9FFFF6F000000000C00000000000000060000000000000000020000000000000B000000000000001800000000000000050000000000000048020000000000000A0000000000000023000000000000000400000000000000300200000000000000000000000000000000000000000000011101250E1305030E10171B0EB44219110112060000022E001101120640186E0E030E3A0B3B0B49133F190000032400030E3E0B0B0B0000004B0000000400000000000801E40000002C0000000000000000008C0000004C1500000000000012050000024C150000000000001205000001584A0000004A00000001014700000003880000000504006D6F64756C655F6D61696E5F6772617068246173796E635F64697370617463685F3138395F656D6265646465645F656C665F72697363765F36345F62656E63686D61726B2E6D6C6972006D61696E5F6772617068246173796E635F64697370617463685F3138395F656C656D656E74776973655F62726F6164636173745F31323534345F66333200696E74002F73637261746368322F6D65726C696E2F73616D706C65732F636F72655F70696E6E696E675F73696E676C655F776F726B6C6F61642F6D6F64656C732F676C7064657074682F6D6F64656C732F62656E63686D61726B73004952454500500000000200000000004F0000002A0000006D61696E5F6772617068246173796E635F64697370617463685F3138395F656C656D656E74776973655F62726F6164636173745F31323534345F6633320000000000160000000200000000004F00000047000000696E740000000000413E020000726973637600013402000004100572763634693270315F6D3270305F613270315F663270325F643270325F633270305F623170305F763170305F7A69633634623170305F7A6963626F6D3170305F7A6963626F703170305F7A6963626F7A3170305F7A696363616D6F613170305F7A69636369663170305F7A6963636C736D3170305F7A6963637273653170305F7A69636E74723270305F7A69636F6E643170305F7A696373723270305F7A6966656E6365693270305F7A6968696E7470617573653270305F7A6968706D3270305F7A6D6D756C3170305F7A61363472733170305F7A61616D6F3170305F7A616C7273633170305F7A66683170305F7A66686D696E3170305F7A63613170305F7A63643170305F7A62613170305F7A62623170305F7A62633170305F7A626B633170305F7A62733170305F7A6B743170305F7A76653332663170305F7A76653332783170305F7A76653634643170305F7A76653634663170305F7A76653634783170305F7A7666683170305F7A7666686D696E3170305F7A766B743170305F7A766C313238623170305F7A766C323536623170305F7A766C3332623170305F7A766C3634623170305F737363637074723170305F7373636F66706D663170305F7373636F756E746572656E773170305F737374633170305F73737476616C613170305F737374766563643170305F73766164653170305F7376626172653170305F7376696E76616C3170305F73766E61706F743170305F737670626D743170305F78736D7476646F7431703000E4010000040061000000010101FB0E0D000101010100000001000001006D6F64756C655F6D61696E5F6772617068246173796E635F64697370617463685F3138395F656D6265646465645F656C665F72697363765F36345F62656E63686D61726B2E6D6C697200000000000009024C150000000000000105100A0317BA46A208E03263859A4E060368BA0318024601051206085A84BBB84D051384834B4B4B834C484D4B4B4B05120373820513030E82BB051A031008AC0513037082834B08AD051A030D8205130372BABD834C051C030A82051303768208AD051C03094A051303788202281580051A870513B8051C85BB4B051383BB4B051C4681051388051A03794A051303094A051C037A4A051351051C03784A0513030B4A4B4B4B0510034B4A0512027814844C4948051A03224A051303634A834B4B4B85484D474E4B4B84494B814BBB498448840875051A030D8205130372BABD83051C030C4A0513037682051C030A820513037682F349844805100363820513031F4A02241580051A87051380051C85051A81051C4B4B4B49051A48051C4B4B4B051003584A051303294ABB051C48051386051A037982051350051C45051352051C03794A051352051C03794A0513030A4A4B4B4B0510034B4A051303352E0510034B82050B03399E060B2E0210000101495245450000000000000000000000000000000000000000000000000000000000002300000000020900502B000000000000000000000000000001000000120007005E1A0000000000001000000000000000002E64796E73796D002E68617368002E64796E737472002E72656C612E64796E002E726F64617461002E65685F6672616D65002E74657874002E646174612E72656C2E726F002E64796E616D6963002E72656C726F5F70616464696E67002E64656275675F616262726576002E64656275675F696E666F002E64656275675F737472002E64656275675F7075626E616D6573002E64656275675F7075627479706573002E72697363762E61747472696275746573002E64656275675F6C696E65002E636F6D6D656E74002E73796D746162002E7368737472746162002E7374727461620000697265655F68616C5F65786563757461626C655F6C6962726172795F7175657279005F44594E414D49430000000000000000000000000000000000000000000000000000000000000000000000000000000000000000000000000000000000000000000000000000000000010000000B0000000200000000000000000200000000000000020000000000003000000000000000030000000100000008000000000000001800000000000000090000000500000002000000000000003002000000000000300200000000000018000000000000000100000000000000040000000000000004000000000000000F000000030000000200000000000000480200000000000048020000000000002300000000000000000000000000000001000000000000000000000000000000170000000400000002000000000000007002000000000000700200000000000020010000000000000100000000000000080000000000000018000000000000002100000001000000120000000000000090030000000000009003000000000000600100000000000000000000000000001000000000000000000000000000000029000000010000000200000000000000F004000000000000F0040000000000005C00000000000000000000000000000008000000000000000000000000000000330000000100000006000000000000004C150000000000004C05000000000000220500000000000000000000000000000200000000000000000000000000000039000000010000000300000000000000702A000000000000700A000000000000E00000000000000000000000000000001000000000000000000000000000000046000000060000000300000000000000502B000000000000500B000000000000C0000000000000000300000000000000080000000000000010000000000000004F000000080000000300000000000000102C000000000000100C000000000000F0030000000000000000000000000000010000000000000000000000000000005E0000000100000000000000000000000000000000000000100C00000000000039000000000000000000000000000000010000000000000000000000000000006C0000000100000000000000000000000000000000000000490C0000000000004F00000000000000000000000000000001000000000000000000000000000000780000000100000030000000000000000000000000000000980C000000000000E900000000000000000000000000000001000000000000000100000000000000830000000100000000000000000000000000000000000000810D0000000000005400000000000000000000000000000001000000000000000000000000000000930000000100000000000000000000000000000000000000D50D0000000000001A00000000000000000000000000000001000000000000000000000000000000A30000000300007000000000000000000000000000000000EF0D0000000000003F02000000000000000000000000000001000000000000000000000000000000B500000001000000000000000000000000000000000000002E10000000000000E801000000000000000000000000000001000000000000000000000000000000C1000000010000003000000000000000000000000000000016120000000000000500000000000000000000000000000001000000000000000100000000000000CA000000020000000000000000000000000000000000000020120000000000004800000000000000150000000200000008000000000000001800000000000000D200000003000000000000000000000000000000000000006812000000000000E400000000000000000000000000000001000000000000000000000000000000DC00000003000000000000000000000000000000000000004C130000000000002C00000000000000000000000000000001000000000000000000000000000000"> : vector<6392xi8>, format = "embedded-elf-riscv_64", mime_type = "application/x-elf"}
  }
  util.global private @main_graph$async_dispatch_189_embedded_elf_riscv_64_main_graph$async_dispatch_189_elementwise_broadcast_12544_f32_buffer : !hal.buffer
  util.initializer {
    %memory_type = hal.memory_type<"DeviceVisible|DeviceLocal"> : i32
    %buffer_usage = hal.buffer_usage<"TransferSource|TransferTarget|Transfer|DispatchStorageRead|DispatchStorageWrite|DispatchStorage"> : i32
    %c64344064 = arith.constant 64344064 : index
    %c-1_i64 = arith.constant -1 : i64
    %__device_0 = util.global.load immutable @__device_0 : !hal.device
    %allocator = hal.device.allocator<%__device_0 : !hal.device> : !hal.allocator
    %buffer = hal.allocator.allocate<%allocator : !hal.allocator> affinity(%c-1_i64) type(%memory_type) usage(%buffer_usage) : !hal.buffer{%c64344064}
    util.global.store %buffer, @main_graph$async_dispatch_189_embedded_elf_riscv_64_main_graph$async_dispatch_189_elementwise_broadcast_12544_f32_buffer : !hal.buffer
    util.return
  }
  util.func public @main_graph$async_dispatch_189_embedded_elf_riscv_64_main_graph$async_dispatch_189_elementwise_broadcast_12544_f32(%arg0: i32) attributes {iree.abi.stub, iree.reflection = {iree.benchmark = "dispatch"}} {
    %c-1_i32 = arith.constant -1 : i32
    %0 = util.null : !hal.fence
    %c1 = arith.constant 1 : index
    %c32172032 = arith.constant 32172032 : index
    %c0 = arith.constant 0 : index
    %c-1_i64 = arith.constant -1 : i64
    %c4 = arith.constant 4 : index
    %main_graph$async_dispatch_189_embedded_elf_riscv_64_main_graph$async_dispatch_189_elementwise_broadcast_12544_f32_buffer = util.global.load immutable @main_graph$async_dispatch_189_embedded_elf_riscv_64_main_graph$async_dispatch_189_elementwise_broadcast_12544_f32_buffer : !hal.buffer
    %__device_0 = util.global.load immutable @__device_0 : !hal.device
    %__device_0_executable_0_main_graph$async_dispatch_189 = util.global.load immutable @__device_0_executable_0_main_graph$async_dispatch_189 : !hal.executable
    %1 = arith.index_cast %arg0 : i32 to index
    %cmd = hal.command_buffer.create device(%__device_0 : !hal.device) mode("OneShot|AllowInlineExecution") categories(Dispatch) affinity(%c-1_i64) : !hal.command_buffer
    cf.br ^bb1(%c0 : index)
  ^bb1(%2: index):  // 2 preds: ^bb0, ^bb2
    %3 = arith.cmpi slt, %2, %1 : index
    cf.cond_br %3, ^bb2, ^bb3
  ^bb2:  // pred: ^bb1
    hal.command_buffer.dispatch<%cmd : !hal.command_buffer> target(%__device_0_executable_0_main_graph$async_dispatch_189 : !hal.executable)[%c0] workgroups([%c4, %c1, %c1]) bindings([
      (%main_graph$async_dispatch_189_embedded_elf_riscv_64_main_graph$async_dispatch_189_elementwise_broadcast_12544_f32_buffer : !hal.buffer)[%c0, %c32172032], 
      (%main_graph$async_dispatch_189_embedded_elf_riscv_64_main_graph$async_dispatch_189_elementwise_broadcast_12544_f32_buffer : !hal.buffer)[%c32172032, %c32172032]
    ]) flags("None")
    hal.command_buffer.execution_barrier<%cmd : !hal.command_buffer> source("Dispatch|CommandRetire") target("CommandIssue|Dispatch") flags("None")
    %4 = arith.addi %2, %c1 : index
    cf.br ^bb1(%4 : index)
  ^bb3:  // pred: ^bb1
    hal.command_buffer.finalize<%cmd : !hal.command_buffer>
    %fence = hal.fence.create device(%__device_0 : !hal.device) flags("None") : !hal.fence
    hal.device.queue.execute<%__device_0 : !hal.device> affinity(%c-1_i64) wait(%0) signal(%fence) commands(%cmd) flags("None")
    %status = hal.fence.await until([%fence]) timeout_millis(%c-1_i32) flags("None") : i32
    util.status.check_ok %status, "failed to wait on timepoint"
    util.return
  }
}
