module {
  util.global private @__device_0 : !hal.device
  util.initializer {
    %c18_i32 = arith.constant 18 : i32
    %false = arith.constant false
    %c0 = arith.constant 0 : index
    %c1 = arith.constant 1 : index
    %0 = util.null : !hal.device
    %device_count = hal.devices.count : index
    cf.br ^bb1(%c0, %c0, %0 : index, index, !hal.device)
  ^bb1(%1: index, %2: index, %3: !hal.device):  // 2 preds: ^bb0, ^bb4
    %4 = util.cmp.eq %3, %0 : !hal.device
    %5 = arith.cmpi slt, %1, %device_count : index
    %6 = arith.andi %4, %5 : i1
    cf.cond_br %6, ^bb2, ^bb5
  ^bb2:  // pred: ^bb1
    %device_n = hal.devices.get %1 : !hal.device
    %ok, %value = hal.device.query<%device_n : !hal.device> key("hal.device.id" :: "local*") : i1, i1 = false
    cf.cond_br %value, ^bb3, ^bb4(%false : i1)
  ^bb3:  // pred: ^bb2
    %ok_0, %value_1 = hal.device.query<%device_n : !hal.device> key("hal.executable.format" :: "embedded-elf-riscv_64") : i1, i1 = false
    cf.br ^bb4(%value_1 : i1)
  ^bb4(%7: i1):  // 2 preds: ^bb2, ^bb3
    %8 = arith.cmpi eq, %2, %c0 : index
    %9 = arith.select %7, %c1, %c0 : index
    %10 = arith.addi %2, %9 : index
    %11 = arith.andi %7, %8 : i1
    %12 = arith.select %11, %device_n, %0 : !hal.device
    %13 = arith.addi %1, %c1 : index
    cf.br ^bb1(%13, %10, %12 : index, index, !hal.device)
  ^bb5:  // pred: ^bb1
    cf.cond_br %4, ^bb6, ^bb7
  ^bb6:  // pred: ^bb5
    util.status.check_ok %c18_i32, "HAL device `__device_0` not found or unavailable: #hal.device.target<\22local\22, [#hal.executable.target<\22llvm-cpu\22, \22embedded-elf-riscv_64\22, {cpu = \22spacemit-x60\22, cpu_features = \22+m,+a,+f,+d,+c,+v,+zvl256b,+zba,+zbb,+zbc,+zbs,+zicbom,+zicboz,+zicbop,+zihintpause\22, data_layout = \22e-m:e-p:64:64-i64:64-i128:128-n32:64-S128\22, iree.encoding.resolver = #iree_cpu.cpu_encoding_resolver<>, loop_vectorization = true, max_stack_allocation_size = 32768 : i64, native_vector_size = 32 : i64, target_abi = \22lp64d\22, target_triple = \22riscv64-unknown-unknown-eabi-elf\22}>]>"
    cf.br ^bb7
  ^bb7:  // 2 preds: ^bb5, ^bb6
    util.global.store %3, @__device_0 : !hal.device
    util.return
  }
  util.global private @__device_0_query_0_hal_executable_format_embedded_elf_riscv_64 : i1
  util.initializer {
    %__device_0 = util.global.load @__device_0 : !hal.device
    %ok, %value = hal.device.query<%__device_0 : !hal.device> key("hal.executable.format" :: "embedded-elf-riscv_64") : i1, i1 = false
    util.global.store %value, @__device_0_query_0_hal_executable_format_embedded_elf_riscv_64 : i1
    util.return
  }
  util.global private @__device_0_executable_0_main_graph$async_dispatch_20 : !hal.executable
  util.initializer {
    %0 = util.null : !hal.executable
    %c14_i32 = arith.constant 14 : i32
    %c0 = arith.constant 0 : index
    %c-1 = arith.constant -1 : index
    %c-1_i64 = arith.constant -1 : i64
    %__device_0_query_0_hal_executable_format_embedded_elf_riscv_64 = util.global.load @__device_0_query_0_hal_executable_format_embedded_elf_riscv_64 : i1
    %__device_0 = util.global.load @__device_0 : !hal.device
    %1 = arith.select %__device_0_query_0_hal_executable_format_embedded_elf_riscv_64, %c0, %c-1 : index
    %2 = arith.cmpi eq, %1, %c0 : index
    cf.cond_br %2, ^bb1, ^bb2
  ^bb1:  // pred: ^bb0
    %executable = hal.executable.create device(%__device_0 : !hal.device) affinity(%c-1_i64) target(@main_graph$async_dispatch_20::@embedded_elf_riscv_64) : !hal.executable
    cf.br ^bb3(%executable : !hal.executable)
  ^bb2:  // pred: ^bb0
    util.status.check_ok %c14_i32, "HAL device `__device_0` does not support any variant of executable `main_graph$async_dispatch_20`; available formats: [embedded-elf-riscv_64]"
    cf.br ^bb3(%0 : !hal.executable)
  ^bb3(%3: !hal.executable):  // 2 preds: ^bb1, ^bb2
    util.global.store %3, @__device_0_executable_0_main_graph$async_dispatch_20 : !hal.executable
    util.return
  }
  hal.executable private @main_graph$async_dispatch_20 {
    hal.executable.binary public @embedded_elf_riscv_64 attributes {data = dense<"0x7F454C460201010000000000000000000300F30001000000000000000000000040000000000000007818000000000000050000004000380008004000160014000600000004000000400000000000000040000000000000004000000000000000C001000000000000C001000000000000080000000000000001000000040000000000000000000000000000000000000000000000000000004005000000000000400500000000000000100000000000000100000005000000400500000000000040150000000000004015000000000000FA08000000000000FA0800000000000000100000000000000100000006000000400E000000000000402E000000000000402E000000000000A001000000000000C00100000000000000100000000000000200000006000000200F000000000000202F000000000000202F000000000000C000000000000000C000000000000000080000000000000052E5746404000000400E000000000000402E000000000000402E000000000000A001000000000000C001000000000000010000000000000051E57464060000000000000000000000000000000000000000000000000000000000000000000000000000000000000000000000000000000300007004000000A811000000000000000000000000000000000000000000003F020000000000003F02000000000000010000000000000000000000000000000000000000000000000000000000000001000000120007002A1E000000000000100000000000000002000000020000000000000001000000000000000000000000697265655F68616C5F65786563757461626C655F6C6962726172795F7175657279000000000000482E00000000000003000000000000009003000000000000582E00000000000003000000000000004015000000000000602E0000000000000300000000000000F003000000000000702E00000000000003000000000000002304000000000000882E0000000000000300000000000000C804000000000000902E0000000000000300000000000000C804000000000000A02E0000000000000300000000000000402E000000000000C02E0000000000000300000000000000582E000000000000C82E0000000000000300000000000000B003000000000000E02E0000000000000300000000000000602E000000000000F82E0000000000000300000000000000682E000000000000002F0000000000000300000000000000802E0000000000006D61696E5F6772617068246173796E635F64697370617463685F323000000000000000000000000000000403010000000100000001000000000000000000000000000000000000000000000000000000000000000000000000000000000000006D61696E5F6772617068246173796E635F64697370617463685F32305F726564756374696F6E5F333133367833325F663332002F73637261746368322F6D65726C696E2F73616D706C65732F636F72655F70696E6E696E675F73696E676C655F776F726B6C6F61642F6D6F64656C732F676C7064657074682F6D6F64656C732F62656E63686D61726B732F6D6F64756C655F6D61696E5F6772617068246173796E635F64697370617463685F32305F656D6265646465645F656C665F72697363765F36345F62656E63686D61726B2E6D6C697200000000001000000000000000017A5200017801011B0C020048000000180000005C100000EA08000000420EF00358810188029203930494059506960797089809990A9A0B9B0C420C080003B2080C02F00358C1C8D2D3D4D5D6D7D8D9DADB420E000000001000000064000000FA180000100000000000000000000000417186F7A2F3CAEFCEEBD2E7D6E35AFF5EFB62F766F36AEF6EEB801B130560D133612520137101FC814E946D8C7103630600577004CD5734005E1308010403E7060083E7460003E6860083E6C60003BA050003BE850083B90501931F530027640802135F270013D82700719A93D22600329E93080108930300028146B385FE019E0513977E003309BE00B385E80013070002D777770C33C5262133C6B620076405021D8F27640602BE9665F7850EE3967EFC7EF8814781453203931E2800B343682033456F200A0F33C66220D293B30FAA00B3026A0093060308B29913030108D29636F4577004CD5734005E13050021336C2520A14DD30700F03706003D930C0008530706F057B0075E373686351306D67BB706803FD30606F0538606F0930A0104130500293369252013058029336D252013058031336A2520130B010801483EFC9390A700AE8B2275AA908146B30578019E05931778003307B300B305FC009307000257F5770C33C6E620B3C8B62007650602898F27E50802AA96E5F70508E316B8FD014642785E98B386CF001385060893850610577004CD876405021385061807E50502876505023385C300076605029305050887E605029305051007E705029305051887E705029305052007E805029305052887E8050257D6C70293050530D7D6D70207E9050257D7E70287E90602D7D7F7021305053857D80703076A0502D7D817031385062057D92703876A050257DA4703138506285716360387690502D7949602138506305715A70287660502D795B70213850638571758038767050257983803D716D9023305CC002766050293050508A7E405029305051027E5050293050518A7E505029305052027E705029305052827E8050293050530D714FA02A7E605021305053813060602A7640502E31C96EF814521465775660CB3C6552133C7252187E40602098EA7640702AA9565F613050021B366252013157600629593050508368757F000CCD734809E577004CD0765070213070702D7149502E318B7FE3345262105068725050057D50542D714950657F000CDA764050293860608E31DB6FB577004CD876409025759979257352033D7B5203357362133D7B6213357372233D7B72233573823339686D734809ED7B823333386E6011305060893050610076905021305061887E90502076A05023385D601876A05029305050807EB05029305051087EB05029305051807EC05029305052087EC050293050528D7DA570307ED050257DB670393050530D7DB770387ED050257DC8703076E0602D7DC97031305053857DDA703876E0502D7DDB70313050620D7DED703076F0502D79ACA031305062857192B03076B0502D7993B0313050630571A4C03876B0502579CEC0313050638571B6D03876C0502D79B7D03D79C9E03D71A550B5799250BD719360B579A460B571C870B579B670BD71B780BD79C980BD79A5A93D79A540757BD903E5719299357192D07573D913ED7993993D7193D0757BD913E571A4A93571A4D07573D923E571C8C93D7BD923E571B6B93573E933ED79B7B93D7B4933ED71B7E0757700009D7B9403B5770000D579A9C935770000957B9303B5770000DD794440757700009D7BA203B5770000D57996D0757700009D7BB903A5770000DD7148D075770000957B9703BD7B4203B5770000D5739923AD7842A5D93860602E39C16E681480146330518011E0513977800B300AE006A979307000257F5770CB3451620B346E62007E50502898F27E506022A96E5F78508E397B8FD81453386BF001305060893060610577004CD076505021305061887E50602076605023385B300876605029306050807E706029306051087E706029306051807E806029306052087E806029306052807E90602D7D6D7029306053057D7E70287E90602D7D7F702076A060257D8070313050538D7D81703876A050257D9270313050620D7D93703076B0502D7DA570313050628D7964603076A05025715A70213050630D795B702076705025716C80213050638D797680307680502D71849035797E9023305BD00A7660502130605082765060213060510A7650602130605182766060213060520A767060213060528A76806021306053057950A0327670602130505389385050227650502E39C95EF81452146E2775775660CB3C6552133C7452107E50602098E27650702AA9565F681451305802933662520139575006A9593060508328757F000CC5735809E577004CD87650702130707025795A502E318D7FE33C54521850587250500D7D505425795A50657F000CD2765050213060608E39DB5FB8145577004CD07650A02D758A79257351033D7B5103357361133D7B6113357371233D7579792D7B4123357D8F602D73713335719004F57B81333D75C2687D738903357B99033D739913357BA9133D73A923357BB9233D73B933357BC93333386BF00876C06021305060893060610076D050287ED060213050618076E050213050620876E050213050628076F050213050630876305023385B300876F05029306050807E30602D7DFF70393060510D79C9F0387EF060257D3670293060518571DA30307E30602D7DFF70393060520D79DBF0387EF060257D3670293060528571EC30307E30602D7DFF70393060530D79EDF0387EF060257D3670213060638D7D2F70313050538D71FE303076F0502D79372020763060257DFE703571F6F025713950B579388A23385B900276305025793A50B571389A213060508276306025713B60B579389A213060510276306025793C60B57138AA213060518276306025713D70B57938AA213060520276306025793F40B57138BA213060528276306025793770A57938BA213060530276306025713E80B57138CA213050538276305023305BB00A76C050213060508276D060213060510A76D060213060518276E060213060520A76E060213060528A76F060213060530A76306021305053893850502276F0502E39E95E793858B0093830340938F0F40938202408507130B0B40938909406145E3EFAB8A81421308010893080002C273814613977200B38572003303E8009E05B307BE009305000257F6750C33C5662033C7F62007640502918D27640702B296E5F58502E39612FD0145130104E1BE701E747E69DE693E6A9E6A7A7BDA7B3A7C9A7C7A6DDA6D7D6182809715000069359385650733F5A50E82800000000000000600000000000000000000000000000000000000000000000000000000000000000000000000000005000000A000000000000000000000000000000000000000000000000000000000000000000000000000000000000000000000000000000000000000000000000000000000000000000000000000000001000000000000000000000000000000000000000000000000000000000000000000000000000000000000000000000000000000000000000000000000000000000000000000000000000000000000000000000000000000000000000000000000000000000000001E000000000000000800000000000000FBFFFF6F000000000100000000000000070000000000000070020000000000000800000000000000200100000000000009000000000000001800000000000000F9FFFF6F000000000C00000000000000060000000000000000020000000000000B000000000000001800000000000000050000000000000048020000000000000A0000000000000023000000000000000400000000000000300200000000000000000000000000000000000000000000011101250E1305030E10171B0EB44219110112060000022E001101120640186E0E030E3A0B3B0B49133F190000032400030E3E0B0B0B0000004B0000000400000000000801D80000002C003300000000000000800000004015000000000000EA080000024015000000000000EA08000001580000000000000000010147000000037C0000000504006D61696E5F6772617068246173796E635F64697370617463685F32305F726564756374696F6E5F333133367833325F663332006D6F64756C655F6D61696E5F6772617068246173796E635F64697370617463685F32305F656D6265646465645F656C665F72697363765F36345F62656E63686D61726B2E6D6C697200696E74002F73637261746368322F6D65726C696E2F73616D706C65732F636F72655F70696E6E696E675F73696E676C655F776F726B6C6F61642F6D6F64656C732F676C7064657074682F6D6F64656C732F62656E63686D61726B73004952454500450000000200000000004F0000002A0000006D61696E5F6772617068246173796E635F64697370617463685F32305F726564756374696F6E5F333133367833325F6633320000000000160000000200000000004F00000047000000696E740000000000413E020000726973637600013402000004100572763634693270315F6D3270305F613270315F663270325F643270325F633270305F623170305F763170305F7A69633634623170305F7A6963626F6D3170305F7A6963626F703170305F7A6963626F7A3170305F7A696363616D6F613170305F7A69636369663170305F7A6963636C736D3170305F7A6963637273653170305F7A69636E74723270305F7A69636F6E643170305F7A696373723270305F7A6966656E6365693270305F7A6968696E7470617573653270305F7A6968706D3270305F7A6D6D756C3170305F7A61363472733170305F7A61616D6F3170305F7A616C7273633170305F7A66683170305F7A66686D696E3170305F7A63613170305F7A63643170305F7A62613170305F7A62623170305F7A62633170305F7A626B633170305F7A62733170305F7A6B743170305F7A76653332663170305F7A76653332783170305F7A76653634643170305F7A76653634663170305F7A76653634783170305F7A7666683170305F7A7666686D696E3170305F7A766B743170305F7A766C313238623170305F7A766C323536623170305F7A766C3332623170305F7A766C3634623170305F737363637074723170305F7373636F66706D663170305F7373636F756E746572656E773170305F737374633170305F73737476616C613170305F737374766563643170305F73766164653170305F7376626172653170305F7376696E76616C3170305F73766E61706F743170305F737670626D743170305F78736D7476646F74317030002B030000040060000000010101FB0E0D000101010100000001000001006D6F64756C655F6D61696E5F6772617068246173796E635F64697370617463685F32305F656D6265646465645F656C665F72697363765F36345F62656E63686D61726B2E6D6C6972000000000000090240150000000000000105100A030D022A01051103224A0510035EF24B84030B4A05114C4B03114A0510036C8205114B4B2F490603629E06033008AC06035008AC0603256606035B028601010603254A06035B9E06032508AC06035B08AC06032566051302501405114805134C05114805134C05114805134C05114805134C05114805134C05114805134C05114805134C05114805134D05114705134D05114705134D05114705134D05114705134D05114705134D05117F051302341505114706035B083C06032B82060355085806032B82051308E605114805134C0511480513300511B8F705138405110373022A01051302481405114805134C05114805134C05114805134C05114805134C05114805134C05114805134C05114805134C05114805134D05114705134D05114705134D05114705134D05114705134D05114705134D05114705134D030B8208E6051102A4010D0603508206032508AC06035B08AC0603252E051302501405114805134C05114805134C05114805134C05114805134C05114805134C05114805134C05114805134C05114805134D05114705134D05114705134D05114705134D05114705134D05114705134D05117F051302341505114706035B083C06032B9E060355085806032B9E051308E605114805134C0511480513300511B8060355F20603382E0513840876484D474E464E05110367022401051302481405114805134D05114705134C05114805134D05114705134C05114805134D05114705134C05114805134D05114705134C05114805134D05114705134C05114805134C05114805134D05114705134D05114705134C4B03134A4F051103784A0513854F051103784A0513854F051103784A0513854F051103784A0513854F051103784A0513854F051103784A0513854F051103784A0513854F051103784A037802500106035008E4060330022801050B031508AC060B2E0220000101495245450000000000000000000000000000000000000000000000000000000000002300000000020900202F000000000000000000000000000001000000120007002A1E0000000000001000000000000000002E64796E73796D002E68617368002E64796E737472002E72656C612E64796E002E726F64617461002E65685F6672616D65002E74657874002E646174612E72656C2E726F002E64796E616D6963002E72656C726F5F70616464696E67002E64656275675F616262726576002E64656275675F696E666F002E64656275675F737472002E64656275675F7075626E616D6573002E64656275675F7075627479706573002E72697363762E61747472696275746573002E64656275675F6C696E65002E636F6D6D656E74002E73796D746162002E7368737472746162002E7374727461620000697265655F68616C5F65786563757461626C655F6C6962726172795F7175657279005F44594E414D49430000000000000000000000000000000000000000000000000000000000000000000000000000000000000000000000000000000000000000000000000000000000010000000B0000000200000000000000000200000000000000020000000000003000000000000000030000000100000008000000000000001800000000000000090000000500000002000000000000003002000000000000300200000000000018000000000000000100000000000000040000000000000004000000000000000F000000030000000200000000000000480200000000000048020000000000002300000000000000000000000000000001000000000000000000000000000000170000000400000002000000000000007002000000000000700200000000000020010000000000000100000000000000080000000000000018000000000000002100000001000000020000000000000090030000000000009003000000000000380100000000000000000000000000001000000000000000000000000000000029000000010000000200000000000000C804000000000000C80400000000000078000000000000000000000000000000080000000000000000000000000000003300000001000000060000000000000040150000000000004005000000000000FA0800000000000000000000000000000200000000000000000000000000000039000000010000000300000000000000402E000000000000400E000000000000E00000000000000000000000000000001000000000000000000000000000000046000000060000000300000000000000202F000000000000200F000000000000C0000000000000000300000000000000080000000000000010000000000000004F000000080000000300000000000000E02F000000000000E00F00000000000020000000000000000000000000000000010000000000000000000000000000005E0000000100000000000000000000000000000000000000E00F00000000000039000000000000000000000000000000010000000000000000000000000000006C000000010000000000000000000000000000000000000019100000000000004F000000000000000000000000000000010000000000000000000000000000007800000001000000300000000000000000000000000000006810000000000000DD00000000000000000000000000000001000000000000000100000000000000830000000100000000000000000000000000000000000000451100000000000049000000000000000000000000000000010000000000000000000000000000009300000001000000000000000000000000000000000000008E110000000000001A00000000000000000000000000000001000000000000000000000000000000A30000000300007000000000000000000000000000000000A8110000000000003F02000000000000000000000000000001000000000000000000000000000000B50000000100000000000000000000000000000000000000E7130000000000002F03000000000000000000000000000001000000000000000000000000000000C1000000010000003000000000000000000000000000000016170000000000000500000000000000000000000000000001000000000000000100000000000000CA000000020000000000000000000000000000000000000020170000000000004800000000000000150000000200000008000000000000001800000000000000D200000003000000000000000000000000000000000000006817000000000000E400000000000000000000000000000001000000000000000000000000000000DC00000003000000000000000000000000000000000000004C180000000000002C00000000000000000000000000000001000000000000000000000000000000"> : vector<7672xi8>, format = "embedded-elf-riscv_64", mime_type = "application/x-elf"}
  }
  util.global private @main_graph$async_dispatch_20_embedded_elf_riscv_64_main_graph$async_dispatch_20_reduction_3136x32_f32_buffer : !hal.buffer
  util.initializer {
    %memory_type = hal.memory_type<"DeviceVisible|DeviceLocal"> : i32
    %buffer_usage = hal.buffer_usage<"TransferSource|TransferTarget|Transfer|DispatchStorageRead|DispatchStorageWrite|DispatchStorage"> : i32
    %c96516096 = arith.constant 96516096 : index
    %c-1_i64 = arith.constant -1 : i64
    %__device_0 = util.global.load immutable @__device_0 : !hal.device
    %allocator = hal.device.allocator<%__device_0 : !hal.device> : !hal.allocator
    %buffer = hal.allocator.allocate<%allocator : !hal.allocator> affinity(%c-1_i64) type(%memory_type) usage(%buffer_usage) : !hal.buffer{%c96516096}
    util.global.store %buffer, @main_graph$async_dispatch_20_embedded_elf_riscv_64_main_graph$async_dispatch_20_reduction_3136x32_f32_buffer : !hal.buffer
    util.return
  }
  util.func public @main_graph$async_dispatch_20_embedded_elf_riscv_64_main_graph$async_dispatch_20_reduction_3136x32_f32(%arg0: i32) attributes {iree.abi.stub, iree.reflection = {iree.benchmark = "dispatch"}} {
    %c-1_i32 = arith.constant -1 : i32
    %0 = util.null : !hal.fence
    %c1 = arith.constant 1 : index
    %c64344064 = arith.constant 64344064 : index
    %c32172032 = arith.constant 32172032 : index
    %c0 = arith.constant 0 : index
    %c1204224_i32 = arith.constant 1204224 : i32
    %c802816_i32 = arith.constant 802816 : i32
    %c401408_i32 = arith.constant 401408 : i32
    %c0_i32 = arith.constant 0 : i32
    %c-1_i64 = arith.constant -1 : i64
    %c98 = arith.constant 98 : index
    %main_graph$async_dispatch_20_embedded_elf_riscv_64_main_graph$async_dispatch_20_reduction_3136x32_f32_buffer = util.global.load immutable @main_graph$async_dispatch_20_embedded_elf_riscv_64_main_graph$async_dispatch_20_reduction_3136x32_f32_buffer : !hal.buffer
    %__device_0 = util.global.load immutable @__device_0 : !hal.device
    %__device_0_executable_0_main_graph$async_dispatch_20 = util.global.load immutable @__device_0_executable_0_main_graph$async_dispatch_20 : !hal.executable
    %1 = arith.index_cast %arg0 : i32 to index
    %cmd = hal.command_buffer.create device(%__device_0 : !hal.device) mode("OneShot|AllowInlineExecution") categories(Dispatch) affinity(%c-1_i64) : !hal.command_buffer
    cf.br ^bb1(%c0 : index)
  ^bb1(%2: index):  // 2 preds: ^bb0, ^bb2
    %3 = arith.cmpi slt, %2, %1 : index
    cf.cond_br %3, ^bb2, ^bb3
  ^bb2:  // pred: ^bb1
    hal.command_buffer.dispatch<%cmd : !hal.command_buffer> target(%__device_0_executable_0_main_graph$async_dispatch_20 : !hal.executable)[%c0] workgroups([%c98, %c1, %c1]) constants([%c0_i32, %c401408_i32, %c802816_i32, %c1204224_i32]) bindings([
      (%main_graph$async_dispatch_20_embedded_elf_riscv_64_main_graph$async_dispatch_20_reduction_3136x32_f32_buffer : !hal.buffer)[%c0, %c32172032], 
      (%main_graph$async_dispatch_20_embedded_elf_riscv_64_main_graph$async_dispatch_20_reduction_3136x32_f32_buffer : !hal.buffer)[%c32172032, %c32172032], 
      (%main_graph$async_dispatch_20_embedded_elf_riscv_64_main_graph$async_dispatch_20_reduction_3136x32_f32_buffer : !hal.buffer)[%c64344064, %c32172032]
    ]) flags("None")
    hal.command_buffer.execution_barrier<%cmd : !hal.command_buffer> source("Dispatch|CommandRetire") target("CommandIssue|Dispatch") flags("None")
    %4 = arith.addi %2, %c1 : index
    cf.br ^bb1(%4 : index)
  ^bb3:  // pred: ^bb1
    hal.command_buffer.finalize<%cmd : !hal.command_buffer>
    %fence = hal.fence.create device(%__device_0 : !hal.device) flags("None") : !hal.fence
    hal.device.queue.execute<%__device_0 : !hal.device> affinity(%c-1_i64) wait(%0) signal(%fence) commands(%cmd) flags("None")
    %status = hal.fence.await until([%fence]) timeout_millis(%c-1_i32) flags("None") : i32
    util.status.check_ok %status, "failed to wait on timepoint"
    util.return
  }
}
