#composite_of_8960b = #util.composite<8960xi8, [
    dense<"0xA4E062BD6F10A2BDF988443C9D175DBDC10D0BBEE2788DBD3D23A9BD501B7A3DA06B673DC090123EF900C63D2A100ABEC0E7D43D7E941CBC25580B3ECD8EBABD075D0E3EA3222C3D1ADEF53D6FAFC0BCE158683DC8F0F03BAD63CBBD0E57183DBEEE97BDDAE7F3BA769EDC3C7374EB3D4E39B33D106142BD382EA7BC892A01BEC026C63D1087BB3DA69D783D32427B3D4213F93D30DA0CBEC15A803DF17AB63D8A1A043EB867E7BDC529363D951A0CBE2FA62C3B565E043E93A9C5BC14469A3B0C6CA6BD2E66EEBD108FEDBDF4DAAA3DF64DA6BD55D2463C0EAE90BD2ECE43BD0402B7BD4844D8BC6FEF45BD8F289ABD724E2DBD35E2F53DD861BDBD345DAF3DBCD10E3E38A27F3C7362293D0C6787BD20FA3CBD035807BE2FA4EEBD66790DBCE11EA53DFADE123EB6D10C3E0BBD13BE6545C63D6335D93D3D61033E6D6313BDFDE110BE6E7C403DBF1E653BF4A2603D250A513D106844BD843DA53D1EE2823DECBBC4BD3035AFBC2A51A63D959BB63D03F5183D25A672BDE20DE33DEA84133EB5EFB1BC290708BEBC93E9BB850E793BAD14FDBDE95801BE330F883DD6C4E83DF8E2F0BD204E84BDFE1802BEC88B8A3C4F33AA3D706DA93CB7B0EF3D6DA8E9BD819AE23D24AF903DC74412BE545F0A3E52894C3D993BAC3D01D7453DAB55D03D34A2373DDDAD8CBD9FFE25BDBEF4CB3D3B399BBDE380CEBD195A2CBD5990CDBDC062AEBDBEE2E2BD96D8543D963567BC07AFE23CE3069F3D99A7013EF655EEBDE95BB5BB57B72BBD1A3AEDBD6ED50C3EA362E2BDBAE2BD3C7886133E4D0F7E3C3EA8F93CAA7AECBD0B22933BF532A0BD3CEE07BE9653ADBD3F8FA6BD9D507EBC8FF6C0BC19C801BE67E590BDA26D3FBC72EEA33D0902DE3D12F202BE97988B3D4FFB15BCD53E803DC446B9BC82C31B3D47FFD4BD581A843D8623133EE83DB6BD58094ABDDC2CE23DEDBC133E3172CE3D21125EBD29347B3D386DFBBDD03723BD11A8B4396362003ECBE981BC8A04A5BC947CC43DA4E7873DC3AFF8BC490EDF3CD3388BBDC1773B3D12F16FBDBECEE1BDB86F18BDB030243CD6E4E2BDCF2D7B3C"> : tensor<4x3x4x4xf32>,
    dense<"0x8800513D90CB91BC000000000000000000000000000000000000000000000000587D7D3D8CE6C33C000000000000000000000000000000000000000000000000A2654FBDA4CA443D00000000000000000000000000000000000000000000000092003D3D002AF3BA000000000000000000000000000000000000000000000000A051473D3C04263D0000000000000000000000000000000000000000000000005EC04ABD189B60BD0000000000000000000000000000000000000000000000006A8B0CBDF0CA64BD00000000000000000000000000000000000000000000000024D915BD445727BD000000000000000000000000000000000000000000000000D8974D3C14997DBD0000000000000000000000000000000000000000000000001029F3BBF8602ABC0000000000000000000000000000000000000000000000002C48AA3CDE5269BD00000000000000000000000000000000000000000000000080DC47BC4433B43C0000000000000000000000000000000000000000000000004AEF113D9CD882BC000000000000000000000000000000000000000000000000384EB23CF4408BBC00000000000000000000000000000000000000000000000004E760BDDAB55B3D000000000000000000000000000000000000000000000000F845C4BCA040893C000000000000000000000000000000000000000000000000943F593D647796BC000000000000000000000000000000000000000000000000B29F1BBD307FF4BC0000000000000000000000000000000000000000000000004827E53C08B0493D000000000000000000000000000000000000000000000000C6975F3DA0831EBC000000000000000000000000000000000000000000000000BCD0F43C58B62B3C000000000000000000000000000000000000000000000000143D94BCE43A2F3D000000000000000000000000000000000000000000000000A0745B3B4088CE3C0000000000000000000000000000000000000000000000006CB6843C300CDCBC00000000000000000000000000000000000000000000000070D1EA3CA29D57BD000000000000000000000000000000000000000000000000C06C15BC82A8543D000000000000000000000000000000000000000000000000708A483D001CA439000000000000000000000000000000000000000000000000E8501FBC963745BD000000000000000000000000000000000000000000000000004CD838D42CD13C000000000000000000000000000000000000000000000000807BB4BC809D2C3B000000000000000000000000000000000000000000000000D877703D941CEFBC00000000000000000000000000000000000000000000000034F2A8BC660A24BD000000000000000000000000000000000000000000000000740C093D56D8463D00000000000000000000000000000000000000000000000030D68F3C402C03BC000000000000000000000000000000000000000000000000C0DDAFBAA4FEFB3C0000000000000000000000000000000000000000000000006884F53C80C2F4BC00000000000000000000000000000000000000000000000094BFA7BC9CF60DBD0000000000000000000000000000000000000000000000008A3E1CBD60C9453B0000000000000000000000000000000000000000000000008062753AC0F334BB000000000000000000000000000000000000000000000000F065543C3C3422BD00000000000000000000000000000000000000000000000064FF76BD5A1E3D3D0000000000000000000000000000000000000000000000001436253DC025353B000000000000000000000000000000000000000000000000ACB803BD14372ABD0000000000000000000000000000000000000000000000003050A73B0AE554BD000000000000000000000000000000000000000000000000520D423DA8D50EBC00000000000000000000000000000000000000000000000074A2C5BC7098503D000000000000000000000000000000000000000000000000A4C8D53CD81685BC00000000000000000000000000000000000000000000000000CC223C7CB2AA3C00000000000000000000000000000000000000000000000040621ABD7A75653D000000000000000000000000000000000000000000000000C029CEBB3048CD3B000000000000000000000000000000000000000000000000D8D22F3DF030623D00000000000000000000000000000000000000000000000054F4E0BC66332A3D000000000000000000000000000000000000000000000000784F63BD4A46123D000000000000000000000000000000000000000000000000A04B4F3CF000033D0000000000000000000000000000000000000000000000000277443DC49378BD000000000000000000000000000000000000000000000000804CD73A364E323D000000000000000000000000000000000000000000000000603F71BDF8D60E3C000000000000000000000000000000000000000000000000145A563D8092AA3C000000000000000000000000000000000000000000000000ACF850BDC2E5013D0000000000000000000000000000000000000000000000003AE1023D5C4C85BC000000000000000000000000000000000000000000000000FC9A4ABD942F453D00000000000000000000000000000000000000000000000080BA4A3CE06A6BBC000000000000000000000000000000000000000000000000BC508BBCAA0A4ABD0000000000000000000000000000000000000000000000000CE1B13C9A086ABD0000000000000000000000000000000000000000000000004C15F6BCDE273E3D00000000000000000000000000000000000000000000000008FBF0BC3CECB4BC000000000000000000000000000000000000000000000000F09F1CBD0C2A883C000000000000000000000000000000000000000000000000B4A1ED3C40D16DBB0000000000000000000000000000000000000000000000003024133D90FFAABC0000000000000000000000000000000000000000000000005AA269BD247B9ABC000000000000000000000000000000000000000000000000D0E22E3C30F3A23C00000000000000000000000000000000000000000000000052486DBD04853B3D0000000000000000000000000000000000000000000000008CFBC73CEC42683D0000000000000000000000000000000000000000000000008403EA3CC87E83BC0000000000000000000000000000000000000000000000005884F4BC381C123D000000000000000000000000000000000000000000000000CA397C3D2CA2CB3C000000000000000000000000000000000000000000000000A6E569BDFA8050BD000000000000000000000000000000000000000000000000168A00BD8A23213D000000000000000000000000000000000000000000000000BEDA6FBD86CF2CBD0000000000000000000000000000000000000000000000009E5654BD3443393D000000000000000000000000000000000000000000000000346AC7BC345A883C000000000000000000000000000000000000000000000000205D3FBC48CC263C000000000000000000000000000000000000000000000000B053063D1AF131BD000000000000000000000000000000000000000000000000BCAA7EBD9E753FBD000000000000000000000000000000000000000000000000D03EABBCE07FB43B000000000000000000000000000000000000000000000000844339BD84D745BD000000000000000000000000000000000000000000000000463A093D986AD23C0000000000000000000000000000000000000000000000008CB5243DA8EC293C00000000000000000000000000000000000000000000000092827EBDB2E0623D000000000000000000000000000000000000000000000000508DE9BC28597ABC000000000000000000000000000000000000000000000000FA7C22BD260F42BD000000000000000000000000000000000000000000000000D46FCD3CC86108BD000000000000000000000000000000000000000000000000B00D78BC18D3443C000000000000000000000000000000000000000000000000A8693A3DA074933C000000000000000000000000000000000000000000000000682370BC98E83C3D00000000000000000000000000000000000000000000000090D04A3C5CE0DC3C000000000000000000000000000000000000000000000000FC473C3D8C3D77BD00000000000000000000000000000000000000000000000060AE9CBCD6A0403D000000000000000000000000000000000000000000000000A00DDEBC9E2912BD000000000000000000000000000000000000000000000000F0D05CBC90A8A2BB000000000000000000000000000000000000000000000000207FB3BB7C6582BC000000000000000000000000000000000000000000000000D4F8AF3C286B4E3D000000000000000000000000000000000000000000000000001692391E7F39BD0000000000000000000000000000000000000000000000008CCC453D2CF021BD000000000000000000000000000000000000000000000000E4F2F0BCFC8522BD000000000000000000000000000000000000000000000000FAF1543DE450A9BC000000000000000000000000000000000000000000000000B06BEFBBEC98423D000000000000000000000000000000000000000000000000FCAF4C3D80467EBB000000000000000000000000000000000000000000000000D431B3BC48F6513D000000000000000000000000000000000000000000000000380B45BCBE02133D00000000000000000000000000000000000000000000000060DB6B3C209CAABC00000000000000000000000000000000000000000000000068393EBD605606BD000000000000000000000000000000000000000000000000E89CA3BC1612323D0000000000000000000000000000000000000000000000001C98483DB07D673D000000000000000000000000000000000000000000000000906A57BDE4FEB9BC000000000000000000000000000000000000000000000000B0ABA7BB801A75BA000000000000000000000000000000000000000000000000524D343DE4CE34BD000000000000000000000000000000000000000000000000426074BD1E605B3D0000000000000000000000000000000000000000000000005469393D40B1B9BC0000000000000000000000000000000000000000000000000A9922BD566C2E3D00000000000000000000000000000000000000000000000030418DBBA8EB253C000000000000000000000000000000000000000000000000924119BD60578DBC0000000000000000000000000000000000000000000000003422D0BC1004BC3C000000000000000000000000000000000000000000000000003D443C40AF1EBC0000000000000000000000000000000000000000000000004CEAFBBC30F9FA3C0000000000000000000000000000000000000000000000001C339EBC00B1B03C000000000000000000000000000000000000000000000000E468143DB49A883C0000000000000000000000000000000000000000000000008C10B3BC1C46773D000000000000000000000000000000000000000000000000C0638BBA969343BD000000000000000000000000000000000000000000000000C2C61BBD20A0723D0000000000000000000000000000000000000000000000001C30103D7066E13C00000000000000000000000000000000000000000000000020BD7A3BD82628BD000000000000000000000000000000000000000000000000B84FE63C5A261B3D0000000000000000000000000000000000000000000000002082DD3CB6A71DBD00000000000000000000000000000000000000000000000046C3533D3C313A3D0000000000000000000000000000000000000000000000008CE002BDD883503C00000000000000000000000000000000000000000000000064017BBD50AA98BB00000000000000000000000000000000000000000000000028BB283C18A27FBC00000000000000000000000000000000000000000000000000041B3B10D43B3C00000000000000000000000000000000000000000000000002972B3DDA8C28BD00000000000000000000000000000000000000000000000030A4BCBB441643BD00000000000000000000000000000000000000000000000020FD2BBD00E3A1B9000000000000000000000000000000000000000000000000800423BDFC7985BC000000000000000000000000000000000000000000000000BE2239BD98C5B3BC000000000000000000000000000000000000000000000000380718BDC090DBBA000000000000000000000000000000000000000000000000F0E03ABC4A9229BD000000000000000000000000000000000000000000000000004E6F3D120C173D000000000000000000000000000000000000000000000000389E4B3D609F59BB000000000000000000000000000000000000000000000000A22B6BBD48CA643D0000000000000000000000000000000000000000000000001079B3BBF871A53C0000000000000000000000000000000000000000000000003C6BD43C16E219BD000000000000000000000000000000000000000000000000C6E800BD148F2BBD000000000000000000000000000000000000000000000000E02908BC34CDA23C00000000000000000000000000000000000000000000000000E9FF3B861F623D00000000000000000000000000000000000000000000000010E4E13BACCD54BD000000000000000000000000000000000000000000000000C06F643CF06597BB000000000000000000000000000000000000000000000000741A25BD8E4E23BD0000000000000000000000000000000000000000000000001A8262BDA00B003C000000000000000000000000000000000000000000000000CA2C3EBDF41F04BD000000000000000000000000000000000000000000000000F05950BC305165BC000000000000000000000000000000000000000000000000A8083E3CD61610BD0000000000000000000000000000000000000000000000007CF8D43CA84945BD000000000000000000000000000000000000000000000000D8EFC23C2CDF8EBC00000000000000000000000000000000000000000000000074D8AEBC283C903C000000000000000000000000000000000000000000000000F0230BBD60AB12BB000000000000000000000000000000000000000000000000F23F04BDAC108BBC000000000000000000000000000000000000000000000000683D2EBC7A225B3D000000000000000000000000000000000000000000000000806062BD6C1F1DBD000000000000000000000000000000000000000000000000905DFEBCF0CF34BC000000000000000000000000000000000000000000000000A092D33B3068CD3C000000000000000000000000000000000000000000000000303A593C542BF33C0000000000000000000000000000000000000000000000004EC0283DC8C9773D00000000000000000000000000000000000000000000000028A6763CFA6533BD0000000000000000000000000000000000000000000000003E72263D34CE093D000000000000000000000000000000000000000000000000B43E5F3DC0B5C13A0000000000000000000000000000000000000000000000007A4F0DBD0CF3BCBC000000000000000000000000000000000000000000000000A69403BDEEC353BD00000000000000000000000000000000000000000000000010EE85BCE09CA8BB000000000000000000000000000000000000000000000000C02FC8BC903EBDBB000000000000000000000000000000000000000000000000D8EB833CE022673C0000000000000000000000000000000000000000000000006059CF3BB01F36BC0000000000000000000000000000000000000000000000005411373D926E323D000000000000000000000000000000000000000000000000A042B03CD42E5B3D0000000000000000000000000000000000000000000000008CF34B3DFA0558BD000000000000000000000000000000000000000000000000707A733CE82261BD000000000000000000000000000000000000000000000000D039963C580BC23C000000000000000000000000000000000000000000000000E8E4523C209137BD00000000000000000000000000000000000000000000000036B02E3DC0E501BD0000000000000000000000000000000000000000000000009C30823C6414BCBC00000000000000000000000000000000000000000000000002FE05BD00207D39000000000000000000000000000000000000000000000000903EDA3C6A31253D000000000000000000000000000000000000000000000000388DCABC7AB8473D0000000000000000000000000000000000000000000000006008DDBB40075FBB00000000000000000000000000000000000000000000000030D8233D2C91D13C000000000000000000000000000000000000000000000000E8A42A3D00BF543D000000000000000000000000000000000000000000000000D461E8BC34AEF8BC00000000000000000000000000000000000000000000000060F833BC4EC812BD000000000000000000000000000000000000000000000000C024963CA492E53C0000000000000000000000000000000000000000000000008E8175BD3A5F123D000000000000000000000000000000000000000000000000602F9EBCB8F076BD0000000000000000000000000000000000000000000000004031E73AAC737C3D000000000000000000000000000000000000000000000000A8B72F3C00F62FBA00000000000000000000000000000000000000000000000008CB653D607246BD000000000000000000000000000000000000000000000000D4D5743DEACF5FBD000000000000000000000000000000000000000000000000DC687E3DF4ECC03C000000000000000000000000000000000000000000000000D040763C387581BC0000000000000000000000000000000000000000000000005018A3BC5A102A3D0000000000000000000000000000000000000000000000008E4A143D80473E3D000000000000000000000000000000000000000000000000B87248BD906ADA3C0000000000000000000000000000000000000000000000008E4D743DD8C9103C000000000000000000000000000000000000000000000000529341BDDED3153D0000000000000000000000000000000000000000000000000EF84A3DB07346BD000000000000000000000000000000000000000000000000D86C4B3C44633BBD00000000000000000000000000000000000000000000000040CC753C8034B13A000000000000000000000000000000000000000000000000C0E9BA3C4499FB3C000000000000000000000000000000000000000000000000CA3C193D340918BD000000000000000000000000000000000000000000000000C20A473D3ADC7FBD00000000000000000000000000000000000000000000000050951EBD52504F3D000000000000000000000000000000000000000000000000CC96B5BC00B29BBC00000000000000000000000000000000000000000000000056466B3DB4B6763D000000000000000000000000000000000000000000000000A82472BD7C7C3CBD00000000000000000000000000000000000000000000000050AA513C50CFB7BB0000000000000000000000000000000000000000000000007A9E1FBD78CB5ABD000000000000000000000000000000000000000000000000104486BBA0F314BB0000000000000000000000000000000000000000000000001052A23CB81EB33C000000000000000000000000000000000000000000000000D2DD79BDD098BF3B000000000000000000000000000000000000000000000000B00EB6BC7436F63C00000000000000000000000000000000000000000000000036CC2CBDB227063D000000000000000000000000000000000000000000000000E80470BD4C7F333D000000000000000000000000000000000000000000000000181468BDC032EEBC00000000000000000000000000000000000000000000000008D17DBDBAED04BD000000000000000000000000000000000000000000000000B83743BCCC41793D0000000000000000000000000000000000000000000000005073AEBB90E485BC0000000000000000000000000000000000000000000000007410A83CD0B733BD000000000000000000000000000000000000000000000000842BA93C307145BD000000000000000000000000000000000000000000000000D822EABC10D5F23B00000000000000000000000000000000000000000000000040CB9CBAC84ED03C000000000000000000000000000000000000000000000000C490903C54F9D13C000000000000000000000000000000000000000000000000EC2A21BD3078423D00000000000000000000000000000000000000000000000006D552BD24DEF3BC000000000000000000000000000000000000000000000000B4F1E03CB84EAF3C0000000000000000000000000000000000000000000000003C6945BD584FE7BC000000000000000000000000000000000000000000000000E25B72BDFC47E1BC00000000000000000000000000000000000000000000000048436D3C0C59953C000000000000000000000000000000000000000000000000E039593C10E12E3C00000000000000000000000000000000000000000000000062141EBD40AE8D3A0000000000000000000000000000000000000000000000003E6835BDDC59153D000000000000000000000000000000000000000000000000A8D1D1BCB84666BC000000000000000000000000000000000000000000000000F01CD0BC8E400ABD000000000000000000000000000000000000000000000000C0821EBB48A9093D000000000000000000000000000000000000000000000000006213BCC437EDBC00000000000000000000000000000000000000000000000070DA8CBCFC62CB3C000000000000000000000000000000000000000000000000B4C42ABDB81824BC000000000000000000000000000000000000000000000000B24E32BD50865EBD000000000000000000000000000000000000000000000000743147BD2C6B9A3C000000000000000000000000000000000000000000000000E0466A3B001C06BB000000000000000000000000000000000000000000000000"> : tensor<1x256x8x1xf32>,
]>
module {
  hal.executable private @static_trace_linked {
    hal.executable.binary public @embedded_elf_x86_64 attributes {data = dense<"0x7F454C4602010100000000000000000003003E000100000000000000000000004000000000000000F8560000000000000000000040003800070040001500130006000000040000004000000000000000400000000000000040000000000000008801000000000000880100000000000008000000000000000100000004000000000000000000000000000000000000000000000000000000C81C000000000000C81C00000000000000100000000000000100000005000000D01C000000000000D02C000000000000D02C00000000000041150000000000004115000000000000001000000000000001000000060000002032000000000000205200000000000020520000000000001806000000000000E00D00000000000000100000000000000200000006000000783700000000000078570000000000007857000000000000C000000000000000C000000000000000080000000000000052E57464040000002032000000000000205200000000000020520000000000001806000000000000E00D000000000000010000000000000051E574640600000000000000000000000000000000000000000000000000000000000000000000000000000000000000000000000000000000000000000000000000000000000000000000000000000001000000120007000042000000000000110000000000000002000000020000000000000001000000000000000000000000697265655F68616C5F65786563757461626C655F6C6962726172795F717565727900000000000028520000000000000800000000000000E80E00000000000040520000000000000800000000000000D02C00000000000048520000000000000800000000000000702F00000000000050520000000000000800000000000000103000000000000058520000000000000800000000000000D03100000000000060520000000000000800000000000000F03200000000000068520000000000000800000000000000803300000000000070520000000000000800000000000000A03700000000000078520000000000000800000000000000003800000000000080520000000000000800000000000000B03A00000000000088520000000000000800000000000000E03A00000000000090520000000000000800000000000000103B00000000000098520000000000000800000000000000403B000000000000A0520000000000000800000000000000703B000000000000A8520000000000000800000000000000A03B000000000000B0520000000000000800000000000000D03B000000000000B8520000000000000800000000000000B03C000000000000C0520000000000000800000000000000303D000000000000C8520000000000000800000000000000803D000000000000D0520000000000000800000000000000B03D000000000000D85200000000000008000000000000001041000000000000E05200000000000008000000000000004041000000000000E8520000000000000800000000000000A041000000000000F05200000000000008000000000000003015000000000000F85200000000000008000000000000006215000000000000005300000000000008000000000000008A1500000000000008530000000000000800000000000000BD1500000000000010530000000000000800000000000000EC1500000000000018530000000000000800000000000000201600000000000020530000000000000800000000000000521600000000000028530000000000000800000000000000891600000000000030530000000000000800000000000000BB1600000000000038530000000000000800000000000000F316000000000000405300000000000008000000000000002517000000000000485300000000000008000000000000005E1700000000000050530000000000000800000000000000911700000000000058530000000000000800000000000000C41700000000000060530000000000000800000000000000F717000000000000685300000000000008000000000000002D1800000000000070530000000000000800000000000000601800000000000078530000000000000800000000000000961800000000000080530000000000000800000000000000C51800000000000088530000000000000800000000000000F918000000000000905300000000000008000000000000002919000000000000985300000000000008000000000000006619000000000000A8530000000000000800000000000000A219000000000000B8530000000000000800000000000000A219000000000000C8530000000000000800000000000000A219000000000000D8530000000000000800000000000000A219000000000000E8530000000000000800000000000000A219000000000000F8530000000000000800000000000000A21900000000000008540000000000000800000000000000A21900000000000018540000000000000800000000000000A21900000000000028540000000000000800000000000000A21900000000000038540000000000000800000000000000A21900000000000048540000000000000800000000000000A21900000000000058540000000000000800000000000000A21900000000000068540000000000000800000000000000A21900000000000078540000000000000800000000000000A21900000000000088540000000000000800000000000000A21900000000000098540000000000000800000000000000A219000000000000A8540000000000000800000000000000A219000000000000B8540000000000000800000000000000A219000000000000C8540000000000000800000000000000A219000000000000D8540000000000000800000000000000A219000000000000E8540000000000000800000000000000A219000000000000F8540000000000000800000000000000A21900000000000008550000000000000800000000000000B81900000000000010550000000000000800000000000000B81900000000000020550000000000000800000000000000B81900000000000028550000000000000800000000000000B81900000000000038550000000000000800000000000000B81900000000000040550000000000000800000000000000B81900000000000050550000000000000800000000000000B81900000000000058550000000000000800000000000000B81900000000000068550000000000000800000000000000B81900000000000070550000000000000800000000000000B81900000000000080550000000000000800000000000000B81900000000000088550000000000000800000000000000B81900000000000098550000000000000800000000000000B819000000000000A0550000000000000800000000000000B819000000000000B0550000000000000800000000000000B819000000000000B8550000000000000800000000000000B819000000000000C8550000000000000800000000000000B819000000000000D0550000000000000800000000000000B819000000000000E0550000000000000800000000000000B819000000000000E8550000000000000800000000000000B819000000000000F8550000000000000800000000000000B81900000000000000560000000000000800000000000000B81900000000000010560000000000000800000000000000B81900000000000018560000000000000800000000000000B81900000000000028560000000000000800000000000000B81900000000000030560000000000000800000000000000B81900000000000040560000000000000800000000000000B81900000000000048560000000000000800000000000000B81900000000000058560000000000000800000000000000B81900000000000060560000000000000800000000000000B81900000000000070560000000000000800000000000000B81900000000000078560000000000000800000000000000B81900000000000088560000000000000800000000000000B81900000000000090560000000000000800000000000000B819000000000000A0560000000000000800000000000000B819000000000000A8560000000000000800000000000000B819000000000000B8560000000000000800000000000000B819000000000000C0560000000000000800000000000000B819000000000000D0560000000000000800000000000000B819000000000000D8560000000000000800000000000000B819000000000000E8560000000000000800000000000000B819000000000000F0560000000000000800000000000000B81900000000000000570000000000000800000000000000B81900000000000008570000000000000800000000000000B81900000000000010570000000000000800000000000000205200000000000030570000000000000800000000000000405200000000000038570000000000000800000000000000000F00000000000040570000000000000800000000000000F05200000000000050570000000000000800000000000000A053000000000000585700000000000008000000000000000055000000000000000000000000000000000000000000000000803F000080FF9888083CA4AA2A3D1300D7B24D638BB4A8383936961050B90000003FCDCC4CBE000000BF00000080DB0FC93F9CABCF37CDCCCC3DABAA2ABE8109B6BABD37863517B7D13883F9223F00000000000000000000000000000000FFFFFFFFFFFFFFFF00000000000000000000000000000000000000000000000000000000CDCCCCBD0000000000000000000000000000000000000000000000000000000000000000000000000000000000000000000000000000000000000000B1E4EEBC94F9973C79C109BD5059043D000000000000000000000000000000000000000000000000000000000000000000000000000000000000000000000000F2F003BD8E5840BD00000000000000000000000000000000000000000000000000000000000000000000000000000000000000000000000000000000000000000000803F398E633F721C473FAAAA2A3FE4380E3F388EE33EAAAAAA3E388E633E388EE33D0000000000000000000000000000000000000000000000000000000000000000398EE33D398E633EABAAAA3E398EE33EE4380E3FABAA2A3F721C473F398E633F0000803F7374617469635F74726163655F6C696E6B656400000000000000000500000000000000000000000000000000000000000000000000000000000000000000000000000000000000000000000000000000000000000000000000000000000000000000000200000000000000000000000000000000000000000000000000000000000000000000000000000000000000000000000000000000000000000000000000000000000000000000000300000000000000000000000000000000000000000000000000000000000000000000000000000000000000000000000000000000000000000000000000000000000000000000000200000000000000000000000000000000000000000000000000000000000000000000000000000000000000000000000000000000000000000000000000000000000000000000000300000000000000000000000000000000000000000000000000000000000000000000000000000000000000000000000000000000000000000000000000000000000000000000040400000000000000000000000000000000000000000000000000000000000000000000000000000000000000000000000000000000000000000000000000000000000000000000000300000000000000000000000000000000000000000000000000000000000000000000000000000000000000000000000000000000000000000000000000000000000000000000030300000000000000000000000000000000000000000000000000000000000000000000000000000000000000000000000000000000000000000000000000000000000000000000020200000000000000000000000000000000000000000000000000000000000000000000000000000000000000000000000000000000000000000000000000000000000000000000020200000000000000000000000000000000000000000000000000000000000000000000000000000000000000000000000000000000000000000000000000000000000000000000020200000000000000000000000000000000000000000000000000000000000000000000000000000000000000000000000000000000000000000000000000000000000000000000020200000000000000000000000000000000000000000000000000000000000000000000000000000000000000000000000000000000000000000000000000000000000000000000030200000000000000000000000000000000000000000000000000000000000000000000000000000000000000000000000000000000000000000000000000000000000000000000020200000000000000000000000000000000000000000000000000000000000000000000000000000000000000000000000000000000000000000000000000000000000000000000040200000000000000000000000000000000000000000000000000000000000000000000000000000000000000000000000000000000000000000000000000000000000000000000030200000000000000000000000000000000000000000000000000000000000000000000000000000000000000000000000000000000000000000000000000000000000000000000030300000000000000000000000000000000000000000000000000000000000000000000000000000000000000000000000000000000000000000000000000000000000000000000000200000000000000000000000000000000000000000000000000000000000000000000000000000000000000000000000000000000000000000000000000000000000000000000000300000000000000000000000000000000000000000000000000000000000000000000000000000000000000000000000000000000000000000000000000000000000000000000000200000000000000000000000000000000000000000000000000000000000000000000000000000000000000000000000000000000000000000000000000000000000000000000000200000000000000000000000000000000000000000000000000000000000000000000000000000000000000000000000000000000000000000000000000000000000000000000000200000000000000000000000000000000000000000000000000000000000000000000000000000000000000000000000000000000000000000000000000000000000000006D61696E5F6772617068246173796E635F64697370617463685F305F656C656D656E74776973655F62726F616463617374006D61696E5F6772617068246173796E635F64697370617463685F315F736C6F775F6D656D637079006D61696E5F6772617068246173796E635F64697370617463685F325F636F6E765F347831367831367833783478345F663332006D61696E5F6772617068246173796E635F64697370617463685F335F636F6E765F3478387838783278325F663332006D61696E5F6772617068246173796E635F64697370617463685F345F6D6D7434645F317831783235367831783878315F663332006D61696E5F6772617068246173796E635F64697370617463685F355F656C656D656E74776973655F62726F616463617374006D61696E5F6772617068246173796E635F64697370617463685F365F756E7061636B5F656C656D656E74776973655F3178325F663332006D61696E5F6772617068246173796E635F64697370617463685F375F656C656D656E74776973655F62726F616463617374006D61696E5F6772617068246173796E635F64697370617463685F385F656C656D656E74776973655F62726F6164636173745F325F663332006D61696E5F6772617068246173796E635F64697370617463685F395F656C656D656E74776973655F62726F616463617374006D61696E5F6772617068246173796E635F64697370617463685F31305F656C656D656E74776973655F62726F6164636173745F325F663332006D61696E5F6772617068246173796E635F64697370617463685F31315F656C656D656E74776973655F62726F616463617374006D61696E5F6772617068246173796E635F64697370617463685F31325F656C656D656E74776973655F62726F616463617374006D61696E5F6772617068246173796E635F64697370617463685F31335F656C656D656E74776973655F62726F616463617374006D61696E5F6772617068246173796E635F64697370617463685F31345F656C656D656E74776973655F3278325F6633325F7061636B006D61696E5F6772617068246173796E635F64697370617463685F31355F6D6D7434645F31783178327831783878315F663332006D61696E5F6772617068246173796E635F64697370617463685F31365F756E7061636B5F656C656D656E74776973655F325F663332006D61696E5F6772617068246173796E635F64697370617463685F31385F656C656D656E74776973655F325F663332006D61696E5F6772617068246173796E635F64697370617463685F3131335F656C656D656E74776973655F62726F616463617374006D61696E5F6772617068246173796E635F64697370617463685F3131345F656C656D656E74776973655F325F663332006D61696E5F6772617068246173796E635F64697370617463685F3131355F656C656D656E74776973655F62726F6164636173745F313078325F663332006D61696E5F6772617068246173796E635F64697370617463685F3131365F656C656D656E74776973655F62726F6164636173745F3978325F663332007374617469635F74726163652E6D6C697200000000001400000000000000017A5200017810011B0C070890010000200000001C000000F81200009102000000410E108602430D060300020C0708410C0610001C00000040000000741500009C00000000410E108602430D0602940C070800002800000060000000F4150000BD01000000410E108602430D065483078C068D058E048F0303A1010C07080000200000008C000000881700001901000000410E108602430D064383048E03030E010C07081C000000B0000000841800008E00000000410E108602430D0602860C0708000020000000D0000000F41800001E04000000410E108602430D06038F030C0708410C0610001C000000F4000000F01C00006000000000410E108602430D0602580C070800002000000014010000301D0000A502000000410E108602430D06031C020C0708410C0610001C00000038010000BC1F00002C00000000410E108602430D06670C07080000001C00000058010000CC1F00002C00000000410E108602430D06670C07080000001C00000078010000DC1F00002D00000000410E108602430D06680C07080000001C00000098010000EC1F00002D00000000410E108602430D06680C07080000001C000000B8010000FC1F00002E00000000410E108602430D06690C07080000001C000000D80100000C2000002D00000000410E108602430D06680C07080000001C000000F80100001C200000D400000000410E108602430D0602CC0C070800001C00000018020000DC2000007100000000410E108602430D0602690C070800001C000000380200003C2100004600000000410E108602430D0602410C070800001C000000580200006C2100002F00000000410E108602430D066A0C070800000020000000780200007C2100005303000000410E108602430D0603C4020C0708410C0610001C0000009C020000B82400002800000000410E108602430D06630C07080000001C000000BC020000C82400005900000000410E108602430D0602540C070800001C000000DC020000082500005D00000000410E108602430D0602580C0708000010000000FC020000482500001100000000000000000000000000000000000000554889E5488B5620C5FA1005A8E0FFFFC5FA101D88E0FFFFC5FA100D50E0FFFF488B0A488B4208C57A5929C57A597904C4C1025CD5C5EA58D2C5EA59154FE0FFFFC56A587008C58A59156EE0FFFFC4E3690AD209C46269BDF3C5FA2CF2C57829F240F6C6010F859A010000C5FA102539E0FFFFC57A10151DE0FFFF0F859E010000C5FA102DEFDFFFFFC57A101DEBDFFFFF0F85A2010000C5FA103DEDDFFFFFC57A100509E0FFFF0F85A6010000C5FA1035D3DFFFFFC57A100DE7DFFFFF0F85AA010000C4411258E7C57A103DB0DFFFFFC57A102DACDFFFFF7405C4417828FDC4410A59F6C51A5925A4DFFFFF488B7A20C46209A9FEC5F828F1C46209A9FFC46209A9FDC46209A9FCC46209A9F9C46279183586DFFFFFC58259D240F6C6027404C58857D2C4E219A95004488B7210488B5218C5FA115704C5FA5921C5FA596904C5DA58D5C5D25CE4C5DA58E4C5DA59253CDFFFFFC5DA586008C5DA592D5BDFFFFFC4E3510AED09C57A2CC5C4E251ADDCC5F828E64489C783E703FFCF41F6C001742CC57A101522DFFFFFC57A101DE6DEFFFFC57A1005F2DEFFFFC57A100DE6DEFFFFC57A102DD6DEFFFFC5F828E3C5EA590DDADEFFFFC5E259D3C44269B9CDC44269A9C8C44269A9CBC44269A9CAC46269A9CEC5B259D483FF027304C58857D2C4E271A910C5FA1112C5FA5909C4E279BB4904C5F258C1C5FA58400831C0C5FA1146085DC3C5F828D1C5FA10259BDEFFFFC57A10157FDEFFFF0F8462FEFFFFC57829D4C5FA102D4DDEFFFFC57A101D49DEFFFF0F845EFEFFFFC57829DDC5FA103D47DEFFFFC57A100563DEFFFF0F845AFEFFFFC57829C7C5FA103529DEFFFFC57A100D3DDEFFFF0F8456FEFFFFC57829CEC4411258E7C57A103D02DEFFFFC57A102DFEDDFFFF0F854EFEFFFFE94EFEFFFFCCCCCCCCCCCCCCCCCCCCCCCCCCCCCC554889E5488B4E208B02488B71084869D00021000048C1E00D480301488D8C320C01000031D2662E0F1F8400000000004889CE4889C74531C00F1F800000000049C7C1F8FFFFFF660F1F840000000000C4A17C28448F20C4A17C11448E204983C1084983F93872E849FFC04881C7000100004881C6080100004983F82075C148FFC24805004000004881C1104400004883FA03759B31C05DC5F877C3CCCCCCCC554889E54157415641554154534883E4C04881EC000100008B3A488B7620C5F857C089FAC1EA024189F84183E00383E7FC488D04524969C88010000048C1E20A4803561048030E41C1E00848C1E00648034608488D3596DDFFFFC5FC29842480000000C4E27D180C3731FF498D941040CC000048895424300F1F84000000000048897C243848C1E70648037C243041B0014531C96666662E0F1F84000000000031D266666666662E0F1F840000000000C5FA10949480000000C5FA1154944048FFC24883FA0875E84D89CA49C1E2044989C331DB4901CA660F1F8400000000004D89DE4D89D74531E40F1F80000000004D89FD31D266662E0F1F840000000000C5FA1054944031F60F1F840000000000C4C17A105CB500C4C261B914B648FFC64883FE0475EAC5FA1154944048FFC24983C5104883FA0875C749FFC44981C7080100004983C6104983FC0475A348FFC34981C2104400004983C3404883FB030F857BFFFFFFC5F458542440C5ECC2D806C5E454D2C4A17C29148F41B90800000041F6C00141B8000000000F8510FFFFFF488B7C24384881C12004000048FFC74883FF040F85D7FEFFFF31C0488D65D85B415C415D415E415F5DC5F877C3CCCCCC554889E54156538B0A488B4620C4E27D18055EDBFFFFC5F057C989CAC1EA0283E1034889D648C1E60A48033048C1E2084803500889C8C1E108C1E006488D8C3140CC00004801D0B20131F6EB160F1F00BE01000000F6C201BA000000000F84AC0000004989F049C1E00548C1E6074531C94A8D3C00C4A17C2904004801CE41B001EB1F666666662E0F1F84000000000041B94000000041F6C00141B80000000074AE4901F14531D2EB0F660F1F44000049FFC24983FA0874D7C4A17A1014974F8D1CD1B3014531F6EB20660F1F440000C4A17A111C9741BE01000000C5F828D3F6C301BB0000000074C6C4817A101CB3C5EAC2E302C5E2C2E903C5D056E4C4C1797EE641F6C60175C7C5F828DAEBC131C05B415E5DC5F877C3CCCCCCCCCCCCCC554889E5488B4E20C5F857C031F6488B01488B5108488B49100F0D89800400000F18080F188A000300004881C1800400004881C2000300000F1F840000000000C4E27D180C30C4E27D980CF2C4E27D18443004C4E2759844F220C4E27D184C3008C4E27D984CF240C4E27D1844300CC4E2759844F2604883C6104881FE0004000075BDC5FC110131C05DC5F877C3CCCC554889E5488B7E184C8B4620C5FA1025F8D9FFFFC5FA100DD4D9FFFFC57A103D9CD9FFFF8B0F498B308B47048B5708448B4F0C83E1FC83E0FC83E2FC4183E1FCC57A10340EC50A58640E04C59A59C4C4E3790AC009C57A2CD0C46279BDE14489D783E703FFCF41F6C2010F8524030000C5FA102D70D9FFFFC5FA10157CD9FFFF0F8529030000C57A10053ED9FFFFC57A100D32D9FFFF0F852D030000C57A10155CD9FFFFC57A102D30D9FFFF0F8532030000C5FA10353AD9FFFFC5FA103D16D9FFFF0F8537030000C5FA101D04D9FFFFC5FA1005F8D8FFFF7404C5F828D8C4411A59DCC46279182500D9FFFFC4E221A9DEC4C221A9DAC4C221A9D8C4E221A9DDC4E221A91DB7D8FFFFC50259FB83FF027305C4410057FCC58A59DCC5FA102D9DD8FFFFC57A1005BDD8FFFFC5FA1035CDD8FFFFC57A1015B9D8FFFFC57A101D91D8FFFFC4E3610ADB09C57A2CD3C46261BDF1C5FA101D72D8FFFF4489D783E703FFCF41F6C2017418C57829F5C57828C2C57829CBC57829EEC57828D7C57828D8C4410A59F64D8B5018C44209B9D3C46209A9D6C46209A9D3C44209A9D0C46209A9151AD8FFFFC5AA59DD83FF027304C59857DBC58258DB498B78084D8B4010C57A1005F9D7FFFFC57A103519D8FFFFC57A1015F5D7FFFFC5FA103521D8FFFFC57A101DEDD7FFFFC4817A111C0AC5FA101C0EC5E2586C0E04C5D259DCC4E3610ADB09C57A2CD3C4E261BDE9C5FA101DE1D7FFFF4589D14183E10341FFC941F6C2017419C57828C5C57828F2C4417828D1C57829EEC5F828DFC57828D8C5D259EDC4C251B9DBC4E251A9DEC4C251A9DAC4C251A9DEC4E251A91D63D7FFFFC5BA59DB4183F9027304C59857DBC4C17A111C10C57828F2C4417828D1C57829EEC57828D8C57A103C0EC50258440E04C5BA59DCC4E3610ADB09C46261BDC1C5FA2CCBC5F828DFC57829C5F6C1017430C5FA102D0BD7FFFFC57A10352BD7FFFFC57A101507D7FFFFC5FA103533D7FFFFC5FA101D1FD7FFFFC57A101DF7D6FFFFC4413A59C0C4C239B9DBC4E239A9DEC4C239A9DAC4C239A9DEC4E239A91DC1D6FFFFC55259F3F6C1027405C4410857F4C58259DCC4E3610ADB09C4C261ADCFC5FA2CCBC5F828E1F6C1017430C5FA10258FD6FFFFC5FA1015AFD6FFFFC57A100D8BD6FFFFC57A102DB7D6FFFFC5FA103DA3D6FFFFC5FA10057BD6FFFFC5F259C9C4E271B9F8C4C271A9FDC4C271A9F9C4E271A9FAC4E271A93D46D6FFFFC5DA59C7F6C1027404C59857C0C58A58C0C5FA11040731C05DC3C4417828FCC5FA102D47D6FFFFC5FA101553D6FFFF0F84D7FCFFFFC5F828EAC57A100511D6FFFFC57A100D05D6FFFF0F84D3FCFFFFC4417828C1C57A10152AD6FFFFC57A102DFED5FFFF0F84CEFCFFFFC4417828D5C5FA103503D6FFFFC5FA103DDFD5FFFF0F84C9FCFFFFC5F828F7C5FA101DC9D5FFFFC5FA1005BDD5FFFF0F85C1FCFFFFE9C0FCFFFFCCCC554889E54883E4C04883EC40488B4620C5FC280DE8D5FFFF488B08488B5008488B4010C5FC288180040000C4E2752E0424C5FB100424C5FB1009C5F858055ED6FFFFC5F85CC9C5F8138280000000C5F81388C000000031C04889EC5DC5F877C3554889E5488B7E18488B5620C5FA100D5CD5FFFF8B0F8B47048B7708488B3A83E1FC83E0FC83E6FCC57A102C0FC51258640F04C59A590551D5FFFFC4E3790AC009C46279BDE1C57A2CC0C5FA1005EED4FFFFC4417828FC41F6C0010F85C0010000C5FA102D13D5FFFFC5F828D50F85C4010000C57A100DCDD4FFFFC57829CB0F85CC010000C57A1035CFD4FFFFC57829F70F85D4010000C57A1015B9D4FFFFC4417828C20F85DC010000C5FA10259ED4FFFFC5F828F47408C5FA103594D4FFFFC4411A59DCC4627918259ED4FFFFC4C221A9F0C4E221A9F7C4E221A9F3C4E221A9F2C4E221A9F0C50259FE41F6C0027405C4410057FCC59259158ED4FFFFC5F828DDC4417828C1C57829F6C57829D7C57828DCC4E3690AD209C46269BDE9C57A2CC2C57829EA41F6C001742CC5FA101D34D4FFFFC57A100510D4FFFFC5FA10353CD4FFFFC5FA103D28D4FFFFC57A101D00D4FFFFC5F828D0C4411259ED4C8B4A10C4C211B9FBC4E211A9FEC4C211A9F8C4E211A9FBC4E211A9F8C5EA59D741F6C0027504C59857D2C4C16A5CD7488B5208C4C17A111431C5FA10140FC5EA58540F04C5EA591DE2D3FFFFC4E3610ADB09C4E261ADCAC5FA2CCBC5F828D1F6C101742CC5FA102D9ED3FFFFC57A100D7AD3FFFFC57A1035A6D3FFFFC57A101592D3FFFFC5FA10256AD3FFFFC5F828D0C5F259C9C46271B9D4C44271A9D6C44271A9D1C46271A9D5C46271A9D0C5AA59C2F6C1027504C59857C0C5FA11040231C05DC3C57828F8C5FA102D4FD3FFFFC5F828D50F843CFEFFFFC5FA101529D3FFFFC57A100D01D3FFFFC57829CB0F8434FEFFFFC5FA101DF3D2FFFFC57A1035FBD2FFFFC57829F70F842CFEFFFFC5FA103D0DD3FFFFC57A1015DDD2FFFFC4417828C20F8424FEFFFFC57A1005E6D2FFFFC5FA1025BAD2FFFFC5F828F40F8518FEFFFFE91BFEFFFFCCCCCCCCCCCCCCCCCCCCCC554889E5488B4618488B4E208B10488B318B4004488B490883E2FC83E0FCC5FB100416C5FB11040131C05DC3CCCCCCCC554889E5488B4618488B4E208B10488B318B4004488B490883E2FC83E0FCC5FA100416C5FA11040131C05DC3CCCCCCCC554889E5488B4618488B4E208B10488B318B4004488B490883E2FC83E0FCC5FB10441608C5FB11040131C05DC3CCCCCC554889E5488B4618488B4E208B10488B318B4004488B490883E2FC83E0FCC5FA10441604C5FA11040131C05DC3CCCCCC554889E5488B4618488B4E20BF000000808B10488B318B4008488B490883E2FC83E0FC337C1604893C0131C05DC3CCCC554889E5488B4618488B4E20BF000000808B10488B318B4004488B490883E2FC83E0FC333C16893C0131C05DC3CCCCCC554889E54883E4E04883EC40488B4E18488B56208B318B79044C8B028B41088B490C83E6FC83E7FC83E1FC48034A0883E0FCB201C4C17A104C3004C4C17A1004304C01C031F6C4C172590C38C4C279BB4C3804C5F2580559D1FFFFC5FA100D0DD1FFFFC5F25EC0C4E27918C00F1F4000C5FA100CB031FFC4E371214CB00810C5F859C9666666662E0F1F840000000000C704BC0000000048FFC74883FF0875F0C5FA110C24C4E379174C24040148C1E605C5FC280C24C5FC290C31BE01000000F6C201BA0000000075A631C04889EC5DC5F877C3CCCCCCCCCCCCCCCCCCCCCCCC554889E5488B4618488B4E20C5F857C08B308B7804448B40084C8B094C8B51084183E0FC83E6FC83E7FC430F0D0C02410F180C31410F180C39498D1431498D04394B8D0C0231F6660F1F840000000000C4E27D180C32C4E275B804F04883C6044883FE0875EAC5FC110131C05DC5F877C3CCCCCCCCCCCCCCCCCCCCCCCCCCCCCC554889E5488B4618488B4E20C4E279180D33D0FFFF8B70048B104C8B4108488B398B4008488B491083E6FC83E2FC83E0FCC4C17B100430C4E279980C17C5F8130C0131C05DC3CCCCCCCCCCCCCCCCCCCC554889E5488B4620488B08488B4008C5FB108180000000C5FB108900010000C5F85CC1C5F813804001000031C05DC3CC554889E5488B4E20C5FA1025CCCFFFFFC5FA100DA8CFFFFFC57A103D70CFFFFF488B01C57A10B080000000C50A58A084000000C59A59C4C4E3790AC009C5FA2CF0C46279BDE189F283E203FFCA40F6C6010F8572020000C5FA102D59CFFFFFC5FA101565CFFFFF0F8577020000C57A100527CFFFFFC57A10151BCFFFFF0F857B020000C57A100D45CFFFFFC57A102D19CFFFFF0F8580020000C5FA103523CFFFFFC5FA103DFFCEFFFF0F8585020000C5FA101DEDCEFFFFC5FA1005E1CEFFFF7404C5F828D8C4411A59DCC462791825E9CEFFFFC4E221A9DEC4C221A9D9C4C221A9D8C4E221A9DDC4E221A91DA0CEFFFFC50259FB83FA027305C4410057FCC58A59DCC5FA102D86CEFFFFC57A1005A6CEFFFFC5FA1035B6CEFFFFC57A100DA2CEFFFFC57A101D7ACEFFFFC4E3610ADB09C5FA2CF3C46261BDF1C5FA101D5BCEFFFF89F283E203FFCA40F6C6017418C57829F5C57828C2C57829D3C57829EEC57828CFC57828D8C4410A59F6488B7110C44209B9CBC46209A9CEC46209A9CBC44209A9C8C46209A90D04CEFFFFC5B259DD83FA027304C59857DBC58258DB488B4908C57828F2C4417828CAC57829EEC57828D8C5FA111EC57A10B880000000C502588084000000C5BA59DCC4E3610ADB09C46261BDC1C5FA2CC3C5F828DFC57829C5A8017430C5FA102DA3CDFFFFC57A1035C3CDFFFFC57A100D9FCDFFFFC5FA1035CBCDFFFFC5FA101DB7CDFFFFC57A101D8FCDFFFFC4413A59C0C4C239B9DBC4E239A9DEC4C239A9D9C4C239A9DEC4E239A91D59CDFFFFC55259F3A8027405C4410857F4C58259DCC4E3610ADB09C4C261ADCFC5FA2CC3C5F828E1A8017430C5FA102529CDFFFFC5FA101549CDFFFFC57A101525CDFFFFC57A102D51CDFFFFC5FA103D3DCDFFFFC5FA100515CDFFFFC5F259C9C4E271B9F8C4C271A9FDC4C271A9FAC4E271A9FAC4E271A93DE0CCFFFFC5DA59C7A8027404C59857C0C58A58C031C0C5FA1141045DC3C4417828FCC5FA102DE2CCFFFFC5FA1015EECCFFFF0F8489FDFFFFC5F828EAC57A1005ACCCFFFFC57A1015A0CCFFFF0F8485FDFFFFC4417828C2C57A100DC5CCFFFFC57A102D99CCFFFF0F8480FDFFFFC4417828CDC5FA10359ECCFFFFC5FA103D7ACCFFFF0F847BFDFFFFC5F828F7C5FA101D64CCFFFFC5FA100558CCFFFF0F8573FDFFFFE972FDFFFFCCCCCCCCCCCCCCCCCCCCCCCCCC554889E5488B4620C5FA100D44CCFFFF488B08488B4008C5FB1001C5F858C1C5F813404031C05DC3CCCCCCCCCCCCCCCC554889E5488B4620488D1531CDFFFF488D356ACDFFFF488B08488B4008C5FB1001C5FB10494031C90F1F840000000000C4E279181431C4E279181C11C5F059D2C4E279A8DAC5F8135C48404883C1044883F92875DB31C05DC3CCCCCCCCCCCCCC554889E5488B4620488D3511CDFFFF31D2488B08488B4008C5FB104140488D0DBCCCFFFFC5F8580DF4CBFFFF0F1F4000C4E27918549604C4E279185C9104C5F059D2C4E279A8DAC5F8139CD09000000048FFC24883FA0975D731C05DC3CCCCCC31C083FF05488D0D04150000480F44C1C3000000000000000000000000000000050000000000000000000000000000000000000000000000000000000000000000000000000000000000000000000000000000000000000000000000000000000000000000000000000000000000000000000000000000000000000000000000000000000000000000000000000000000000000000000000000000000000000000000000000000000000000000000000000000000000000000000000000000000000000000000000000000000000000000000000000000000000000000000000000000000000000000000000000000000000000000000000000000000000000000000000000000000000000000000000000000000000000000000000000000000000000000000000000000000000000000000000000000000000000000000000000000000000000000000000000000000000000000000000000000000000000000000000000000000000000000000000000000000000000000000000000000000000000000000000000000000000000000000000000000000000000000000000230000001100000000000000000000002B0000001100000000000000000000002B0000001100000000000000000000002D0000001100000000000000000000002F000000110000000000000000000000420000001100000000000000000000002F0000001100000000000000000000004D0000001100000000000000000000005D0000001100000000000000000000005E0000001100000000000000000000005F000000110000000000000000000000600000001100000000000000000000006B000000110000000000000000000000710000001100000000000000000000007D0000001100000000000000000000007D0000001100000000000000000000007D000000110000000000000000000000970000001100000000000000000000000903000011000000000000000000000010030000110000000000000000000000170300001100000000000000000000001C03000011000000000000000000000000000000000000000000000000000000000000000000000000000000000000000000000000000000000000000000000000000000000000000000000000000000000000000000000000000000000000000000000000000000000000000000000000000000000000000000000000000000000000000000000000000000000000000000000000000000000000000000000000000000000000000000000000000000000000000000000000000000000000000000000000000000000000000000000000000000000000000000000000000000000000000000000000000000000000000000000000000000000000000000000000000000000000000000000000000000000000000000000000000000000000000000000000000000000000000000000000000000000000000000000000000000000000000000000000000000000000000000000000000000000000000000000000000000000000000000000000000000000000000000000000000000000000000000000000000000000000000000000000000000000000000000000000000000000000000000000000000000000000000000000000000000000000000000000000000000000000000000000000000000000000000000000000000000000000000000000000000000000000000000000000000000000000000000000000000000000000000000000000000000000000000000000000000000000000000000000000000000000000000000000000000000000000000000000016000000000000000000000000000000000000000000000000000000000000000000000000000000000000000000000000000000000000000000000000000000000000000000000000000000000000001E000000000000000800000000000000FBFFFF6F000000000100000000000000070000000000000038020000000000000800000000000000F80A00000000000009000000000000001800000000000000F9FFFF6F0000000075000000000000000600000000000000C8010000000000000B000000000000001800000000000000050000000000000010020000000000000A0000000000000023000000000000000400000000000000F80100000000000000000000000000000000000000000000011101250E1305030E1017B44219110112060000022E001101120640186E0E030E3A0B3B0B49133F190000032400030E3E0B0B0B0000042E001101120640186E0E030E3A0B3B0B49103F19000000470000000400000000000801FD0300002C004003000000000000D02C0000000000009102000002D02C000000000000910200000156C1010000C101000001014300000003F3010000050400400000000400000000000801FD0300002C0040030000EE000000702F0000000000009C00000004702F0000000000009C0000000156020400000204000001014300000000400000000400000000000801FD0300002C0040030000490100001030000000000000BD010000041030000000000000BD0100000156000000000000000001014300000000400000000400000000000801FD0300002C0040030000C0010000D0310000000000001901000004D031000000000000190100000156940000009400000001014300000000400000000400000000000801FD0300002C00400300003B020000F0320000000000008E00000004F0320000000000008E0000000156F6000000F600000001014300000000400000000400000000000801FD0300002C00520300009202000080330000000000001E0400000480330000000000001E04000001565D0400005D04000001014300000000400000000400000000000801FD0300002C00400300009B030000A0370000000000006000000004A0370000000000006000000001565F0200005F02000001014300000000400000000400000000000801FD0300002C0052030000FC0300000038000000000000A5020000040038000000000000A50200000156620000006200000001014300000000400000000400000000000801FD0300002C0040030000DB040000B03A0000000000002C00000004B03A0000000000002C0000000156960200009602000001014300000000400000000400000000000801FD0300002C00400300002C050000E03A0000000000002C00000004E03A0000000000002C0000000156F7010000F701000001014300000000400000000400000000000801FD0300002C00400300007D050000103B0000000000002D00000004103B0000000000002D0000000156540300005403000001014300000000400000000400000000000801FD0300002C0040030000CE050000403B0000000000002D00000004403B0000000000002D00000001562A0400002A04000001014300000000400000000400000000000801FD0300002C00400300001F060000703B0000000000002E00000004703B0000000000002E0000000156C3000000C300000001014300000000400000000400000000000801FD0300002C00400300007F060000A03B0000000000002D00000004A03B0000000000002D0000000156CA030000CA03000001014300000000400000000400000000000801FD0300002C0040030000DD060000D03B000000000000D400000004D03B000000000000D40000000156CE020000CE02000001014300000000400000000400000000000801FD0300002C004003000084070000B03C0000000000007100000004B03C0000000000007100000001568E0100008E01000001014300000000400000000400000000000801FD0300002C0040030000E1070000303D0000000000004600000004303D000000000000460000000156290200002902000001014300000000400000000400000000000801FD0300002C004003000063080000803D0000000000002F00000004803D0000000000002F0000000156330000003300000001014300000000400000000400000000000801FD0300002C0052030000B3080000B03D0000000000005303000004B03D0000000000005303000001562A0100002A01000001014300000000400000000400000000000801FD0300002C0040030000B20900001041000000000000280000000410410000000000002800000001565E0100005E01000001014300000000400000000400000000000801FD0300002C0040030000040A00004041000000000000590000000440410000000000005900000001568D0300008D03000001014300000000400000000400000000000801FD0300002C0040030000640A0000A0410000000000005D00000004A0410000000000005D00000001560403000004030000010143000000006D61696E5F6772617068246173796E635F64697370617463685F325F636F6E765F347831367831367833783478345F663332006D61696E5F6772617068246173796E635F64697370617463685F31385F656C656D656E74776973655F325F663332006D61696E5F6772617068246173796E635F64697370617463685F375F656C656D656E74776973655F62726F616463617374006D61696E5F6772617068246173796E635F64697370617463685F335F636F6E765F3478387838783278325F663332006D61696E5F6772617068246173796E635F64697370617463685F31325F656C656D656E74776973655F62726F616463617374006D61696E5F6772617068246173796E635F64697370617463685F345F6D6D7434645F317831783235367831783878315F663332006D61696E5F6772617068246173796E635F64697370617463685F3131335F656C656D656E74776973655F62726F616463617374006D61696E5F6772617068246173796E635F64697370617463685F3131345F656C656D656E74776973655F325F663332006D61696E5F6772617068246173796E635F64697370617463685F31355F6D6D7434645F31783178327831783878315F663332006D61696E5F6772617068246173796E635F64697370617463685F305F656C656D656E74776973655F62726F61646361737400696E74006D61696E5F6772617068246173796E635F64697370617463685F395F656C656D656E74776973655F62726F616463617374006D61696E5F6772617068246173796E635F64697370617463685F31365F756E7061636B5F656C656D656E74776973655F325F663332006D61696E5F6772617068246173796E635F64697370617463685F365F756E7061636B5F656C656D656E74776973655F3178325F663332006D61696E5F6772617068246173796E635F64697370617463685F385F656C656D656E74776973655F62726F6164636173745F325F663332006D61696E5F6772617068246173796E635F64697370617463685F31345F656C656D656E74776973655F3278325F6633325F7061636B006D61696E5F6772617068246173796E635F64697370617463685F3131365F656C656D656E74776973655F62726F6164636173745F3978325F663332007374617469635F74726163652E6D6C6972002D006D61696E5F6772617068246173796E635F64697370617463685F31305F656C656D656E74776973655F62726F6164636173745F325F663332006D61696E5F6772617068246173796E635F64697370617463685F3131355F656C656D656E74776973655F62726F6164636173745F313078325F663332006D61696E5F6772617068246173796E635F64697370617463685F31335F656C656D656E74776973655F62726F6164636173740049524545006D61696E5F6772617068246173796E635F64697370617463685F315F736C6F775F6D656D637079006D61696E5F6772617068246173796E635F64697370617463685F31315F656C656D656E74776973655F62726F616463617374006D61696E5F6772617068246173796E635F64697370617463685F355F656C656D656E74776973655F62726F61646361737400440000000200000000004B000000260000006D61696E5F6772617068246173796E635F64697370617463685F305F656C656D656E74776973655F62726F61646361737400000000003A00000002004B00000044000000260000006D61696E5F6772617068246173796E635F64697370617463685F315F736C6F775F6D656D63707900000000004500000002008F00000044000000260000006D61696E5F6772617068246173796E635F64697370617463685F325F636F6E765F347831367831367833783478345F6633320000000000410000000200D300000044000000260000006D61696E5F6772617068246173796E635F64697370617463685F335F636F6E765F3478387838783278325F66333200000000004600000002001701000044000000260000006D61696E5F6772617068246173796E635F64697370617463685F345F6D6D7434645F317831783235367831783878315F66333200000000004400000002005B01000044000000260000006D61696E5F6772617068246173796E635F64697370617463685F355F656C656D656E74776973655F62726F61646361737400000000004900000002009F01000044000000260000006D61696E5F6772617068246173796E635F64697370617463685F365F756E7061636B5F656C656D656E74776973655F3178325F6633320000000000440000000200E301000044000000260000006D61696E5F6772617068246173796E635F64697370617463685F375F656C656D656E74776973655F62726F61646361737400000000004A00000002002702000044000000260000006D61696E5F6772617068246173796E635F64697370617463685F385F656C656D656E74776973655F62726F6164636173745F325F66333200000000004400000002006B02000044000000260000006D61696E5F6772617068246173796E635F64697370617463685F395F656C656D656E74776973655F62726F61646361737400000000004B0000000200AF02000044000000260000006D61696E5F6772617068246173796E635F64697370617463685F31305F656C656D656E74776973655F62726F6164636173745F325F6633320000000000450000000200F302000044000000260000006D61696E5F6772617068246173796E635F64697370617463685F31315F656C656D656E74776973655F62726F61646361737400000000004500000002003703000044000000260000006D61696E5F6772617068246173796E635F64697370617463685F31325F656C656D656E74776973655F62726F61646361737400000000004500000002007B03000044000000260000006D61696E5F6772617068246173796E635F64697370617463685F31335F656C656D656E74776973655F62726F6164636173740000000000480000000200BF03000044000000260000006D61696E5F6772617068246173796E635F64697370617463685F31345F656C656D656E74776973655F3278325F6633325F7061636B00000000004500000002000304000044000000260000006D61696E5F6772617068246173796E635F64697370617463685F31355F6D6D7434645F31783178327831783878315F66333200000000004800000002004704000044000000260000006D61696E5F6772617068246173796E635F64697370617463685F31365F756E7061636B5F656C656D656E74776973655F325F66333200000000004100000002008B04000044000000260000006D61696E5F6772617068246173796E635F64697370617463685F31385F656C656D656E74776973655F325F6633320000000000460000000200CF04000044000000260000006D61696E5F6772617068246173796E635F64697370617463685F3131335F656C656D656E74776973655F62726F61646361737400000000004200000002001305000044000000260000006D61696E5F6772617068246173796E635F64697370617463685F3131345F656C656D656E74776973655F325F66333200000000004F00000002005705000044000000260000006D61696E5F6772617068246173796E635F64697370617463685F3131355F656C656D656E74776973655F62726F6164636173745F313078325F66333200000000004E00000002009B05000044000000260000006D61696E5F6772617068246173796E635F64697370617463685F3131365F656C656D656E74776973655F62726F6164636173745F3978325F6633320000000000160000000200000000004B00000043000000696E7400000000000E00000002004B00000044000000000000000E00000002008F00000044000000000000000E0000000200D300000044000000000000000E00000002001701000044000000000000000E00000002005B01000044000000000000000E00000002009F01000044000000000000000E0000000200E301000044000000000000000E00000002002702000044000000000000000E00000002006B02000044000000000000000E0000000200AF02000044000000000000000E0000000200F302000044000000000000000E00000002003703000044000000000000000E00000002007B03000044000000000000000E0000000200BF03000044000000000000000E00000002000304000044000000000000000E00000002004704000044000000000000000E00000002008B04000044000000000000000E0000000200CF04000044000000000000000E00000002001305000044000000000000000E00000002005705000044000000000000000E00000002009B0500004400000000000000EA000000040029000000010101FB0E0D000101010100000001000001007374617469635F74726163652E6D6C69720000000000000902D02C000000000000010581010A4B05410608D6050A0603094A050B4E5C5A4E835E0603600225010320F20360660320F20360660320F20360660320F20360660320084A03602E060320580603600241010603224A050006035ED6050A06030B58050B4E594D4C4E835A06036402290106031C023401022A14050006036258050A06030B4A050B5268030E4A060BBA035D2E060320083C060360660320083C0360660320083C0360660320083C03606603200882020B00010157000000040029000000010101FB0E0D000101010100000001000001007374617469635F74726163652E6D6C69720000000000000902702F00000000000001050B0A032A4A06035502220106032B022A01060B024712020500010173000000040029000000010101FB0E0D000101010100000001000001007374617469635F74726163652E6D6C69720000000000000902103000000000000001050B0A032A087408597308C906035402250106032B02380106035502270106032B023901025B138F06035508AC032B580B0890020E00010177000000040029000000010101FB0E0D000101010100000001000001007374617469635F74726163652E6D6C69720000000000000902D03100000000000001050B0A032C742C0814E208300603530812032D820353022E01032D082E0353BA032DD603539006032D0866089006035308D6032D660B2E020800010153000000040029000000010101FB0E0D000101010100000001000001007374617469635F74726163652E6D6C69720000000000000902F03200000000000001050B0A032E4A060351023401032F820B024912020500010105010000040019000000010101FB0E0D000101010100000001000001002D000000000000090280330000000000000105610A4B0500060225100561A005003A050B0603329E5D670603480225010338F20348660338F20348660338F20348660338F20348660338F203482E0603384A5494022B0E06034C02510106033408740233190500060345023401050B060332665D67060348022B0106033808820500060348022F01050B06033208665D6E06034108E406033F023001060341022B0106033C5806034408AC06033C023001060344022A010603C2004A05000603BE7F4A050B06033808C8060348660338083C0348660338084A0348660338084A0348660338083C020B0001015D000000040029000000010101FB0E0D000101010100000001000001007374617469635F74726163652E6D6C69720000000000000902A03700000000000001050B0A032EBA031902250103679003198203674A031982036782060B580205000101DB000000040019000000010101FB0E0D000101010100000001000001002D000000000000090200380000000000000105610A4B050006081E056168050064050B060332665D6E060341022E01033FBA034166033FBA034166033FBA034166033FC8034166033FBA03412E06033F82030B5803759006034102230106033C5806034402360106033C022C01030E022A016705000603B57F90050B060332665D6E06034108E406033F022C01030E02240105000603B37F66050B06033F088206034166033F083C034166033F083C034166033F084A034166033F083C020B0001014D000000040029000000010101FB0E0D000101010100000001000001007374617469635F74726163652E6D6C69720000000000000902B03A00000000000001050B0A03DB004AC9733D060BE402020001014D000000040029000000010101FB0E0D000101010100000001000001007374617469635F74726163652E6D6C69720000000000000902E03A00000000000001050B0A03DC004AC9733D060BE402020001014D000000040029000000010101FB0E0D000101010100000001000001007374617469635F74726163652E6D6C69720000000000000902103B00000000000001050B0A03DB004ACB713F060BF202020001014D000000040029000000010101FB0E0D000101010100000001000001007374617469635F74726163652E6D6C69720000000000000902403B00000000000001050B0A03DE004AC9733D060BF202020001015C000000040029000000010101FB0E0D000101010100000001000001007374617469635F74726163652E6D6C69720000000000000902703B000000000000010649050B060A03DD00E4050C030E3C050B037274050C030E3C060BBA02020001015A000000040029000000010101FB0E0D000101010100000001000001007374617469635F74726163652E6D6C69720000000000000902A03B00000000000001050B0A03DE004A050C03120820050B036E74050C03123C060BAC0202000101A3000000040029000000010101FB0E0D000101010100000001000001007374617469635F74726163652E6D6C69720000000000000902D03B0000000000000106B9050B060A03DD00C805000603A37F3C050C0603FD003C050B03603C3E050C031E3C72050B03675870050C031D660603857F022B010603FC004A0603847F082E0603FD00C805000603837F08BA050C03FD004A050003837F58050C03FD00083C0B58020500010159000000040029000000010101FB0E0D000101010100000001000001007374617469635F74726163652E6D6C69720000000000000902B03C000000000000010649050C060A03FD00084A0603837F022E0103FD00900B08AC02050001017E000000040029000000010101FB0E0D000101010100000001000001007374617469635F74726163652E6D6C69720000000000000902303D00000000000001050C0A03FC004A84056103837F90050C03FB003C056103857F2E050C03FB004A056103857F9E050C03FB003C05000603837F66050C0603800166A9060B2E02020001014C000000040029000000010101FB0E0D000101010100000001000001007374617469635F74726163652E6D6C69720000000000000902803D00000000000001050C0A0396014A060B0229120202000101FB000000040019000000010101FB0E0D000101010100000001000001002D0000000000000902B03D00000000000001050C0A03F4054A08DA87830603817A02240103FF05F203817A6603FF05F203817A6603FF05F203817A6603FF05F203817A6603FF05F203817A2E0603FF054A5494022B0E0603857A0250010603FB05087402331905000603FE790882050C0603F9054A878A0603FA7908D6060386060230010603FA79022A0106038306580603FD79089E060383060230010603FD79022901060389064A05000603F7794A050C0603FF0508C80603817A6603FF05083C03817A6603FF05084A03817A6603FF05084A03817A6603FF05083C020B0001014E000000040029000000010101FB0E0D000101010100000001000001007374617469635F74726163652E6D6C69720000000000000902104100000000000001050C0A038D064A4C803E060B082E02020001015C000000040029000000010101FB0E0D000101010100000001000001007374617469635F74726163652E6D6C69720000000000000902404100000000000001050C0A038D064A0309084A0603E979E4060396068264684B060B086602020001015E000000040029000000010101FB0E0D000101010100000001000001007374617469635F74726163652E6D6C69720000000000000902A04100000000000001050C0A038F064A030CF20376F20603EE798206039B064A72764B060B08820202000101495245450000000000000000000000000000000000000000000000000000000000000000230000000002090078570000000000000000000000000000010000001200070000420000000000001100000000000000002E64796E73796D002E68617368002E64796E737472002E72656C612E64796E002E726F64617461002E65685F6672616D65002E74657874002E646174612E72656C2E726F002E64796E616D6963002E72656C726F5F70616464696E67002E64656275675F616262726576002E64656275675F696E666F002E64656275675F737472002E64656275675F7075626E616D6573002E64656275675F7075627479706573002E64656275675F6C696E65002E636F6D6D656E74002E73796D746162002E7368737472746162002E7374727461620000697265655F68616C5F65786563757461626C655F6C6962726172795F7175657279005F44594E414D494300000000000000000000000000000000000000000000000000000000000000000000000000000000000000000000000000000000000000000000000000000000000000010000000B0000000200000000000000C801000000000000C801000000000000300000000000000003000000010000000800000000000000180000000000000009000000050000000200000000000000F801000000000000F80100000000000018000000000000000100000000000000040000000000000004000000000000000F0000000300000002000000000000001002000000000000100200000000000023000000000000000000000000000000010000000000000000000000000000001700000004000000020000000000000038020000000000003802000000000000F80A00000000000001000000000000000800000000000000180000000000000021000000010000001200000000000000400D000000000000400D000000000000780C00000000000000000000000000004000000000000000000000000000000029000000010000000200000000000000B819000000000000B819000000000000100300000000000000000000000000000800000000000000000000000000000033000000010000000600000000000000D02C000000000000D01C0000000000004115000000000000000000000000000010000000000000000000000000000000390000000100000003000000000000002052000000000000203200000000000058050000000000000000000000000000100000000000000000000000000000004600000006000000030000000000000078570000000000007837000000000000C0000000000000000300000000000000080000000000000010000000000000004F00000008000000030000000000000038580000000000003838000000000000C8070000000000000000000000000000010000000000000000000000000000005E000000010000000000000000000000000000000000000038380000000000004E000000000000000000000000000000010000000000000000000000000000006C00000001000000000000000000000000000000000000008638000000000000DF05000000000000000000000000000001000000000000000000000000000000780000000100000030000000000000000000000000000000653E0000000000008F04000000000000000000000000000001000000000000000100000000000000830000000100000000000000000000000000000000000000F44200000000000056060000000000000000000000000000010000000000000000000000000000009300000001000000000000000000000000000000000000004A490000000000009401000000000000000000000000000001000000000000000000000000000000A30000000100000000000000000000000000000000000000DE4A000000000000C60A000000000000000000000000000001000000000000000000000000000000AF0000000100000030000000000000000000000000000000A4550000000000000500000000000000000000000000000001000000000000000100000000000000B80000000200000000000000000000000000000000000000B0550000000000004800000000000000140000000200000008000000000000001800000000000000C00000000300000000000000000000000000000000000000F855000000000000D200000000000000000000000000000001000000000000000000000000000000CA0000000300000000000000000000000000000000000000CA560000000000002C00000000000000000000000000000001000000000000000000000000000000"> : vector<23608xi8>, format = "embedded-elf-x86_64", mime_type = "application/x-elf"}
  }
  util.global private @__device_0 : !hal.device
  util.initializer {
    %c18_i32 = arith.constant 18 : i32
    %false = arith.constant false
    %c0 = arith.constant 0 : index
    %c1 = arith.constant 1 : index
    %0 = util.null : !hal.device
    %device_count = hal.devices.count : index
    cf.br ^bb1(%c0, %c0, %0 : index, index, !hal.device)
  ^bb1(%1: index, %2: index, %3: !hal.device):  // 2 preds: ^bb0, ^bb4
    %4 = util.cmp.eq %3, %0 : !hal.device
    %5 = arith.cmpi slt, %1, %device_count : index
    %6 = arith.andi %4, %5 : i1
    cf.cond_br %6, ^bb2, ^bb5
  ^bb2:  // pred: ^bb1
    %device_n = hal.devices.get %1 : !hal.device
    %ok, %value = hal.device.query<%device_n : !hal.device> key("hal.device.id" :: "local*") : i1, i1 = false
    cf.cond_br %value, ^bb3, ^bb4(%false : i1)
  ^bb3:  // pred: ^bb2
    %ok_0, %value_1 = hal.device.query<%device_n : !hal.device> key("hal.executable.format" :: "embedded-elf-x86_64") : i1, i1 = false
    cf.br ^bb4(%value_1 : i1)
  ^bb4(%7: i1):  // 2 preds: ^bb2, ^bb3
    %8 = arith.cmpi eq, %2, %c0 : index
    %9 = arith.select %7, %c1, %c0 : index
    %10 = arith.addi %2, %9 : index
    %11 = arith.andi %7, %8 : i1
    %12 = arith.select %11, %device_n, %0 : !hal.device
    %13 = arith.addi %1, %c1 : index
    cf.br ^bb1(%13, %10, %12 : index, index, !hal.device)
  ^bb5:  // pred: ^bb1
    cf.cond_br %4, ^bb6, ^bb7
  ^bb6:  // pred: ^bb5
    util.status.check_ok %c18_i32, "HAL device `__device_0` not found or unavailable: #hal.device.target<\22local\22, [#hal.executable.target<\22llvm-cpu\22, \22embedded-elf-x86_64\22, {cpu = \22znver3\22, cpu_features = \22+prfchw,-cldemote,+avx,+aes,+sahf,+pclmul,-xop,+crc32,-amx-fp8,+xsaves,-avx512fp16,-usermsr,-sm4,-egpr,+sse4.1,-avx512ifma,+xsave,+sse4.2,-tsxldtrk,-sm3,-ptwrite,-widekl,-movrs,+invpcid,+64bit,+xsavec,-avx10.1-512,-avx512vpopcntdq,+cmov,-avx512vp2intersect,-avx512cd,+movbe,-avxvnniint8,-ccmp,-amx-int8,-kl,-avx10.1-256,-sha512,-avxvnni,-rtm,+adx,+avx2,-hreset,-movdiri,-serialize,+vpclmulqdq,-avx512vl,-uintr,-cf,+clflushopt,-raoint,-cmpccxadd,+bmi,-amx-tile,+sse,-avx10.2-256,-gfni,-avxvnniint16,-amx-fp16,-zu,-ndd,+xsaveopt,+rdrnd,-avx512f,-amx-bf16,-avx512bf16,-avx512vnni,-push2pop2,+cx8,-avx512bw,+sse3,+pku,-nf,-amx-tf32,-amx-avx512,+fsgsbase,+clzero,+mwaitx,-lwp,+lzcnt,+sha,-movdir64b,-ppx,+wbnoinvd,-enqcmd,-amx-transpose,-avx10.2-512,-avxneconvert,-tbm,-pconfig,-amx-complex,+ssse3,+cx16,+bmi2,+fma,+popcnt,-avxifma,+f16c,-avx512bitalg,+rdpru,+clwb,+mmx,+sse2,+rdseed,-avx512vbmi2,-prefetchi,-amx-movrs,+rdpid,-fma4,-avx512vbmi,+shstk,+vaes,-waitpkg,-sgx,+fxsr,-avx512dq,+sse4a\22, data_layout = \22e-m:e-p270:32:32-p271:32:32-p272:64:64-i64:64-i128:128-f80:128-n8:16:32:64-S128\22, iree.encoding.resolver = #iree_cpu.cpu_encoding_resolver<>, max_stack_allocation_size = 32768 : i64, native_vector_size = 32 : i64, target_triple = \22x86_64-unknown-unknown-eabi-elf\22}>]>"
    cf.br ^bb7
  ^bb7:  // 2 preds: ^bb5, ^bb6
    util.global.store %3, @__device_0 : !hal.device
    util.return
  }
  util.global private @__device_0_query_0_hal_executable_format_embedded_elf_x86_64 : i1
  util.initializer {
    %__device_0 = util.global.load @__device_0 : !hal.device
    %ok, %value = hal.device.query<%__device_0 : !hal.device> key("hal.executable.format" :: "embedded-elf-x86_64") : i1, i1 = false
    util.global.store %value, @__device_0_query_0_hal_executable_format_embedded_elf_x86_64 : i1
    util.return
  }
  util.global private @__device_0_executable_0_static_trace_linked : !hal.executable
  util.initializer {
    %c-1_i64 = arith.constant -1 : i64
    %c-1 = arith.constant -1 : index
    %c0 = arith.constant 0 : index
    %c14_i32 = arith.constant 14 : i32
    %0 = util.null : !hal.executable
    %__device_0_query_0_hal_executable_format_embedded_elf_x86_64 = util.global.load @__device_0_query_0_hal_executable_format_embedded_elf_x86_64 : i1
    %__device_0 = util.global.load @__device_0 : !hal.device
    %1 = arith.select %__device_0_query_0_hal_executable_format_embedded_elf_x86_64, %c0, %c-1 : index
    %2 = arith.cmpi eq, %1, %c0 : index
    cf.cond_br %2, ^bb1, ^bb2
  ^bb1:  // pred: ^bb0
    %executable = hal.executable.create device(%__device_0 : !hal.device) affinity(%c-1_i64) target(@static_trace_linked::@embedded_elf_x86_64) : !hal.executable
    cf.br ^bb3(%executable : !hal.executable)
  ^bb2:  // pred: ^bb0
    util.status.check_ok %c14_i32, "HAL device `__device_0` does not support any variant of executable `static_trace_linked`; available formats: [embedded-elf-x86_64]"
    cf.br ^bb3(%0 : !hal.executable)
  ^bb3(%3: !hal.executable):  // 2 preds: ^bb1, ^bb2
    util.global.store %3, @__device_0_executable_0_static_trace_linked : !hal.executable
    util.return
  }
  util.global private @__constant_tensor_4x3x4x4xf32 : !hal.buffer
  util.initializer {
    %c-1_i32 = arith.constant -1 : i32
    %c0_i32 = arith.constant 0 : i32
    %c-1_i64 = arith.constant -1 : i64
    %memory_type = hal.memory_type<"DeviceVisible|DeviceLocal"> : i32
    %buffer_usage = hal.buffer_usage<"TransferSource|TransferTarget|Transfer|DispatchStorageRead|DispatchStorageWrite|DispatchStorage|SharingImmutable"> : i32
    %c0 = arith.constant 0 : index
    %c0_i64 = arith.constant 0 : i64
    %c8960 = arith.constant 8960 : index
    %0 = util.null : !hal.fence
    %__device_0 = util.global.load immutable @__device_0 : !hal.device
    %buffer_cst = util.buffer.constant {alignment = 64 : index} : !util.buffer = #composite_of_8960b
    %allocator = hal.device.allocator<%__device_0 : !hal.device> : !hal.allocator
    %did_import, %mapped = hal.allocator.import<%allocator : !hal.allocator> source(%buffer_cst : !util.buffer)[%c0, %c8960] affinity(%c-1_i64) type(%memory_type) usage(%buffer_usage) : i1, !hal.buffer
    cf.cond_br %did_import, ^bb2(%0, %mapped : !hal.fence, !hal.buffer), ^bb1
  ^bb1:  // pred: ^bb0
    %buffer = hal.allocator.allocate<%allocator : !hal.allocator> affinity(%c-1_i64) type(%memory_type) usage(%buffer_usage) : !hal.buffer{%c8960}
    %memory_file = hal.ex.file.from_memory device(%__device_0 : !hal.device) affinity(%c-1_i64) access(Read) buffer(%buffer_cst : !util.buffer)[%c0 for %c8960] flags(%c0_i32) : !hal.file
    %fence = hal.fence.create device(%__device_0 : !hal.device) flags("None") : !hal.fence
    hal.device.queue.read<%__device_0 : !hal.device> affinity(%c-1_i64) wait(%0) signal(%fence) source(%memory_file : !hal.file)[%c0_i64] target(%buffer : !hal.buffer)[%c0] length(%c8960) flags("None")
    cf.br ^bb2(%fence, %buffer : !hal.fence, !hal.buffer)
  ^bb2(%1: !hal.fence, %2: !hal.buffer):  // 2 preds: ^bb0, ^bb1
    %status = hal.fence.await until([%1]) timeout_millis(%c-1_i32) flags("None") : i32
    util.status.check_ok %status, "failed to wait on timepoint"
    util.global.store %2, @__constant_tensor_4x3x4x4xf32 : !hal.buffer
    util.return
  }
  util.func private @__main_graph$async_memoize_apply() -> !hal.command_buffer attributes {inlining_policy = #util.inline.never} {
    %c-1_i64 = arith.constant -1 : i64
    %c21 = arith.constant 21 : index
    %c20 = arith.constant 20 : index
    %c19 = arith.constant 19 : index
    %c18 = arith.constant 18 : index
    %c17 = arith.constant 17 : index
    %c15 = arith.constant 15 : index
    %c14 = arith.constant 14 : index
    %c11 = arith.constant 11 : index
    %c9 = arith.constant 9 : index
    %c13 = arith.constant 13 : index
    %c10 = arith.constant 10 : index
    %c7 = arith.constant 7 : index
    %c16 = arith.constant 16 : index
    %c6 = arith.constant 6 : index
    %c0 = arith.constant 0 : index
    %c1 = arith.constant 1 : index
    %c4 = arith.constant 4 : index
    %c8 = arith.constant 8 : index
    %c12 = arith.constant 12 : index
    %c256 = arith.constant 256 : index
    %c5 = arith.constant 5 : index
    %c52272 = arith.constant 52272 : index
    %c0_i8 = arith.constant 0 : i8
    %c2 = arith.constant 2 : index
    %c49152 = arith.constant 49152 : index
    %c56384 = arith.constant 56384 : index
    %c8960 = arith.constant 8960 : index
    %c0_i32 = arith.constant 0 : i32
    %c1024_i32 = arith.constant 1024 : i32
    %c1092_i32 = arith.constant 1092 : i32
    %c1088_i32 = arith.constant 1088 : i32
    %c3 = arith.constant 3 : index
    %c1088 = arith.constant 1088 : index
    %c1024 = arith.constant 1024 : index
    %c68_i32 = arith.constant 68 : i32
    %c64_i32 = arith.constant 64 : i32
    %c64 = arith.constant 64 : index
    %c256_i32 = arith.constant 256 : i32
    %c320 = arith.constant 320 : index
    %c324_i32 = arith.constant 324 : i32
    %c384_i32 = arith.constant 384 : i32
    %c388_i32 = arith.constant 388 : i32
    %c384 = arith.constant 384 : index
    %c320_i32 = arith.constant 320 : i32
    %c192_i32 = arith.constant 192 : i32
    %c260 = arith.constant 260 : index
    %c4_i32 = arith.constant 4 : i32
    %c264 = arith.constant 264 : index
    %c448_i32 = arith.constant 448 : i32
    %c452_i32 = arith.constant 452 : i32
    %c448 = arith.constant 448 : index
    %c196_i32 = arith.constant 196 : i32
    %c192 = arith.constant 192 : index
    %c128 = arith.constant 128 : index
    %c136 = arith.constant 136 : index
    %c128_i32 = arith.constant 128 : i32
    %c260_i32 = arith.constant 260 : i32
    %__device_0 = util.global.load immutable @__device_0 : !hal.device
    %__constant_tensor_4x3x4x4xf32 = util.global.load immutable @__constant_tensor_4x3x4x4xf32 : !hal.buffer
    %__device_0_executable_0_static_trace_linked = util.global.load immutable @__device_0_executable_0_static_trace_linked : !hal.executable
    %cmd = hal.command_buffer.create device(%__device_0 : !hal.device) mode("None") categories("Transfer|Dispatch") affinity(%c-1_i64) bindings(%c6) : !hal.command_buffer
    hal.command_buffer.dispatch<%cmd : !hal.command_buffer> target(%__device_0_executable_0_static_trace_linked : !hal.executable)[%c0] workgroups([%c1, %c1, %c1]) bindings([
      (%c0 : index)[%c0, %c8], 
      (%c1 : index)[%c0, %c12], 
      (%c4 : index)[%c0, %c256], 
      (%c4 : index)[%c0, %c256], 
      (%c4 : index)[%c0, %c256]
    ]) flags("None")
    hal.command_buffer.fill_buffer<%cmd : !hal.command_buffer> target(%c5 : index)[%c0, %c52272] pattern(%c0_i8 : i8) flags("None")
    hal.command_buffer.execution_barrier<%cmd : !hal.command_buffer> source("Dispatch|Transfer|CommandRetire") target("CommandIssue|Dispatch|Transfer") flags("None")
    hal.command_buffer.dispatch<%cmd : !hal.command_buffer> target(%__device_0_executable_0_static_trace_linked : !hal.executable)[%c1] workgroups([%c2, %c1, %c1]) bindings([
      (%c2 : index)[%c0, %c49152], 
      (%c5 : index)[%c0, %c56384]
    ]) flags("None")
    hal.command_buffer.execution_barrier<%cmd : !hal.command_buffer> source("Dispatch|Transfer|CommandRetire") target("CommandIssue|Dispatch|Transfer") flags("None")
    hal.command_buffer.dispatch<%cmd : !hal.command_buffer> target(%__device_0_executable_0_static_trace_linked : !hal.executable)[%c2] workgroups([%c16, %c1, %c1]) bindings([
      (%c5 : index)[%c0, %c56384], 
      (%__constant_tensor_4x3x4x4xf32 : !hal.buffer)[%c0, %c8960], 
      (%c5 : index)[%c0, %c56384]
    ]) flags("None")
    hal.command_buffer.execution_barrier<%cmd : !hal.command_buffer> source("Dispatch|Transfer|CommandRetire") target("CommandIssue|Dispatch|Transfer") flags("None")
    hal.command_buffer.dispatch<%cmd : !hal.command_buffer> target(%__device_0_executable_0_static_trace_linked : !hal.executable)[%c3] workgroups([%c16, %c1, %c1]) bindings([
      (%c5 : index)[%c0, %c56384], 
      (%c5 : index)[%c0, %c56384]
    ]) flags("None")
    hal.command_buffer.execution_barrier<%cmd : !hal.command_buffer> source("Dispatch|Transfer|CommandRetire") target("CommandIssue|Dispatch|Transfer") flags("None")
    hal.command_buffer.dispatch<%cmd : !hal.command_buffer> target(%__device_0_executable_0_static_trace_linked : !hal.executable)[%c4] workgroups([%c1, %c1, %c1]) bindings([
      (%c5 : index)[%c0, %c56384], 
      (%__constant_tensor_4x3x4x4xf32 : !hal.buffer)[%c0, %c8960], 
      (%c5 : index)[%c0, %c56384]
    ]) flags("None")
    hal.command_buffer.dispatch<%cmd : !hal.command_buffer> target(%__device_0_executable_0_static_trace_linked : !hal.executable)[%c5] workgroups([%c1, %c1, %c1]) constants([%c0_i32, %c1024_i32, %c1092_i32, %c1088_i32]) bindings([
      (%c3 : index)[%c0, %c8], 
      (%c5 : index)[%c0, %c56384], 
      (%c5 : index)[%c0, %c56384], 
      (%c5 : index)[%c0, %c56384]
    ]) flags("None")
    hal.command_buffer.execution_barrier<%cmd : !hal.command_buffer> source("Dispatch|Transfer|CommandRetire") target("CommandIssue|Dispatch|Transfer") flags("None")
    hal.command_buffer.copy_buffer<%cmd : !hal.command_buffer> source(%c5 : index)[%c1088] target(%c5 : index)[%c0] length(%c8) flags("None")
    hal.command_buffer.execution_barrier<%cmd : !hal.command_buffer> source("Dispatch|Transfer|CommandRetire") target("CommandIssue|Dispatch|Transfer") flags("None")
    hal.command_buffer.copy_buffer<%cmd : !hal.command_buffer> source(%c5 : index)[%c1024] target(%c5 : index)[%c4] length(%c4) flags("None")
    hal.command_buffer.execution_barrier<%cmd : !hal.command_buffer> source("Dispatch|Transfer|CommandRetire") target("CommandIssue|Dispatch|Transfer") flags("None")
    hal.command_buffer.dispatch<%cmd : !hal.command_buffer> target(%__device_0_executable_0_static_trace_linked : !hal.executable)[%c6] workgroups([%c1, %c1, %c1]) bindings([
      (%c5 : index)[%c0, %c56384], 
      (%c5 : index)[%c0, %c56384], 
      (%c5 : index)[%c0, %c56384]
    ]) flags("None")
    hal.command_buffer.dispatch<%cmd : !hal.command_buffer> target(%__device_0_executable_0_static_trace_linked : !hal.executable)[%c7] workgroups([%c1, %c1, %c1]) constants([%c0_i32, %c68_i32, %c64_i32]) bindings([
      (%c3 : index)[%c0, %c8], 
      (%c5 : index)[%c0, %c56384], 
      (%c5 : index)[%c0, %c56384]
    ]) flags("None")
    hal.command_buffer.execution_barrier<%cmd : !hal.command_buffer> source("Dispatch|Transfer|CommandRetire") target("CommandIssue|Dispatch|Transfer") flags("None")
    hal.command_buffer.copy_buffer<%cmd : !hal.command_buffer> source(%c5 : index)[%c64] target(%c5 : index)[%c0] length(%c8) flags("None")
    hal.command_buffer.copy_buffer<%cmd : !hal.command_buffer> source(%c5 : index)[%c1088] target(%c5 : index)[%c8] length(%c8) flags("None")
    hal.command_buffer.execution_barrier<%cmd : !hal.command_buffer> source("Dispatch|Transfer|CommandRetire") target("CommandIssue|Dispatch|Transfer") flags("None")
    hal.command_buffer.dispatch<%cmd : !hal.command_buffer> target(%__device_0_executable_0_static_trace_linked : !hal.executable)[%c8] workgroups([%c1, %c1, %c1]) constants([%c0_i32, %c64_i32]) bindings([
      (%c5 : index)[%c0, %c56384], 
      (%c5 : index)[%c0, %c56384]
    ]) flags("None")
    hal.command_buffer.dispatch<%cmd : !hal.command_buffer> target(%__device_0_executable_0_static_trace_linked : !hal.executable)[%c10] workgroups([%c1, %c1, %c1]) constants([%c0_i32, %c256_i32]) bindings([
      (%c5 : index)[%c0, %c56384], 
      (%c5 : index)[%c0, %c56384]
    ]) flags("None")
    hal.command_buffer.execution_barrier<%cmd : !hal.command_buffer> source("Dispatch|Transfer|CommandRetire") target("CommandIssue|Dispatch|Transfer") flags("None")
    hal.command_buffer.dispatch<%cmd : !hal.command_buffer> target(%__device_0_executable_0_static_trace_linked : !hal.executable)[%c13] workgroups([%c1, %c1, %c1]) constants([%c256_i32, %c0_i32]) bindings([
      (%c5 : index)[%c0, %c56384], 
      (%c5 : index)[%c0, %c56384]
    ]) flags("None")
    hal.command_buffer.execution_barrier<%cmd : !hal.command_buffer> source("Dispatch|Transfer|CommandRetire") target("CommandIssue|Dispatch|Transfer") flags("None")
    hal.command_buffer.copy_buffer<%cmd : !hal.command_buffer> source(%c5 : index)[%c0] target(%c5 : index)[%c320] length(%c4) flags("None")
    hal.command_buffer.dispatch<%cmd : !hal.command_buffer> target(%__device_0_executable_0_static_trace_linked : !hal.executable)[%c9] workgroups([%c1, %c1, %c1]) constants([%c64_i32, %c324_i32]) bindings([
      (%c5 : index)[%c0, %c56384], 
      (%c5 : index)[%c0, %c56384]
    ]) flags("None")
    hal.command_buffer.dispatch<%cmd : !hal.command_buffer> target(%__device_0_executable_0_static_trace_linked : !hal.executable)[%c11] workgroups([%c1, %c1, %c1]) constants([%c256_i32, %c384_i32]) bindings([
      (%c5 : index)[%c0, %c56384], 
      (%c5 : index)[%c0, %c56384]
    ]) flags("None")
    hal.command_buffer.dispatch<%cmd : !hal.command_buffer> target(%__device_0_executable_0_static_trace_linked : !hal.executable)[%c12] workgroups([%c1, %c1, %c1]) constants([%c64_i32, %c256_i32, %c388_i32]) bindings([
      (%c5 : index)[%c0, %c56384], 
      (%c5 : index)[%c0, %c56384]
    ]) flags("None")
    hal.command_buffer.execution_barrier<%cmd : !hal.command_buffer> source("Dispatch|Transfer|CommandRetire") target("CommandIssue|Dispatch|Transfer") flags("None")
    hal.command_buffer.copy_buffer<%cmd : !hal.command_buffer> source(%c5 : index)[%c384] target(%c5 : index)[%c0] length(%c8) flags("None")
    hal.command_buffer.copy_buffer<%cmd : !hal.command_buffer> source(%c5 : index)[%c320] target(%c5 : index)[%c8] length(%c8) flags("None")
    hal.command_buffer.execution_barrier<%cmd : !hal.command_buffer> source("Dispatch|Transfer|CommandRetire") target("CommandIssue|Dispatch|Transfer") flags("None")
    hal.command_buffer.dispatch<%cmd : !hal.command_buffer> target(%__device_0_executable_0_static_trace_linked : !hal.executable)[%c14] workgroups([%c1, %c1, %c1]) constants([%c64_i32, %c256_i32, %c0_i32, %c320_i32]) bindings([
      (%c5 : index)[%c0, %c56384], 
      (%c5 : index)[%c0, %c56384]
    ]) flags("None")
    hal.command_buffer.execution_barrier<%cmd : !hal.command_buffer> source("Dispatch|Transfer|CommandRetire") target("CommandIssue|Dispatch|Transfer") flags("None")
    hal.command_buffer.dispatch<%cmd : !hal.command_buffer> target(%__device_0_executable_0_static_trace_linked : !hal.executable)[%c15] workgroups([%c1, %c1, %c1]) constants([%c192_i32, %c320_i32, %c256_i32]) bindings([
      (%c5 : index)[%c0, %c56384], 
      (%c5 : index)[%c0, %c56384]
    ]) flags("None")
    hal.command_buffer.execution_barrier<%cmd : !hal.command_buffer> source("Dispatch|Transfer|CommandRetire") target("CommandIssue|Dispatch|Transfer") flags("None")
    hal.command_buffer.dispatch<%cmd : !hal.command_buffer> target(%__device_0_executable_0_static_trace_linked : !hal.executable)[%c16] workgroups([%c1, %c1, %c1]) constants([%c256_i32, %c0_i32, %c192_i32]) bindings([
      (%c5 : index)[%c0, %c56384], 
      (%c3 : index)[%c0, %c8], 
      (%c5 : index)[%c0, %c56384]
    ]) flags("None")
    hal.command_buffer.execution_barrier<%cmd : !hal.command_buffer> source("Dispatch|Transfer|CommandRetire") target("CommandIssue|Dispatch|Transfer") flags("None")
    hal.command_buffer.dispatch<%cmd : !hal.command_buffer> target(%__device_0_executable_0_static_trace_linked : !hal.executable)[%c5] workgroups([%c1, %c1, %c1]) constants([%c192_i32, %c0_i32, %c68_i32, %c64_i32]) bindings([
      (%c5 : index)[%c0, %c56384], 
      (%c5 : index)[%c0, %c56384], 
      (%c5 : index)[%c0, %c56384], 
      (%c5 : index)[%c0, %c56384]
    ]) flags("None")
    hal.command_buffer.execution_barrier<%cmd : !hal.command_buffer> source("Dispatch|Transfer|CommandRetire") target("CommandIssue|Dispatch|Transfer") flags("None")
    hal.command_buffer.copy_buffer<%cmd : !hal.command_buffer> source(%c5 : index)[%c64] target(%c5 : index)[%c256] length(%c8) flags("None")
    hal.command_buffer.execution_barrier<%cmd : !hal.command_buffer> source("Dispatch|Transfer|CommandRetire") target("CommandIssue|Dispatch|Transfer") flags("None")
    hal.command_buffer.copy_buffer<%cmd : !hal.command_buffer> source(%c5 : index)[%c0] target(%c5 : index)[%c260] length(%c4) flags("None")
    hal.command_buffer.execution_barrier<%cmd : !hal.command_buffer> source("Dispatch|Transfer|CommandRetire") target("CommandIssue|Dispatch|Transfer") flags("None")
    hal.command_buffer.dispatch<%cmd : !hal.command_buffer> target(%__device_0_executable_0_static_trace_linked : !hal.executable)[%c17] workgroups([%c1, %c1, %c1]) bindings([
      (%c5 : index)[%c0, %c56384], 
      (%c5 : index)[%c0, %c56384]
    ]) flags("None")
    hal.command_buffer.dispatch<%cmd : !hal.command_buffer> target(%__device_0_executable_0_static_trace_linked : !hal.executable)[%c7] workgroups([%c1, %c1, %c1]) constants([%c192_i32, %c4_i32, %c0_i32]) bindings([
      (%c5 : index)[%c0, %c56384], 
      (%c5 : index)[%c0, %c56384], 
      (%c5 : index)[%c0, %c56384]
    ]) flags("None")
    hal.command_buffer.execution_barrier<%cmd : !hal.command_buffer> source("Dispatch|Transfer|CommandRetire") target("CommandIssue|Dispatch|Transfer") flags("None")
    hal.command_buffer.copy_buffer<%cmd : !hal.command_buffer> source(%c5 : index)[%c0] target(%c5 : index)[%c256] length(%c8) flags("None")
    hal.command_buffer.copy_buffer<%cmd : !hal.command_buffer> source(%c5 : index)[%c64] target(%c5 : index)[%c264] length(%c8) flags("None")
    hal.command_buffer.execution_barrier<%cmd : !hal.command_buffer> source("Dispatch|Transfer|CommandRetire") target("CommandIssue|Dispatch|Transfer") flags("None")
    hal.command_buffer.dispatch<%cmd : !hal.command_buffer> target(%__device_0_executable_0_static_trace_linked : !hal.executable)[%c8] workgroups([%c1, %c1, %c1]) constants([%c256_i32, %c0_i32]) bindings([
      (%c5 : index)[%c0, %c56384], 
      (%c5 : index)[%c0, %c56384]
    ]) flags("None")
    hal.command_buffer.dispatch<%cmd : !hal.command_buffer> target(%__device_0_executable_0_static_trace_linked : !hal.executable)[%c10] workgroups([%c1, %c1, %c1]) constants([%c256_i32, %c64_i32]) bindings([
      (%c5 : index)[%c0, %c56384], 
      (%c5 : index)[%c0, %c56384]
    ]) flags("None")
    hal.command_buffer.execution_barrier<%cmd : !hal.command_buffer> source("Dispatch|Transfer|CommandRetire") target("CommandIssue|Dispatch|Transfer") flags("None")
    hal.command_buffer.dispatch<%cmd : !hal.command_buffer> target(%__device_0_executable_0_static_trace_linked : !hal.executable)[%c13] workgroups([%c1, %c1, %c1]) constants([%c64_i32, %c256_i32]) bindings([
      (%c5 : index)[%c0, %c56384], 
      (%c5 : index)[%c0, %c56384]
    ]) flags("None")
    hal.command_buffer.execution_barrier<%cmd : !hal.command_buffer> source("Dispatch|Transfer|CommandRetire") target("CommandIssue|Dispatch|Transfer") flags("None")
    hal.command_buffer.copy_buffer<%cmd : !hal.command_buffer> source(%c5 : index)[%c256] target(%c5 : index)[%c384] length(%c4) flags("None")
    hal.command_buffer.dispatch<%cmd : !hal.command_buffer> target(%__device_0_executable_0_static_trace_linked : !hal.executable)[%c9] workgroups([%c1, %c1, %c1]) constants([%c0_i32, %c388_i32]) bindings([
      (%c5 : index)[%c0, %c56384], 
      (%c5 : index)[%c0, %c56384]
    ]) flags("None")
    hal.command_buffer.dispatch<%cmd : !hal.command_buffer> target(%__device_0_executable_0_static_trace_linked : !hal.executable)[%c11] workgroups([%c1, %c1, %c1]) constants([%c64_i32, %c448_i32]) bindings([
      (%c5 : index)[%c0, %c56384], 
      (%c5 : index)[%c0, %c56384]
    ]) flags("None")
    hal.command_buffer.dispatch<%cmd : !hal.command_buffer> target(%__device_0_executable_0_static_trace_linked : !hal.executable)[%c12] workgroups([%c1, %c1, %c1]) constants([%c0_i32, %c64_i32, %c452_i32]) bindings([
      (%c5 : index)[%c0, %c56384], 
      (%c5 : index)[%c0, %c56384]
    ]) flags("None")
    hal.command_buffer.execution_barrier<%cmd : !hal.command_buffer> source("Dispatch|Transfer|CommandRetire") target("CommandIssue|Dispatch|Transfer") flags("None")
    hal.command_buffer.copy_buffer<%cmd : !hal.command_buffer> source(%c5 : index)[%c448] target(%c5 : index)[%c256] length(%c8) flags("None")
    hal.command_buffer.copy_buffer<%cmd : !hal.command_buffer> source(%c5 : index)[%c384] target(%c5 : index)[%c264] length(%c8) flags("None")
    hal.command_buffer.execution_barrier<%cmd : !hal.command_buffer> source("Dispatch|Transfer|CommandRetire") target("CommandIssue|Dispatch|Transfer") flags("None")
    hal.command_buffer.dispatch<%cmd : !hal.command_buffer> target(%__device_0_executable_0_static_trace_linked : !hal.executable)[%c14] workgroups([%c1, %c1, %c1]) constants([%c0_i32, %c64_i32, %c256_i32, %c384_i32]) bindings([
      (%c5 : index)[%c0, %c56384], 
      (%c5 : index)[%c0, %c56384]
    ]) flags("None")
    hal.command_buffer.execution_barrier<%cmd : !hal.command_buffer> source("Dispatch|Transfer|CommandRetire") target("CommandIssue|Dispatch|Transfer") flags("None")
    hal.command_buffer.dispatch<%cmd : !hal.command_buffer> target(%__device_0_executable_0_static_trace_linked : !hal.executable)[%c15] workgroups([%c1, %c1, %c1]) constants([%c320_i32, %c384_i32, %c256_i32]) bindings([
      (%c5 : index)[%c0, %c56384], 
      (%c5 : index)[%c0, %c56384]
    ]) flags("None")
    hal.command_buffer.execution_barrier<%cmd : !hal.command_buffer> source("Dispatch|Transfer|CommandRetire") target("CommandIssue|Dispatch|Transfer") flags("None")
    hal.command_buffer.dispatch<%cmd : !hal.command_buffer> target(%__device_0_executable_0_static_trace_linked : !hal.executable)[%c16] workgroups([%c1, %c1, %c1]) constants([%c256_i32, %c192_i32, %c0_i32]) bindings([
      (%c5 : index)[%c0, %c56384], 
      (%c5 : index)[%c0, %c56384], 
      (%c5 : index)[%c0, %c56384]
    ]) flags("None")
    hal.command_buffer.execution_barrier<%cmd : !hal.command_buffer> source("Dispatch|Transfer|CommandRetire") target("CommandIssue|Dispatch|Transfer") flags("None")
    hal.command_buffer.dispatch<%cmd : !hal.command_buffer> target(%__device_0_executable_0_static_trace_linked : !hal.executable)[%c5] workgroups([%c1, %c1, %c1]) constants([%c0_i32, %c64_i32, %c196_i32, %c192_i32]) bindings([
      (%c5 : index)[%c0, %c56384], 
      (%c5 : index)[%c0, %c56384], 
      (%c5 : index)[%c0, %c56384], 
      (%c5 : index)[%c0, %c56384]
    ]) flags("None")
    hal.command_buffer.execution_barrier<%cmd : !hal.command_buffer> source("Dispatch|Transfer|CommandRetire") target("CommandIssue|Dispatch|Transfer") flags("None")
    hal.command_buffer.copy_buffer<%cmd : !hal.command_buffer> source(%c5 : index)[%c192] target(%c5 : index)[%c256] length(%c8) flags("None")
    hal.command_buffer.execution_barrier<%cmd : !hal.command_buffer> source("Dispatch|Transfer|CommandRetire") target("CommandIssue|Dispatch|Transfer") flags("None")
    hal.command_buffer.copy_buffer<%cmd : !hal.command_buffer> source(%c5 : index)[%c64] target(%c5 : index)[%c260] length(%c4) flags("None")
    hal.command_buffer.execution_barrier<%cmd : !hal.command_buffer> source("Dispatch|Transfer|CommandRetire") target("CommandIssue|Dispatch|Transfer") flags("None")
    hal.command_buffer.dispatch<%cmd : !hal.command_buffer> target(%__device_0_executable_0_static_trace_linked : !hal.executable)[%c17] workgroups([%c1, %c1, %c1]) bindings([
      (%c5 : index)[%c0, %c56384], 
      (%c5 : index)[%c0, %c56384]
    ]) flags("None")
    hal.command_buffer.dispatch<%cmd : !hal.command_buffer> target(%__device_0_executable_0_static_trace_linked : !hal.executable)[%c7] workgroups([%c1, %c1, %c1]) constants([%c0_i32, %c68_i32, %c64_i32]) bindings([
      (%c5 : index)[%c0, %c56384], 
      (%c5 : index)[%c0, %c56384], 
      (%c5 : index)[%c0, %c56384]
    ]) flags("None")
    hal.command_buffer.execution_barrier<%cmd : !hal.command_buffer> source("Dispatch|Transfer|CommandRetire") target("CommandIssue|Dispatch|Transfer") flags("None")
    hal.command_buffer.copy_buffer<%cmd : !hal.command_buffer> source(%c5 : index)[%c64] target(%c5 : index)[%c256] length(%c8) flags("None")
    hal.command_buffer.copy_buffer<%cmd : !hal.command_buffer> source(%c5 : index)[%c192] target(%c5 : index)[%c264] length(%c8) flags("None")
    hal.command_buffer.execution_barrier<%cmd : !hal.command_buffer> source("Dispatch|Transfer|CommandRetire") target("CommandIssue|Dispatch|Transfer") flags("None")
    hal.command_buffer.dispatch<%cmd : !hal.command_buffer> target(%__device_0_executable_0_static_trace_linked : !hal.executable)[%c8] workgroups([%c1, %c1, %c1]) constants([%c256_i32, %c64_i32]) bindings([
      (%c5 : index)[%c0, %c56384], 
      (%c5 : index)[%c0, %c56384]
    ]) flags("None")
    hal.command_buffer.dispatch<%cmd : !hal.command_buffer> target(%__device_0_executable_0_static_trace_linked : !hal.executable)[%c10] workgroups([%c1, %c1, %c1]) constants([%c256_i32, %c192_i32]) bindings([
      (%c5 : index)[%c0, %c56384], 
      (%c5 : index)[%c0, %c56384]
    ]) flags("None")
    hal.command_buffer.execution_barrier<%cmd : !hal.command_buffer> source("Dispatch|Transfer|CommandRetire") target("CommandIssue|Dispatch|Transfer") flags("None")
    hal.command_buffer.dispatch<%cmd : !hal.command_buffer> target(%__device_0_executable_0_static_trace_linked : !hal.executable)[%c13] workgroups([%c1, %c1, %c1]) constants([%c192_i32, %c256_i32]) bindings([
      (%c5 : index)[%c0, %c56384], 
      (%c5 : index)[%c0, %c56384]
    ]) flags("None")
    hal.command_buffer.execution_barrier<%cmd : !hal.command_buffer> source("Dispatch|Transfer|CommandRetire") target("CommandIssue|Dispatch|Transfer") flags("None")
    hal.command_buffer.copy_buffer<%cmd : !hal.command_buffer> source(%c5 : index)[%c256] target(%c5 : index)[%c384] length(%c4) flags("None")
    hal.command_buffer.dispatch<%cmd : !hal.command_buffer> target(%__device_0_executable_0_static_trace_linked : !hal.executable)[%c9] workgroups([%c1, %c1, %c1]) constants([%c64_i32, %c388_i32]) bindings([
      (%c5 : index)[%c0, %c56384], 
      (%c5 : index)[%c0, %c56384]
    ]) flags("None")
    hal.command_buffer.dispatch<%cmd : !hal.command_buffer> target(%__device_0_executable_0_static_trace_linked : !hal.executable)[%c11] workgroups([%c1, %c1, %c1]) constants([%c192_i32, %c448_i32]) bindings([
      (%c5 : index)[%c0, %c56384], 
      (%c5 : index)[%c0, %c56384]
    ]) flags("None")
    hal.command_buffer.dispatch<%cmd : !hal.command_buffer> target(%__device_0_executable_0_static_trace_linked : !hal.executable)[%c12] workgroups([%c1, %c1, %c1]) constants([%c64_i32, %c192_i32, %c452_i32]) bindings([
      (%c5 : index)[%c0, %c56384], 
      (%c5 : index)[%c0, %c56384]
    ]) flags("None")
    hal.command_buffer.execution_barrier<%cmd : !hal.command_buffer> source("Dispatch|Transfer|CommandRetire") target("CommandIssue|Dispatch|Transfer") flags("None")
    hal.command_buffer.copy_buffer<%cmd : !hal.command_buffer> source(%c5 : index)[%c448] target(%c5 : index)[%c256] length(%c8) flags("None")
    hal.command_buffer.copy_buffer<%cmd : !hal.command_buffer> source(%c5 : index)[%c384] target(%c5 : index)[%c264] length(%c8) flags("None")
    hal.command_buffer.execution_barrier<%cmd : !hal.command_buffer> source("Dispatch|Transfer|CommandRetire") target("CommandIssue|Dispatch|Transfer") flags("None")
    hal.command_buffer.dispatch<%cmd : !hal.command_buffer> target(%__device_0_executable_0_static_trace_linked : !hal.executable)[%c14] workgroups([%c1, %c1, %c1]) constants([%c64_i32, %c192_i32, %c256_i32, %c384_i32]) bindings([
      (%c5 : index)[%c0, %c56384], 
      (%c5 : index)[%c0, %c56384]
    ]) flags("None")
    hal.command_buffer.execution_barrier<%cmd : !hal.command_buffer> source("Dispatch|Transfer|CommandRetire") target("CommandIssue|Dispatch|Transfer") flags("None")
    hal.command_buffer.dispatch<%cmd : !hal.command_buffer> target(%__device_0_executable_0_static_trace_linked : !hal.executable)[%c15] workgroups([%c1, %c1, %c1]) constants([%c320_i32, %c384_i32, %c64_i32]) bindings([
      (%c5 : index)[%c0, %c56384], 
      (%c5 : index)[%c0, %c56384]
    ]) flags("None")
    hal.command_buffer.execution_barrier<%cmd : !hal.command_buffer> source("Dispatch|Transfer|CommandRetire") target("CommandIssue|Dispatch|Transfer") flags("None")
    hal.command_buffer.dispatch<%cmd : !hal.command_buffer> target(%__device_0_executable_0_static_trace_linked : !hal.executable)[%c16] workgroups([%c1, %c1, %c1]) constants([%c64_i32, %c0_i32, %c192_i32]) bindings([
      (%c5 : index)[%c0, %c56384], 
      (%c5 : index)[%c0, %c56384], 
      (%c5 : index)[%c0, %c56384]
    ]) flags("None")
    hal.command_buffer.execution_barrier<%cmd : !hal.command_buffer> source("Dispatch|Transfer|CommandRetire") target("CommandIssue|Dispatch|Transfer") flags("None")
    hal.command_buffer.dispatch<%cmd : !hal.command_buffer> target(%__device_0_executable_0_static_trace_linked : !hal.executable)[%c5] workgroups([%c1, %c1, %c1]) constants([%c192_i32, %c0_i32, %c68_i32, %c64_i32]) bindings([
      (%c5 : index)[%c0, %c56384], 
      (%c5 : index)[%c0, %c56384], 
      (%c5 : index)[%c0, %c56384], 
      (%c5 : index)[%c0, %c56384]
    ]) flags("None")
    hal.command_buffer.execution_barrier<%cmd : !hal.command_buffer> source("Dispatch|Transfer|CommandRetire") target("CommandIssue|Dispatch|Transfer") flags("None")
    hal.command_buffer.copy_buffer<%cmd : !hal.command_buffer> source(%c5 : index)[%c64] target(%c5 : index)[%c256] length(%c8) flags("None")
    hal.command_buffer.execution_barrier<%cmd : !hal.command_buffer> source("Dispatch|Transfer|CommandRetire") target("CommandIssue|Dispatch|Transfer") flags("None")
    hal.command_buffer.copy_buffer<%cmd : !hal.command_buffer> source(%c5 : index)[%c0] target(%c5 : index)[%c260] length(%c4) flags("None")
    hal.command_buffer.execution_barrier<%cmd : !hal.command_buffer> source("Dispatch|Transfer|CommandRetire") target("CommandIssue|Dispatch|Transfer") flags("None")
    hal.command_buffer.dispatch<%cmd : !hal.command_buffer> target(%__device_0_executable_0_static_trace_linked : !hal.executable)[%c17] workgroups([%c1, %c1, %c1]) bindings([
      (%c5 : index)[%c0, %c56384], 
      (%c5 : index)[%c0, %c56384]
    ]) flags("None")
    hal.command_buffer.dispatch<%cmd : !hal.command_buffer> target(%__device_0_executable_0_static_trace_linked : !hal.executable)[%c7] workgroups([%c1, %c1, %c1]) constants([%c192_i32, %c4_i32, %c0_i32]) bindings([
      (%c5 : index)[%c0, %c56384], 
      (%c5 : index)[%c0, %c56384], 
      (%c5 : index)[%c0, %c56384]
    ]) flags("None")
    hal.command_buffer.execution_barrier<%cmd : !hal.command_buffer> source("Dispatch|Transfer|CommandRetire") target("CommandIssue|Dispatch|Transfer") flags("None")
