#composite_of_8960b = #util.composite<8960xi8, [
    dense<"0xC33C46BD233AA03D8760E43DF310A3BD92EA023DDFFFFA3C3FB59CBDD67822BD657B11BE2E4CEEBD428D22BD46CC993D3076D8BD25E617BD5F6A8EBB21A71F3C9F7F80BD92A3FE3C723613BE77408B3D9251B13DCF91BFBDF9DA743DD64527BD639EB5BD68CB173D33409E3C1DDFA7BD3723DD3DF05AB9BCF96FE7BD4299C63D030B3A3D238ABBBCFBF0BC3D746E953DA3624D3C3065213D6DF8993CBF1588BD5115883C8A42E53AF62D0EBEE6A0DFBB684E123D953A313DE3220C3C419B17BDECF9CBBD0A518DBD93F5E6BDD33064BD1122F63D7F91023E7F8CE83D0153A63C624B9C3D96D3FABDCCB00DBE49488CBD147795BD5FDA12BE5B0F4BBD569FE0BD372A103E5ACA8A3CA12B9A3CC949703DE500CEBD67CBA9BDD8E8703B36DE92BDBCD80DBD0133053E6302033D8483A13B5FC4D5BDE3670CBECF09723DB12606BEC171D23DC993023C82E1B9BD8AA9AA3C39B0ABBDABC471BD29BC033EB5F06E3D80E30E3E8DA7D73DC70D5B3DD7F9F23BC14F93BD3EA8E33DF6F293BD558AE63C0F46CCBDBE2712BED055373D7EF5A73DF061B93DA792ACBD4CF702BECD2E18BC8B5EF4BDC4FABB3DC56C0A3EBC5FDA3DF4B408BDCBD6E43C765E0C3E42B85CBDC5C6FBBCBA5EF5BDE549E6BD347B0DBC83BF0EBD746DA4BC84A2E2BD36A4BEBDFC0CDDBDB05E7EBDCBB8383DD8B091BD4EDBB23C5A70F3BDE7B5D83D37E6AD3C68940EBD3AF579BDDB8E083EC064CC3CD7CAA43C15972B3DC6F16FBD35E99B3D4526683DD97395BA82FFF43C85E6C3BC93B88D3DFC2BA3BD30A6CE3D36411FBD80D71BBD33695B3DA7BAAC3DFC17E03D9B5C13BDFCF6D1BC3B988A3C185DE0BDC3ED03BC0B99993D9E1E613DA0DB2D3D3889FE3D9BB8AF3CF375AE3D68C98FBDDF570FBE3CB1063ED6D8693D89BDD93D5C95C73DFD9CAA3D3CA5033C1DCC9BBCD18D9C3CD8AC16BCF22914BD162811BDD87B67BD87DFBFBDD74EDBBCB6346FBD6B688BBD566703BE03ECE53D18578FBD7EA4D9BDF9FF05BE8B083CBD2786BCBD64FEF6BC8114093DB4D0F23BBD513DBC3D56E13C81CF82BC2F18FB3DD6AC58BD"> : tensor<4x3x4x4xf32>,
    dense<"0x9866223D00DADBBA0000000000000000000000000000000000000000000000003045FDBBBCDD46BD000000000000000000000000000000000000000000000000108D2DBDCEA10FBD000000000000000000000000000000000000000000000000886F0ABD9030AA3C000000000000000000000000000000000000000000000000189132BC7A62153D0000000000000000000000000000000000000000000000005008E9BCA070F1BC000000000000000000000000000000000000000000000000A81968BCF09CD03C0000000000000000000000000000000000000000000000000849B4BCC8CB4FBD00000000000000000000000000000000000000000000000082C26E3DC00B45BB00000000000000000000000000000000000000000000000064A8863CC21948BD000000000000000000000000000000000000000000000000D0AF2C3C489D333C000000000000000000000000000000000000000000000000905C813C3848A93C000000000000000000000000000000000000000000000000B8A20BBC60DF933B000000000000000000000000000000000000000000000000F866223C142BFF3C000000000000000000000000000000000000000000000000F082313D608241BB000000000000000000000000000000000000000000000000ECEEC2BC8E5A083D000000000000000000000000000000000000000000000000E8E157BC001279BB000000000000000000000000000000000000000000000000087710BCC24A3E3D000000000000000000000000000000000000000000000000DA705CBD00164CBA00000000000000000000000000000000000000000000000066B7253DC03A453C000000000000000000000000000000000000000000000000E60D6CBDD0695B3C000000000000000000000000000000000000000000000000705697BB9E06073D00000000000000000000000000000000000000000000000070668CBB1086D7BC000000000000000000000000000000000000000000000000A8D94A3D80E4DA3B000000000000000000000000000000000000000000000000905652BC605B18BC0000000000000000000000000000000000000000000000002CF8B6BCE617783D000000000000000000000000000000000000000000000000D6AC0BBD88A9C03C000000000000000000000000000000000000000000000000EC70243D5C34FE3C000000000000000000000000000000000000000000000000E0E0693BFCE232BD0000000000000000000000000000000000000000000000009041B43C4A0B5FBD0000000000000000000000000000000000000000000000009CB2D9BCA024083B000000000000000000000000000000000000000000000000285563BC5ABD24BD0000000000000000000000000000000000000000000000008872613CAEED71BD00000000000000000000000000000000000000000000000020B75DBCC02EEA3A000000000000000000000000000000000000000000000000F0CFB5BC38A60BBC000000000000000000000000000000000000000000000000768341BDE089653D0000000000000000000000000000000000000000000000008033C9BB80B3CFBB000000000000000000000000000000000000000000000000CA57763DE8E7113C000000000000000000000000000000000000000000000000BCDA22BD201BC43B0000000000000000000000000000000000000000000000006859183CE84964BD00000000000000000000000000000000000000000000000080CEC5BC8C616BBD0000000000000000000000000000000000000000000000008A0831BDEE1A74BD000000000000000000000000000000000000000000000000B86D513D30615E3D00000000000000000000000000000000000000000000000074EFD33CF8F322BD00000000000000000000000000000000000000000000000010CB61BCF000113D00000000000000000000000000000000000000000000000000EBF439ACCE8F3C0000000000000000000000000000000000000000000000005A0B3CBD064004BD00000000000000000000000000000000000000000000000096A4583DE0B8FA3C0000000000000000000000000000000000000000000000007877DC3C6CAEF6BC0000000000000000000000000000000000000000000000005C51973C541A4BBD0000000000000000000000000000000000000000000000000AB37C3DC086703D000000000000000000000000000000000000000000000000665B63BD7878123C000000000000000000000000000000000000000000000000E0E881BC00E5203A000000000000000000000000000000000000000000000000A0EC47BB941F513D00000000000000000000000000000000000000000000000070ED083CDEDD35BD000000000000000000000000000000000000000000000000882B5EBD9A02713D00000000000000000000000000000000000000000000000008E9903CBEDD493D00000000000000000000000000000000000000000000000062CB38BD10DDE53B000000000000000000000000000000000000000000000000781B033C1C289D3C00000000000000000000000000000000000000000000000092AC63BDC8D004BD00000000000000000000000000000000000000000000000012257FBDDE7E683D000000000000000000000000000000000000000000000000961F5B3D48533F3D000000000000000000000000000000000000000000000000F0B71A3D60996F3B000000000000000000000000000000000000000000000000F0B80C3C6C00313D000000000000000000000000000000000000000000000000AC59B13C64AA91BC000000000000000000000000000000000000000000000000D867C7BCF005D63B00000000000000000000000000000000000000000000000098B007BDB830BC3C00000000000000000000000000000000000000000000000080A7863A30FCF53B00000000000000000000000000000000000000000000000020CA6DBC800F073B00000000000000000000000000000000000000000000000030EC8D3C26F53BBD00000000000000000000000000000000000000000000000090B0CCBBB467763D000000000000000000000000000000000000000000000000960012BD927A083D000000000000000000000000000000000000000000000000D4E6913C1A0F0DBD0000000000000000000000000000000000000000000000006811183D92763F3D000000000000000000000000000000000000000000000000B8865EBD888B23BC00000000000000000000000000000000000000000000000064007A3D64E127BD0000000000000000000000000000000000000000000000007AF5423D70E313BD00000000000000000000000000000000000000000000000000B264BAC0D6FBBB0000000000000000000000000000000000000000000000005A2B3BBDBC39CBBC00000000000000000000000000000000000000000000000082762F3D50D5F23B0000000000000000000000000000000000000000000000006ECB673D182B6C3C000000000000000000000000000000000000000000000000E04D19BD0852183C0000000000000000000000000000000000000000000000002C42AEBC88C4F53C00000000000000000000000000000000000000000000000058AF88BC6E564CBD000000000000000000000000000000000000000000000000186B6A3C48690F3C000000000000000000000000000000000000000000000000B2E856BDF053133C0000000000000000000000000000000000000000000000000CA3FE3CAC638ABC0000000000000000000000000000000000000000000000009080B93C10EE3CBC000000000000000000000000000000000000000000000000A457EBBC341C28BD000000000000000000000000000000000000000000000000F03737BDE86A26BD0000000000000000000000000000000000000000000000000AFB32BD94B984BC000000000000000000000000000000000000000000000000E266473D0A9C5F3D000000000000000000000000000000000000000000000000A26D1BBDD0BF193D0000000000000000000000000000000000000000000000002C8D56BDAC0932BD00000000000000000000000000000000000000000000000098D1FABCE85BBBBC000000000000000000000000000000000000000000000000F0DF0A3C9C3CC9BC00000000000000000000000000000000000000000000000040DA5DBB846E67BD0000000000000000000000000000000000000000000000000E7E003D441A453D0000000000000000000000000000000000000000000000007423FB3C90D794BB00000000000000000000000000000000000000000000000008DDEA3CD457553D000000000000000000000000000000000000000000000000307B95BCE8D9173D00000000000000000000000000000000000000000000000080C2ED3C547CC2BC00000000000000000000000000000000000000000000000080F913BDD2496CBD000000000000000000000000000000000000000000000000F65A62BDA82079BC0000000000000000000000000000000000000000000000007C7EB63C54FD80BC000000000000000000000000000000000000000000000000088F65BDC6F2163D000000000000000000000000000000000000000000000000AC59263DBC0FE33C000000000000000000000000000000000000000000000000005AEA3BEE4C0F3D000000000000000000000000000000000000000000000000C022AA3AF8808C3C000000000000000000000000000000000000000000000000701C273C38F4B93C00000000000000000000000000000000000000000000000078B4113DA82133BC000000000000000000000000000000000000000000000000F8B84BBCDCE994BC000000000000000000000000000000000000000000000000483D0ABD4C52E6BC0000000000000000000000000000000000000000000000009480FBBC80DF923C000000000000000000000000000000000000000000000000BADE50BD8EE113BD0000000000000000000000000000000000000000000000000054603BA27526BD00000000000000000000000000000000000000000000000040655C3D4CAC5BBD00000000000000000000000000000000000000000000000094C39DBC32B81E3D000000000000000000000000000000000000000000000000083E7FBD60FCE93C00000000000000000000000000000000000000000000000090D20DBC402471BB00000000000000000000000000000000000000000000000054422ABD3CF4B03C000000000000000000000000000000000000000000000000046C0D3D1E4E2EBD000000000000000000000000000000000000000000000000AE945A3DB00400BD000000000000000000000000000000000000000000000000CACE59BD26A40D3D000000000000000000000000000000000000000000000000804F183D90B823BD000000000000000000000000000000000000000000000000404B0EBBF63444BD00000000000000000000000000000000000000000000000000B3DCBB4849693D00000000000000000000000000000000000000000000000080AF1E3BDE6827BD0000000000000000000000000000000000000000000000007E08143DACAF593D000000000000000000000000000000000000000000000000EC18CCBC3A7C513D000000000000000000000000000000000000000000000000DA4735BDE8FA5BBC000000000000000000000000000000000000000000000000B62506BD007D57BA0000000000000000000000000000000000000000000000008874F4BC00B08ABB0000000000000000000000000000000000000000000000005EC93CBDFEAF35BD000000000000000000000000000000000000000000000000E890723DE0C7F1BB000000000000000000000000000000000000000000000000C89A073D1856B13C0000000000000000000000000000000000000000000000003AE1513D86C6523D0000000000000000000000000000000000000000000000005E1760BD1CB8D63C00000000000000000000000000000000000000000000000060AF6D3D0803783C000000000000000000000000000000000000000000000000C8033C3DE6CB7DBD000000000000000000000000000000000000000000000000D0F40F3D90B9BDBB000000000000000000000000000000000000000000000000D0E4F8BC9E2C373D000000000000000000000000000000000000000000000000BE3731BDEE97733D000000000000000000000000000000000000000000000000C2873BBD9AE42BBD00000000000000000000000000000000000000000000000094E8163DCE1A65BD000000000000000000000000000000000000000000000000240AD6BC665950BD0000000000000000000000000000000000000000000000000CD84DBDDA49153D0000000000000000000000000000000000000000000000001E00393D4645733D000000000000000000000000000000000000000000000000523378BDC0BEF23C00000000000000000000000000000000000000000000000068BF6C3D46E94B3D000000000000000000000000000000000000000000000000E22F393D5898B2BC0000000000000000000000000000000000000000000000005CA4B2BCD6DB29BD000000000000000000000000000000000000000000000000127F07BD8CBE48BD0000000000000000000000000000000000000000000000004007BCBBF67739BD000000000000000000000000000000000000000000000000F077B63CE045C0BB000000000000000000000000000000000000000000000000B4AEA3BC7A060BBD00000000000000000000000000000000000000000000000026CA7BBDF0073E3C00000000000000000000000000000000000000000000000008B2323C06172B3D000000000000000000000000000000000000000000000000445267BDF0840CBD0000000000000000000000000000000000000000000000009CE672BD6CF0FD3C000000000000000000000000000000000000000000000000D08AFFBC901AC4BB0000000000000000000000000000000000000000000000008E8A1EBDE0DD37BC000000000000000000000000000000000000000000000000586515BD76987EBD00000000000000000000000000000000000000000000000000317D3BE0AB653D0000000000000000000000000000000000000000000000008818D3BC205A6DBD0000000000000000000000000000000000000000000000007850E93CF0108ABB0000000000000000000000000000000000000000000000002833B83C9E776D3D0000000000000000000000000000000000000000000000006C9615BD82AF663D0000000000000000000000000000000000000000000000003C491BBD00F33ABA000000000000000000000000000000000000000000000000E0A812BDECF8ABBC00000000000000000000000000000000000000000000000008BCBE3CD6FD00BD000000000000000000000000000000000000000000000000AC09BE3C889153BD000000000000000000000000000000000000000000000000A8113F3DF8C9203D000000000000000000000000000000000000000000000000ACA0FD3CE0744ABB000000000000000000000000000000000000000000000000D46773BD70FA88BB000000000000000000000000000000000000000000000000BAE20EBD60C8CF3B000000000000000000000000000000000000000000000000806960BC1628423D000000000000000000000000000000000000000000000000527A7F3D20223CBD000000000000000000000000000000000000000000000000E2AD583DB4CFE13C0000000000000000000000000000000000000000000000000CAC803C1E24043D00000000000000000000000000000000000000000000000050BEC2BC001824B8000000000000000000000000000000000000000000000000908101BD0056B7BC000000000000000000000000000000000000000000000000A49C5D3DFA6B473D000000000000000000000000000000000000000000000000C093793B406C28BC000000000000000000000000000000000000000000000000E27F0D3DD0D9A43B000000000000000000000000000000000000000000000000609AA0BCFA6E45BD00000000000000000000000000000000000000000000000094012CBDC0B8163B0000000000000000000000000000000000000000000000007CADCABC90DD60BC00000000000000000000000000000000000000000000000050B01FBDB4678FBC000000000000000000000000000000000000000000000000E0BBA7BBE06CC13C00000000000000000000000000000000000000000000000086571ABD562B2B3D0000000000000000000000000000000000000000000000000C84D73C709D3E3C000000000000000000000000000000000000000000000000F8B452BCC45AC9BC0000000000000000000000000000000000000000000000008C25F1BCC8342FBD000000000000000000000000000000000000000000000000CCA7663D0C880FBD000000000000000000000000000000000000000000000000EE4F733DD67B6C3D000000000000000000000000000000000000000000000000801D17BA225F39BD00000000000000000000000000000000000000000000000000F4E8BBF053A1BB0000000000000000000000000000000000000000000000007E201ABD803063BC0000000000000000000000000000000000000000000000009ED961BD1048A93B0000000000000000000000000000000000000000000000004CE180BC4A5378BD000000000000000000000000000000000000000000000000FE5776BDB0E0383C0000000000000000000000000000000000000000000000009420EDBC14AA33BD0000000000000000000000000000000000000000000000004ABA55BDCC45E3BC0000000000000000000000000000000000000000000000001002093D865A2FBD000000000000000000000000000000000000000000000000E06D4A3CBE48293D000000000000000000000000000000000000000000000000A6E64E3DDCE5153D000000000000000000000000000000000000000000000000426E49BDE055BF3C00000000000000000000000000000000000000000000000004F224BD283C4BBD000000000000000000000000000000000000000000000000E861D4BC809156BD000000000000000000000000000000000000000000000000F637783DFE375DBD00000000000000000000000000000000000000000000000078610E3D04B5E3BC00000000000000000000000000000000000000000000000092B6663D828577BD0000000000000000000000000000000000000000000000003C8B8E3CC4F9C43C000000000000000000000000000000000000000000000000AA0D7B3DA45E143D0000000000000000000000000000000000000000000000004061BEBC62705C3D0000000000000000000000000000000000000000000000004007613DC0C8273C000000000000000000000000000000000000000000000000C0172A3BA8EEB13C0000000000000000000000000000000000000000000000005E164ABDD8B75DBD000000000000000000000000000000000000000000000000A0CA13BC1CB8E63C0000000000000000000000000000000000000000000000006AF70A3DA65475BD000000000000000000000000000000000000000000000000B0EB40BCC0B9373D000000000000000000000000000000000000000000000000B452CE3C349F593D0000000000000000000000000000000000000000000000004E47733D00B26EBC00000000000000000000000000000000000000000000000042435ABDAA30733D0000000000000000000000000000000000000000000000007096883C9A1F103D000000000000000000000000000000000000000000000000045CE9BCEE4C73BD000000000000000000000000000000000000000000000000D81EC23C20CFFD3C000000000000000000000000000000000000000000000000A0D79F3C6E6D4BBD0000000000000000000000000000000000000000000000000CBF243DF04DA6BB0000000000000000000000000000000000000000000000002053EFBCE489773D0000000000000000000000000000000000000000000000004C2FAEBC40438CBA00000000000000000000000000000000000000000000000024B4E9BCB863FF3C000000000000000000000000000000000000000000000000CC30673D8869603D00000000000000000000000000000000000000000000000020505BBB706FC83C00000000000000000000000000000000000000000000000040B191BB94A6663D0000000000000000000000000000000000000000000000005E25723D740E413D00000000000000000000000000000000000000000000000084F3803CB09AFA3B000000000000000000000000000000000000000000000000FA87053DA8ED323D000000000000000000000000000000000000000000000000A0A1043B546400BD000000000000000000000000000000000000000000000000FC9F89BC7CC703BD000000000000000000000000000000000000000000000000AC72EE3C58CD2F3C0000000000000000000000000000000000000000000000002831F53CA879B53C000000000000000000000000000000000000000000000000120857BD3C6B6A3D000000000000000000000000000000000000000000000000C06F903A00F9DFBB000000000000000000000000000000000000000000000000101184BCCA8530BD000000000000000000000000000000000000000000000000C8540F3D306B313D000000000000000000000000000000000000000000000000F4D19A3C367A033D000000000000000000000000000000000000000000000000CAA0673DB03678BD000000000000000000000000000000000000000000000000C4A9C0BCE8A616BD000000000000000000000000000000000000000000000000FC750ABDC03E9C3B00000000000000000000000000000000000000000000000040FA71BB7C4A8ABC00000000000000000000000000000000000000000000000064229ABC14AF7EBD000000000000000000000000000000000000000000000000C4E2E43C10EA953C00000000000000000000000000000000000000000000000036661DBDF6C62B3D000000000000000000000000000000000000000000000000581F3F3D5853BD3C000000000000000000000000000000000000000000000000"> : tensor<1x256x8x1xf32>,
]>
module @integrated_robot_application {
  hal.executable private @integrated_robot_application_linked {
    hal.executable.binary public @embedded_elf_x86_64 attributes {data = dense<"0x7F454C4602010100000000000000000003003E000100000000000000000000004000000000000000E864000000000000000000004000380007004000150013000600000004000000400000000000000040000000000000004000000000000000880100000000000088010000000000000800000000000000010000000400000000000000000000000000000000000000000000000000000028230000000000002823000000000000001000000000000001000000050000003023000000000000303300000000000030330000000000008117000000000000811700000000000000100000000000000100000006000000C03A000000000000C05A000000000000C05A0000000000006807000000000000401500000000000000100000000000000200000006000000684100000000000068610000000000006861000000000000C000000000000000C000000000000000080000000000000052E5746404000000C03A000000000000C05A000000000000C05A00000000000068070000000000004015000000000000010000000000000051E57464060000000000000000000000000000000000000000000000000000000000000000000000000000000000000000000000000000000000000000000000000000000000000000000000000000000100000012000700A04A000000000000110000000000000002000000020000000000000001000000000000000000000000697265655F68616C5F65786563757461626C655F6C6962726172795F7175657279000000000000C85A00000000000008000000000000002812000000000000E05A00000000000008000000000000003033000000000000E85A0000000000000800000000000000D035000000000000F05A00000000000008000000000000007036000000000000F85A00000000000008000000000000003038000000000000005B00000000000008000000000000005039000000000000085B0000000000000800000000000000E039000000000000105B0000000000000800000000000000103A000000000000185B0000000000000800000000000000E03A000000000000205B0000000000000800000000000000103D000000000000285B0000000000000800000000000000303F000000000000305B0000000000000800000000000000703F000000000000385B0000000000000800000000000000A041000000000000405B00000000000008000000000000007042000000000000485B00000000000008000000000000009042000000000000505B0000000000000800000000000000B042000000000000585B0000000000000800000000000000E042000000000000605B00000000000008000000000000001043000000000000685B00000000000008000000000000004043000000000000705B00000000000008000000000000007043000000000000785B00000000000008000000000000003044000000000000805B00000000000008000000000000009044000000000000885B0000000000000800000000000000C044000000000000905B00000000000008000000000000000045000000000000985B00000000000008000000000000003047000000000000A05B00000000000008000000000000005049000000000000A85B0000000000000800000000000000B049000000000000B05B0000000000000800000000000000E049000000000000B85B0000000000000800000000000000404A000000000000C05B0000000000000800000000000000301A000000000000C85B00000000000008000000000000005D1A000000000000D05B0000000000000800000000000000801A000000000000D85B0000000000000800000000000000AE1A000000000000E05B0000000000000800000000000000D81A000000000000E85B0000000000000800000000000000071B000000000000F05B0000000000000800000000000000291B000000000000F85B0000000000000800000000000000561B000000000000005C0000000000000800000000000000831B000000000000085C0000000000000800000000000000B01B000000000000105C0000000000000800000000000000DB1B000000000000185C0000000000000800000000000000091C000000000000205C0000000000000800000000000000371C000000000000285C00000000000008000000000000006B1C000000000000305C0000000000000800000000000000991C000000000000385C0000000000000800000000000000CD1C000000000000405C0000000000000800000000000000FB1C000000000000485C0000000000000800000000000000291D000000000000505C0000000000000800000000000000571D000000000000585C0000000000000800000000000000881D000000000000605C0000000000000800000000000000B61D000000000000685C0000000000000800000000000000E71D000000000000705C00000000000008000000000000000F1E000000000000785C00000000000008000000000000003D1E000000000000805C00000000000008000000000000006B1E000000000000885C0000000000000800000000000000A21E000000000000905C0000000000000800000000000000CC1E000000000000985C0000000000000800000000000000031F000000000000A85C0000000000000800000000000000391F000000000000B85C0000000000000800000000000000391F000000000000C85C0000000000000800000000000000391F000000000000D85C0000000000000800000000000000391F000000000000E85C0000000000000800000000000000391F000000000000F85C0000000000000800000000000000391F000000000000085D0000000000000800000000000000391F000000000000185D0000000000000800000000000000391F000000000000285D0000000000000800000000000000391F000000000000385D0000000000000800000000000000391F000000000000485D0000000000000800000000000000391F000000000000585D0000000000000800000000000000391F000000000000685D0000000000000800000000000000391F000000000000785D0000000000000800000000000000391F000000000000885D0000000000000800000000000000391F000000000000985D0000000000000800000000000000391F000000000000A85D0000000000000800000000000000391F000000000000B85D0000000000000800000000000000391F000000000000C85D0000000000000800000000000000391F000000000000D85D0000000000000800000000000000391F000000000000E85D0000000000000800000000000000391F000000000000F85D0000000000000800000000000000391F000000000000085E0000000000000800000000000000391F000000000000185E0000000000000800000000000000391F000000000000285E0000000000000800000000000000391F000000000000385E0000000000000800000000000000391F000000000000485E0000000000000800000000000000391F000000000000585E0000000000000800000000000000391F000000000000685E0000000000000800000000000000501F000000000000705E0000000000000800000000000000501F000000000000805E0000000000000800000000000000501F000000000000885E0000000000000800000000000000501F000000000000985E0000000000000800000000000000501F000000000000A05E0000000000000800000000000000501F000000000000B05E0000000000000800000000000000501F000000000000B85E0000000000000800000000000000501F000000000000C85E0000000000000800000000000000501F000000000000D05E0000000000000800000000000000501F000000000000E05E0000000000000800000000000000501F000000000000E85E0000000000000800000000000000501F000000000000F85E0000000000000800000000000000501F000000000000005F0000000000000800000000000000501F000000000000105F0000000000000800000000000000501F000000000000185F0000000000000800000000000000501F000000000000285F0000000000000800000000000000501F000000000000305F0000000000000800000000000000501F000000000000405F0000000000000800000000000000501F000000000000485F0000000000000800000000000000501F000000000000585F0000000000000800000000000000501F000000000000605F0000000000000800000000000000501F000000000000705F0000000000000800000000000000501F000000000000785F0000000000000800000000000000501F000000000000885F0000000000000800000000000000501F000000000000905F0000000000000800000000000000501F000000000000A05F0000000000000800000000000000501F000000000000A85F0000000000000800000000000000501F000000000000B85F0000000000000800000000000000501F000000000000C05F0000000000000800000000000000501F000000000000D05F0000000000000800000000000000501F000000000000D85F0000000000000800000000000000501F000000000000E85F0000000000000800000000000000501F000000000000F05F0000000000000800000000000000501F00000000000000600000000000000800000000000000501F00000000000008600000000000000800000000000000501F00000000000018600000000000000800000000000000501F00000000000020600000000000000800000000000000501F00000000000030600000000000000800000000000000501F00000000000038600000000000000800000000000000501F00000000000048600000000000000800000000000000501F00000000000050600000000000000800000000000000501F00000000000060600000000000000800000000000000501F00000000000068600000000000000800000000000000501F00000000000078600000000000000800000000000000501F00000000000080600000000000000800000000000000501F00000000000090600000000000000800000000000000501F00000000000098600000000000000800000000000000501F000000000000A8600000000000000800000000000000501F000000000000B0600000000000000800000000000000501F000000000000C0600000000000000800000000000000501F000000000000C8600000000000000800000000000000501F000000000000D8600000000000000800000000000000501F000000000000E0600000000000000800000000000000501F000000000000F0600000000000000800000000000000501F000000000000F8600000000000000800000000000000501F00000000000000610000000000000800000000000000C05A00000000000020610000000000000800000000000000E05A00000000000028610000000000000800000000000000501200000000000030610000000000000800000000000000C05B00000000000040610000000000000800000000000000A05C00000000000048610000000000000800000000000000605E0000000000000000803F000080FF9888083CA4AA2A3D1300D7B24D638BB4A8383936961050B90000003FCDCC4CBE000000BFDB0FC9BF00000080DB0FC93F9CABCF37CDCCCC3DABAA2ABE8109B6BABD37863517B7D13883F9223F000000000000000000000000FFFFFFFFFFFFFFFF000000000000000000000000000000000000000000000000A83839369CABCF37A4AA2A3D9888083C8109B6BA961050B9961050B98109B6BA9CABCF37A8383936ABAA2ABE000000BF1300D7B24D638BB4000000BFABAA2ABE9888083CA4AA2A3D4D638BB41300D7B200000000000000000000000000000000000000000000000000000000000000000000000000000000000000000000000000000000CDCCCCBD0000000000000000000000000000000000000000000000000000000000000000000000000000000000000000000000000000000000000000427C143DFC021CBD000000000000000000000000000000000000000000000000000000000000000000000000000000000000000000000000000000000000000089F7763D63148B3D91D6D63C953684390000000000000000000000000000000000000000000000000000000000000000000000000000000000000000000000000000803F398E633F721C473FAAAA2A3FE4380E3F388EE33EAAAAAA3E388E633E388EE33D0000000000000000000000000000000000000000000000000000000000000000398EE33D398E633EABAAAA3E398EE33EE4380E3FABAA2A3F721C473F398E633F0000803F696E74656772617465645F726F626F745F6170706C69636174696F6E5F6C696E6B656400000000000000000500000000000000000000000000000000000000000000000000000000000000000000000000000000000000000000000000000000000000000000000000000000000000000000000200000000000000000000000000000000000000000000000000000000000000000000000000000000000000000000000000000000000000000000000000000000000000000000000300000000000000000000000000000000000000000000000000000000000000000000000000000000000000000000000000000000000000000000000000000000000000000000000200000000000000000000000000000000000000000000000000000000000000000000000000000000000000000000000000000000000000000000000000000000000000000000000300000000000000000000000000000000000000000000000000000000000000000000000000000000000000000000000000000000000000000000000000000000000000000000000200000000000000000000000000000000000000000000000000000000000000000000000000000000000000000000000000000000000000000000000000000000000000000000000200000000000000000000000000000000000000000000000000000000000000000000000000000000000000000000000000000000000000000000000000000000000000000000000200000000000000000000000000000000000000000000000000000000000000000000000000000000000000000000000000000000000000000000000000000000000000000000000200000000000000000000000000000000000000000000000000000000000000000000000000000000000000000000000000000000000000000000000000000000000000000000000300000000000000000000000000000000000000000000000000000000000000000000000000000000000000000000000000000000000000000000000000000000000000000000000200000000000000000000000000000000000000000000000000000000000000000000000000000000000000000000000000000000000000000000000000000000000000000000000200000000000000000000000000000000000000000000000000000000000000000000000000000000000000000000000000000000000000000000000000000000000000000000000200000000000000000000000000000000000000000000000000000000000000000000000000000000000000000000000000000000000000000000000000000000000000000000000200000000000000000000000000000000000000000000000000000000000000000000000000000000000000000000000000000000000000000000000000000000000000000000000200000000000000000000000000000000000000000000000000000000000000000000000000000000000000000000000000000000000000000000000000000000000000000000000200000000000000000000000000000000000000000000000000000000000000000000000000000000000000000000000000000000000000000000000000000000000000000000000200000000000000000000000000000000000000000000000000000000000000000000000000000000000000000000000000000000000000000000000000000000000000000000000200000000000000000000000000000000000000000000000000000000000000000000000000000000000000000000000000000000000000000000000000000000000000000000000200000000000000000000000000000000000000000000000000000000000000000000000000000000000000000000000000000000000000000000000000000000000000000000000200000000000000000000000000000000000000000000000000000000000000000000000000000000000000000000000000000000000000000000000000000000000000000000000200000000000000000000000000000000000000000000000000000000000000000000000000000000000000000000000000000000000000000000000000000000000000000000000300000000000000000000000000000000000000000000000000000000000000000000000000000000000000000000000000000000000000000000000000000000000000000000000200000000000000000000000000000000000000000000000000000000000000000000000000000000000000000000000000000000000000000000000000000000000000000000000200000000000000000000000000000000000000000000000000000000000000000000000000000000000000000000000000000000000000000000000000000000000000000000000200000000000000000000000000000000000000000000000000000000000000000000000000000000000000000000000000000000000000000000000000000000000000000000000200000000000000000000000000000000000000000000000000000000000000000000000000000000000000000000000000000000000000000000000000000000000000000000000200000000000000000000000000000000000000000000000000000000000000000000000000000000000000000000000000000000000000000000000000000000000000000000000200000000000000000000000000000000000000000000000000000000000000000000000000000000000000000000000000000000000000000000000000000000000000005F6D61696E246173796E635F64697370617463685F305F656C656D656E74776973655F62726F616463617374005F6D61696E246173796E635F64697370617463685F315F736C6F775F6D656D637079005F6D61696E246173796E635F64697370617463685F325F636F6E765F347831367831367833783478345F663332005F6D61696E246173796E635F64697370617463685F335F636F6E765F3478387838783278325F663332005F6D61696E246173796E635F64697370617463685F345F6D6D7434645F317831783235367831783878315F663332005F6D61696E246173796E635F64697370617463685F355F756E7061636B5F663332005F6D61696E246173796E635F64697370617463685F365F656C656D656E74776973655F62726F616463617374005F6D61696E246173796E635F64697370617463685F375F656C656D656E74776973655F62726F616463617374005F6D61696E246173796E635F64697370617463685F385F656C656D656E74776973655F62726F616463617374005F6D61696E246173796E635F64697370617463685F395F656C656D656E74776973655F3178325F663332005F6D61696E246173796E635F64697370617463685F31305F656C656D656E74776973655F62726F616463617374005F6D61696E246173796E635F64697370617463685F31315F656C656D656E74776973655F62726F616463617374005F6D61696E246173796E635F64697370617463685F31325F656C656D656E74776973655F62726F6164636173745F325F663332005F6D61696E246173796E635F64697370617463685F31335F656C656D656E74776973655F62726F616463617374005F6D61696E246173796E635F64697370617463685F31345F656C656D656E74776973655F62726F6164636173745F325F663332005F6D61696E246173796E635F64697370617463685F31355F656C656D656E74776973655F62726F616463617374005F6D61696E246173796E635F64697370617463685F31365F656C656D656E74776973655F62726F616463617374005F6D61696E246173796E635F64697370617463685F31375F656C656D656E74776973655F62726F616463617374005F6D61696E246173796E635F64697370617463685F31385F656C656D656E74776973655F3278325F6633325F7061636B005F6D61696E246173796E635F64697370617463685F31395F6D6D7434645F31783178327831783878315F663332005F6D61696E246173796E635F64697370617463685F32305F756E7061636B5F656C656D656E74776973655F325F663332005F6D61696E246173796E635F64697370617463685F32315F726564756374696F6E5F325F663332005F6D61696E246173796E635F64697370617463685F32325F656C656D656E74776973655F62726F616463617374005F6D61696E246173796E635F64697370617463685F32335F656C656D656E74776973655F62726F616463617374005F6D61696E246173796E635F64697370617463685F32345F656C656D656E74776973655F62726F6164636173745F313078325F663332005F6D61696E246173796E635F64697370617463685F32375F656C656D656E74776973655F325F663332005F6D61696E246173796E635F64697370617463685F32385F656C656D656E74776973655F62726F6164636173745F313078325F663332005F6D61696E246173796E635F64697370617463685F32395F656C656D656E74776973655F62726F6164636173745F3978325F66333200636F6D62696E65642E696E7075742E6D6C6972000000001400000000000000017A5200017810011B0C070890010000200000001C000000C01300009102000000410E108602430D060300020C0708410C0610001C000000400000003C1600009C00000000410E108602430D0602940C070800002800000060000000BC160000BD01000000410E108602430D065483078C068D058E048F0303A1010C07080000200000008C000000501800001901000000410E108602430D064383048E03030E010C07081C000000B00000004C1900008E00000000410E108602430D0602860C070800001C000000D0000000BC1900002B00000000410E108602430D06630C07080000001C000000F0000000CC190000C400000000410E108602430D0602BF0C0708000020000000100100007C1A00002E02000000410E108602430D060392010C0708410C0610002000000034010000881C00001F02000000410E108602430D060384010C0708410C0610001C00000058010000841E00003300000000410E108602430D066E0C07080000002000000078010000A41E00002702000000410E108602430D06038C010C0708410C0610001C0000009C010000B0200000C600000000410E108602430D0602C10C070800001C000000BC010000602100002000000000410E108602430D065B0C07080000001C000000DC010000602100002000000000410E108602430D065B0C07080000001C000000FC010000602100002300000000410E108602430D065E0C07080000001C0000001C020000702100002300000000410E108602430D065E0C07080000001C0000003C020000802100002100000000410E108602430D065C0C07080000001C0000005C020000902100002400000000410E108602430D065F0C07080000001C0000007C020000A0210000B800000000410E108602430D0602B00C070800001C0000009C020000402200005200000000410E108602430D06024A0C070800001C000000BC020000802200002A00000000410E108602430D06650C07080000001C000000DC020000902200003C00000000410E108602430D06770C070800000020000000FC020000B02200002902000000410E108602430D06038D010C0708410C0610002000000020030000BC2400001C02000000410E108602430D060381010C0708410C0610001C00000044030000B82600005800000000410E108602430D0602530C070800001C00000064030000F82600002800000000410E108602430D06630C07080000001C00000084030000082700005800000000410E108602430D0602530C070800001C000000A4030000482700005A00000000410E108602430D0602550C0708000010000000C4030000882700001100000000000000000000000000000000000000554889E5488B5620C5FA10050CDDFFFFC5FA101DECDCFFFFC5FA100DB0DCFFFF488B0A488B4208C57A5929C57A597904C4C1025CD5C5EA58D2C5EA5915AFDCFFFFC56A587008C58A5915D2DCFFFFC4E3690AD209C46269BDF3C5FA2CF2C57829F240F6C6010F859A010000C5FA10259DDCFFFFC57A10157DDCFFFF0F859E010000C5FA102D4FDCFFFFC57A101D4BDCFFFF0F85A2010000C5FA103D4DDCFFFFC57A10056DDCFFFF0F85A6010000C5FA103533DCFFFFC57A100D4BDCFFFF0F85AA010000C4411258E7C57A103D10DCFFFFC57A102D0CDCFFFF7405C4417828FDC4410A59F6C51A592504DCFFFF488B7A20C46209A9FEC5F828F1C46209A9FFC46209A9FDC46209A9FCC46209A9F9C462791835EADBFFFFC58259D240F6C6027404C58857D2C4E219A95004488B7210488B5218C5FA115704C5FA5921C5FA596904C5DA58D5C5D25CE4C5DA58E4C5DA59259CDBFFFFC5DA586008C5DA592DBFDBFFFFC4E3510AED09C57A2CC5C4E251ADDCC5F828E64489C783E703FFCF41F6C001742CC57A101586DBFFFFC57A101D46DBFFFFC57A100552DBFFFFC57A100D46DBFFFFC57A102D36DBFFFFC5F828E3C5EA590D3ADBFFFFC5E259D3C44269B9CDC44269A9C8C44269A9CBC44269A9CAC46269A9CEC5B259D483FF027304C58857D2C4E271A910C5FA1112C5FA5909C4E279BB4904C5F258C1C5FA58400831C0C5FA1146085DC3C5F828D1C5FA1025FFDAFFFFC57A1015DFDAFFFF0F8462FEFFFFC57829D4C5FA102DADDAFFFFC57A101DA9DAFFFF0F845EFEFFFFC57829DDC5FA103DA7DAFFFFC57A1005C7DAFFFF0F845AFEFFFFC57829C7C5FA103589DAFFFFC57A100DA1DAFFFF0F8456FEFFFFC57829CEC4411258E7C57A103D62DAFFFFC57A102D5EDAFFFF0F854EFEFFFFE94EFEFFFFCCCCCCCCCCCCCCCCCCCCCCCCCCCCCC554889E5488B4E208B02488B71084869D00021000048C1E00D480301488D8C320C01000031D2662E0F1F8400000000004889CE4889C74531C00F1F800000000049C7C1F8FFFFFF660F1F840000000000C4A17C28448F20C4A17C11448E204983C1084983F93872E849FFC04881C7000100004881C6080100004983F82075C148FFC24805004000004881C1104400004883FA03759B31C05DC5F877C3CCCCCCCC554889E54157415641554154534883E4C04881EC000100008B3A488B7620C5F857C089FAC1EA024189F84183E00383E7FC488D04524969C88010000048C1E20A4803561048030E41C1E00848C1E00648034608488D35B6DAFFFFC5FC29842480000000C4E27D180C3731FF498D941040CC000048895424300F1F84000000000048897C243848C1E70648037C243041B0014531C96666662E0F1F84000000000031D266666666662E0F1F840000000000C5FA10949480000000C5FA1154944048FFC24883FA0875E84D89CA49C1E2044989C331DB4901CA660F1F8400000000004D89DE4D89D74531E40F1F80000000004D89FD31D266662E0F1F840000000000C5FA1054944031F60F1F840000000000C4C17A105CB500C4C261B914B648FFC64883FE0475EAC5FA1154944048FFC24983C5104883FA0875C749FFC44981C7080100004983C6104983FC0475A348FFC34981C2104400004983C3404883FB030F857BFFFFFFC5F458542440C5ECC2D806C5E454D2C4A17C29148F41B90800000041F6C00141B8000000000F8510FFFFFF488B7C24384881C12004000048FFC74883FF040F85D7FEFFFF31C0488D65D85B415C415D415E415F5DC5F877C3CCCCCC554889E54156538B0A488B4620C4E27D1805BED7FFFFC5F057C989CAC1EA0283E1034889D648C1E60A48033048C1E2084803500889C8C1E108C1E006488D8C3140CC00004801D0B20131F6EB160F1F00BE01000000F6C201BA000000000F84AC0000004989F049C1E00548C1E6074531C94A8D3C00C4A17C2904004801CE41B001EB1F666666662E0F1F84000000000041B94000000041F6C00141B80000000074AE4901F14531D2EB0F660F1F44000049FFC24983FA0874D7C4A17A1014974F8D1CD1B3014531F6EB20660F1F440000C4A17A111C9741BE01000000C5F828D3F6C301BB0000000074C6C4817A101CB3C5EAC2E302C5E2C2E903C5D056E4C4C1797EE641F6C60175C7C5F828DAEBC131C05B415E5DC5F877C3CCCCCCCCCCCCCC554889E5488B4E20C5F857C031F6488B01488B5108488B49100F0D89000400000F18080F188A000300004881C1000400004881C2000300000F1F840000000000C4E27D180C30C4E27D980CF2C4E27D18443004C4E2759844F220C4E27D184C3008C4E27D984CF240C4E27D1844300CC4E2759844F2604883C6104881FE0004000075BDC5FC110131C05DC5F877C3CCCC554889E5488B4620C5FC280D70D6FFFF488B08488B4008C5FC288100040000C4E2752E0031C05DC5F877C3CCCCCCCCCC554889E5488B462031D2488B08C5FA1001C5FA585104C5EA590522D6FFFFC4E3790AC009C4E279B915EFD5FFFFC5FA2CF0C5FA1005B7D5FFFF89F183E103FFC9C5F828C840F6C601400F94C67404C5F828CA4088F2488D3544D6FFFFC5EA59D2488B4008C1E202C5FA101C32488D35FDD5FFFFC4E269A91C32488D3508D6FFFFC4E269A91C32488D3523D6FFFFC4E269A91C32488D35FED5FFFFC4E269A91C32C4E269A9D8C5F259C383F902730DC4E279180D69D5FFFFC5F857C1C5FA11404431C05DC3CCCCCCCCCCCCCCCCCCCCCCCC554889E5488B4620C5FA102D60D5FFFFC5FA100D3CD5FFFF488B08C5FA106140C55A585944C5A259C5C4E3790AC009C5FA2CD0C46279BDD9C5FA1005E0D4FFFF89D183E103FFC9C57828F0F6C2010F8543010000C5FA1035ECD4FFFFC5FA101DFCD4FFFFC5F828D60F8548010000C57A100DB6D4FFFFC5FA103DAAD4FFFFC57829CB0F854C010000C57A1015D4D4FFFFC57A1005A4D4FFFFC57829D70F8550010000C57A1005AED4FFFFC57A102D86D4FFFFC4417828E00F8554010000C57A103D6FD4FFFFC4417828EF7408C57A102D5CD4FFFFC4412259DBC44221A9ECC46221A9EFC46221A9EBC46221A9EAC46221A9E8C4410A59DDC46279183550D4FFFF83F9027305C4412057DEC5DA59D5C4E3690AD209C5FA2CD2C4E269ADCCC5F828D089D183E103FFC9F6C201742CC5FA10352BD4FFFFC57A100DEBD3FFFFC57A1015F7D3FFFFC57A1005EBD3FFFFC57A103DDBD3FFFFC5F828D1C5F259C9488B4008C44271B9C7C44271A9C2C44271A9C1C46271A9C6C46271A9C0C5BA59C283F9027304C58857C0C5A258C0C5FA11808000000031C05DC3C4417828F3C5FA1035A4D3FFFFC5FA101DB4D3FFFFC5F828D60F84B8FEFFFFC5F828D3C57A100D6AD3FFFFC5FA103D5ED3FFFFC57829CB0F84B4FEFFFFC5F828DFC57A101584D3FFFFC57A100554D3FFFFC57829D70F84B0FEFFFFC57829C7C57A10055AD3FFFFC57A102D32D3FFFFC4417828E00F84ACFEFFFFC4417828E5C57A103D16D3FFFFC4417828EF0F85A3FEFFFFE9A6FEFFFFCCCC554889E5488B4620C5FA102D30D3FFFFC5FA100D0CD3FFFF488B08C5FA1021C55A585904C5A259C5C4E3790AC009C46279BDD9C5FA2CC8C5FA1005B1D2FFFFC4417828F3F6C1010F853C010000C5FA1035DBD2FFFFC5FA101DBBD2FFFFC5F828D60F8540010000C57A100D89D2FFFFC5FA103D85D2FFFFC57829CB0F8544010000C57A101583D2FFFFC57A1005A3D2FFFFC57829D70F8548010000C57A100565D2FFFFC57A102D7DD2FFFFC4417828E00F854C010000C57A103D42D2FFFFC4417828EF7408C57A102D37D2FFFFC4412259DBC44221A9ECC46221A9EFC46221A9EBC46221A9EAC46221A9E8C4410A59DDC46279183527D2FFFFF6C1027405C4412057DEC5DA59D5C4E3690AD209C4E269ADCCC5FA2CCAC5F828D1F6C101742CC5FA1035F1D1FFFFC57A100DCDD1FFFFC57A1015FDD1FFFFC57A1005E9D1FFFFC57A103DBDD1FFFFC5F828D0C5F259C9488B4008C44271B9C7C44271A9C2C44271A9C1C46271A9C6C46271A9C0C5BA59C2F6C1027404C58857C0C5A258C0C5FA11808400000031C05DC3C57828F0C5FA10359BD1FFFFC5FA101D7BD1FFFFC5F828D60F84C0FEFFFFC5F828D3C57A100D45D1FFFFC5FA103D41D1FFFFC57829CB0F84BCFEFFFFC5F828DFC57A10153BD1FFFFC57A10055BD1FFFFC57829D70F84B8FEFFFFC57829C7C57A100519D1FFFFC57A102D31D1FFFFC4417828E00F84B4FEFFFFC4417828E5C57A103DF1D0FFFFC4417828EF0F85ABFEFFFFE9AEFEFFFFCC554889E5488B4620488B08488B5008488B4010C5FB1001C5FB108A80000000C5F85805E9D1FFFFC5F85CC1C5F8130031C05DC3CCCCCCCCCCCCCCCCCCCCCCCCCC554889E5488B4620C5FA102DD0D0FFFFC5FA100DACD0FFFF488B08C5FA10A180000000C55A589984000000C5A259C5C4E3790AC009C46279BDD9C5FA2CC8C5FA10054AD0FFFFC4417828F3F6C1010F853D010000C5FA103574D0FFFFC5FA101D54D0FFFFC5F828D60F8541010000C57A100D22D0FFFFC5FA103D1ED0FFFFC57829CB0F8545010000C57A10151CD0FFFFC57A10053CD0FFFFC57829D70F8549010000C57A1005FECFFFFFC57A102D16D0FFFFC4417828E00F854D010000C57A103DDBCFFFFFC4417828EF7408C57A102DD0CFFFFFC4412259DBC44221A9ECC46221A9EFC46221A9EBC46221A9EAC46221A9E8C4410A59DDC462791835C0CFFFFFF6C1027405C4412057DEC5DA59D5C4E3690AD209C4E269ADCCC5FA2CCAC5F828D1F6C101742CC5FA10358ACFFFFFC57A100D66CFFFFFC57A101596CFFFFFC57A100582CFFFFFC57A103D56CFFFFFC5F828D0C5F259C9488B4008C44271B9C7C44271A9C2C44271A9C1C46271A9C6C46271A9C0C5BA59C2F6C1027504C58857C0C4C17A5CC3C5FA1180C000000031C05DC3C57828F0C5FA103533CFFFFFC5FA101D13CFFFFFC5F828D60F84BFFEFFFFC5F828D3C57A100DDDCEFFFFC5FA103DD9CEFFFFC57829CB0F84BBFEFFFFC5F828DFC57A1015D3CEFFFFC57A1005F3CEFFFFC57829D70F84B7FEFFFFC57829C7C57A1005B1CEFFFFC57A102DC9CEFFFFC4417828E00F84B3FEFFFFC4417828E5C57A103D89CEFFFFC4417828EF0F85AAFEFFFFE9ADFEFFFFCCCCCCCCCCCCCCCCCC554889E5488B462031D2488B08C5FA108180000000C5FA589184000000C5EA59058BCEFFFFC4E3790AC009C4E279B91558CEFFFFC5FA2CC8C5FA100520CEFFFFC5F828CAF6C101400F94C67404C5F828C84088F2488D35CDCEFFFFC5EA59D2488B4008C1E202C5FA101C32488D358ECEFFFFC4E269A91C32488D3571CEFFFFC4E269A91C32488D355CCEFFFFC4E269A91C32488D357FCEFFFFC4E269A91C32C4E269A9D8C5F259C3F6C102750DC4E279180DDACDFFFFC5F857C1C5FA1180C400000031C05DC3CCCCCCCCCCCCCCCCCCCC554889E5488B4620488B08488B4008C5FB108180000000C5FB11404031C05DC3554889E5488B4620488B08488B4008C5FA104140C5FA11800401000031C05DC3554889E5488B4620488B08488B4008C5FB108188000000C5FB1180C000000031C05DC3CCCCCCCCCCCCCCCCCCCCCCCCCC554889E5488B4620488B08488B4008C5FA1081C4000000C5FA11808000000031C05DC3CCCCCCCCCCCCCCCCCCCCCCCCCC554889E5488B4620BA00000080488B08488B400833514489908400000031C05DC3CCCCCCCCCCCCCCCCCCCCCCCCCCCCCC554889E5488B4620BA00000080488B08488B40083391C000000089908000000031C05DC3CCCCCCCCCCCCCCCCCCCCCCCC554889E54883E4E04883EC40488B4E20B20131F6488B01488B4908C5FA104844C5FA104040C5F25988C0000000C4E279BB88C4000000C5F258059ACCFFFFC5FA100D4ACCFFFFC5F25EC0C4E27918C090C5FA108CB04001000031FFC4E371218CB04801000010C5F859C9660F1F440000C704BC0000000048FFC74883FF0875F0C5FA110C24C4E379174C24040148C1E605C5FC280C24C5FC298C3180000000BE01000000F6C201BA0000000075A231C04889EC5DC5F877C3CCCCCCCCCCCCCCCC554889E5488B4620BA10000000C5F857C0488B08488B40080F0D48400F18090F1889800000004883C040660F1F440000C4E27D184C11F0C4E275B804D14883C2044883FA1875E9C5FC110031C05DC5F877C3CCCCCCCCCCCCCCCCCCCCCCCCCCCC554889E5488B4620C4E279180D9BCBFFFF488B08488B4008C5FB1001C4E279984940C5F8130831C05DC3CCCCCCCCCCCC554889E5488B4620488B08488B5008488B4010C5FB1001C5FB100AC5F85CC1C5F859C0C5FA16C8C5FA58C1C5F057C9C5FA58C1C5FA11404031C05DC3CCCCCCCC554889E5488B4620C5FA102D40CBFFFFC5FA100D1CCBFFFF488B08C5FA1021C55A585904C5A259C5C4E3790AC009C5FA2CD0C46279BDD9C5FA1005C1CAFFFF89D183E103FFC9C57828F0F6C2010F853F010000C5FA1035CDCAFFFFC5FA101DDDCAFFFFC5F828D60F8544010000C57A100D97CAFFFFC5FA103D8BCAFFFFC57829CB0F8548010000C57A1015B5CAFFFFC57A100585CAFFFFC57829D70F854C010000C57A10058FCAFFFFC57A102D67CAFFFFC4417828E00F8550010000C57A103D50CAFFFFC4417828EF7408C57A102D3DCAFFFFC4412259DBC44221A9ECC46221A9EFC46221A9EBC46221A9EAC46221A9E8C4410A59DDC46279183531CAFFFF83F9027305C4412057DEC5DA59D5C4E3690AD209C5FA2CD2C4E269ADCCC5F828D089D183E103FFC9F6C201742CC5FA10350CCAFFFFC57A100DCCC9FFFFC57A1015D8C9FFFFC57A1005CCC9FFFFC57A103DBCC9FFFFC5F828D1C5F259C9488B4008C44271B9C7C44271A9C2C44271A9C1C46271A9C6C46271A9C0C5BA59C283F9027304C58857C0C5A258C0C5FA110031C05DC3C4417828F3C5FA103589C9FFFFC5FA101D99C9FFFFC5F828D60F84BCFEFFFFC5F828D3C57A100D4FC9FFFFC5FA103D43C9FFFFC57829CB0F84B8FEFFFFC5F828DFC57A101569C9FFFFC57A100539C9FFFFC57829D70F84B4FEFFFFC57829C7C57A10053FC9FFFFC57A102D17C9FFFFC4417828E00F84B0FEFFFFC4417828E5C57A103DFBC8FFFFC4417828EF0F85A7FEFFFFE9AAFEFFFFCCCCCCCCCCCCCC554889E5488B4620C5FA102D10C9FFFFC5FA100DECC8FFFF488B08C5FA1021C55A585904C5A259C5C4E3790AC009C46279BDD9C5FA2CC8C5FA100591C8FFFFC4417828F3F6C1010F8539010000C5FA1035BBC8FFFFC5FA101D9BC8FFFFC5F828D60F853D010000C57A100D69C8FFFFC5FA103D65C8FFFFC57829CB0F8541010000C57A101563C8FFFFC57A100583C8FFFFC57829D70F8545010000C57A100545C8FFFFC57A102D5DC8FFFFC4417828E00F8549010000C57A103D22C8FFFFC4417828EF7408C57A102D17C8FFFFC4412259DBC44221A9ECC46221A9EFC46221A9EBC46221A9EAC46221A9E8C4410A59DDC46279183507C8FFFFF6C1027405C4412057DEC5DA59D5C4E3690AD209C4E269ADCCC5FA2CCAC5F828D1F6C101742CC5FA1035D1C7FFFFC57A100DADC7FFFFC57A1015DDC7FFFFC57A1005C9C7FFFFC57A103D9DC7FFFFC5F828D0C5F259C9488B4008C44271B9C7C44271A9C2C44271A9C1C46271A9C6C46271A9C0C5BA59C2F6C1027404C58857C0C5A258C0C5FA11400431C05DC3C57828F0C5FA10357EC7FFFFC5FA101D5EC7FFFFC5F828D60F84C3FEFFFFC5F828D3C57A100D28C7FFFFC5FA103D24C7FFFFC57829CB0F84BFFEFFFFC5F828DFC57A10151EC7FFFFC57A10053EC7FFFFC57829D70F84BBFEFFFFC57829C7C57A1005FCC6FFFFC57A102D14C7FFFFC4417828E00F84B7FEFFFFC4417828E5C57A103DD4C6FFFFC4417828EF0F85AEFEFFFFE9B1FEFFFFCCCCCCCC554889E5488B4620488D1561C8FFFF488D359AC8FFFF488B08488B4008C5FB100131C9C5F8580D85C7FFFF0F1F440000C4E279181431C4E279181C11C5F059D2C4E279A8DAC5F8131C484883C1044883F92875DC31C05DC3CCCCCCCCCCCCCCCC554889E5488B4620C5FA100D64C6FFFF488B08488B4008C5FB1001C5F858C1C5F813404031C05DC3CCCCCCCCCCCCCCCC554889E5488B4620488D15D1C7FFFF488D350AC8FFFF488B08488B4008C5FB1001C5FB10494031C90F1F840000000000C4E279181431C4E279181C11C5F059D2C4E279A8DAC5F8131C484883C1044883F92875DC31C05DC3CCCCCCCCCCCCCCCC554889E5488B4620488D35B1C7FFFF31D2488B08488B4008C5FB104140488D0D5CC7FFFFC5F8580D94C6FFFF0F1F4000C4E27918549604C4E279185C9104C5F059D2C4E279A8DAC5F8135CD05048FFC24883FA0975DA31C05DC3CCCCCCCCCCCC31C083FF05488D0D54160000480F44C1C3000000000000000000000000000000050000000000000000000000000000000000000000000000000000000000000000000000000000000000000000000000000000000000000000000000000000000000000000000000000000000000000000000000000000000000000000000000000000000000000000000000000000000000000000000000000000000000000000000000000000000000000000000000000000000000000000000000000000000000000000000000000000000000000000000000000000000000000000000000000000000000000000000000000000000000000000000000000000000000000000000000000000000000000000000000000000000000000000000000000000000000000000000000000000000000000000000000000000000000000000000000000000000000000000000000000000000000000000000000000000000000000000000000000000000000000000000000000000000000000000000000000000000000000000000000000000000000000000000000000000000000000000000000000000000000000000000000000000000000000000000000000000000000000000000000000000000000000000000000000000000000000000000000000000000000000000000000000000000000000000000000000000000000000000000000AA020000130000000000000000000000AD020000130000000000000000000000AD020000130000000000000000000000AD020000130000000000000000000000AD020000130000000000000000000000AD020000130000000000000000000000B2020000130000000000000000000000B2020000130000000000000000000000B2020000130000000000000000000000B2020000130000000000000000000000B2020000130000000000000000000000B2020000130000000000000000000000B2020000130000000000000000000000B2020000130000000000000000000000B2020000130000000000000000000000B2020000130000000000000000000000B2020000130000000000000000000000B2020000130000000000000000000000B2020000130000000000000000000000B2020000130000000000000000000000B2020000130000000000000000000000BB020000130000000000000000000000D3020000130000000000000000000000D3020000130000000000000000000000D3020000130000000000000000000000DC020000130000000000000000000000DC020000130000000000000000000000DC0200001300000000000000000000000000000000000000000000000000000000000000000000000000000000000000000000000000000000000000000000000000000000000000000000000000000000000000000000000000000000000000000000000000000000000000000000000000000000000000000000000000000000000000000000000000000000000000000000000000000000000000000000000000000000000000000000000000000000000000000000000000000000000000000000000000000000000000000000000000000000000000000000000000000000000000000000000000000000000000000000000000000000000000000000000000000000000000000000000000000000000000000000000000000000000000000000000000000000000000000000000000000000000000000000000000000000000000000000000000000000000000000000000000000000000000000000000000000000000000000000000000000000000000000000000000000000000000000000000000000000000000000000000000000000000000000000000000000000000000000000000000000000000000000000000000000000000000000000000000000000000000000000000000000000000000000000000000000000000000000000000000000000000000000000000000000000000000000000000000000000000000000000000000000000000000000000000000000000000000000000000000000000000000000000000000000000000000000000000000000000000000000000000000000000000000000000000000000000000000000000000000000000000000000000000000000000000000000000000000000000000000000000000000000000000000000000000000000000000000000000000000000000000000000000000000000000000000000000000000000000000000000000000000000000000000000000001C000000000000000000000000000000000000000000000000000000000000000000000000000000000000000000000000000000000000000000000000000000000000000000000000000000000000001E000000000000000800000000000000FBFFFF6F000000000100000000000000070000000000000038020000000000000800000000000000C80D00000000000009000000000000001800000000000000F9FFFF6F0000000093000000000000000600000000000000C8010000000000000B000000000000001800000000000000050000000000000010020000000000000A0000000000000023000000000000000400000000000000F80100000000000000000000000000000000000000000000011101250E1305030E1017B44219110112060000022E001101120640186E0E030E3A0B3B0B49133F190000032400030E3E0B0B0B0000042E001101120640186E0E030E3A0B3B0B49103F19000000470000000400000000000801230500002C004004000000000000303300000000000091020000023033000000000000910200000156850000008500000001014300000003DA020000050400400000000400000000000801230500002C0040040000C3000000D0350000000000009C00000004D0350000000000009C0000000156650300006503000001014300000000400000000400000000000801230500002C0040040000110100007036000000000000BD010000047036000000000000BD0100000156120400001204000001014300000000400000000400000000000801230500002C0040040000780100003038000000000000190100000430380000000000001901000001566F0400006F04000001014300000000400000000400000000000801230500002C0040040000E901000050390000000000008E0000000450390000000000008E0000000156A0010000A001000001014300000000400000000400000000000801230500002C004004000033020000E0390000000000002B00000004E0390000000000002B0000000156DE020000DE02000001014300000000400000000400000000000801230500002C004004000073020000103A000000000000C400000004103A000000000000C400000001562A0000002A00000001014300000000400000000400000000000801230500002C0040040000C8020000E03A0000000000002E02000004E03A0000000000002E0200000156420400004204000001014300000000400000000400000000000801230500002C00400400007F030000103D0000000000001F02000004103D0000000000001F02000001566B0200006B02000001014300000000400000000400000000000801230500002C00400400004B040000303F0000000000003300000004303F000000000000330000000156F8040000F804000001014300000000400000000400000000000801230500002C004004000093040000703F0000000000002702000004703F000000000000270200000156CF010000CF01000001014300000000400000000400000000000801230500002C004004000055050000A041000000000000C600000004A041000000000000C60000000156880300008803000001014300000000400000000400000000000801230500002C0040040000AA050000704200000000000020000000047042000000000000200000000156000300000003000001014300000000400000000400000000000801230500002C0040040000E9050000904200000000000020000000049042000000000000200000000156DA000000DA00000001014300000000400000000400000000000801230500002C004004000028060000B0420000000000002300000004B0420000000000002300000001566C0100006C01000001014300000000400000000400000000000801230500002C004004000067060000E0420000000000002300000004E042000000000000230000000156980200009802000001014300000000400000000400000000000801230500002C0040040000A6060000104300000000000021000000041043000000000000210000000156B6030000B603000001014300000000400000000400000000000801230500002C0040040000E5060000404300000000000024000000044043000000000000240000000156080100000801000001014300000000400000000400000000000801230500002C0040040000240700007043000000000000B8000000047043000000000000B80000000156990400009904000001014300000000400000000400000000000801230500002C004004000077070000304400000000000052000000043044000000000000520000000156E4030000E403000001014300000000400000000400000000000801230500002C0040040000C007000090440000000000002A0000000490440000000000002A0000000156340300003403000001014300000000400000000400000000000801230500002C00C60200000B080000C0440000000000003C00000004C0440000000000003C0000000156B2000000B200000001014300000000400000000400000000000801230500002C00400400006A080000004500000000000029020000040045000000000000290200000156CA040000CA04000001014300000000400000000400000000000801230500002C00400400002309000030470000000000001C0200000430470000000000001C0200000156570000005700000001014300000000400000000400000000000801230500002C0040040000F1090000504900000000000058000000045049000000000000580000000156FD010000FD01000001014300000000400000000400000000000801230500002C0040040000400A0000B0490000000000002800000004B049000000000000280000000156000000000000000001014300000000400000000400000000000801230500002C0040040000800A0000E0490000000000005800000004E049000000000000580000000156340200003402000001014300000000400000000400000000000801230500002C0040040000CA0A0000404A0000000000005A00000004404A0000000000005A00000001563601000036010000010143000000005F6D61696E246173796E635F64697370617463685F32375F656C656D656E74776973655F325F663332005F6D61696E246173796E635F64697370617463685F365F656C656D656E74776973655F62726F616463617374005F6D61696E246173796E635F64697370617463685F32335F656C656D656E74776973655F62726F616463617374005F6D61696E246173796E635F64697370617463685F305F656C656D656E74776973655F62726F616463617374005F6D61696E246173796E635F64697370617463685F32315F726564756374696F6E5F325F663332005F6D61696E246173796E635F64697370617463685F31335F656C656D656E74776973655F62726F616463617374005F6D61696E246173796E635F64697370617463685F31375F656C656D656E74776973655F62726F616463617374005F6D61696E246173796E635F64697370617463685F32395F656C656D656E74776973655F62726F6164636173745F3978325F663332005F6D61696E246173796E635F64697370617463685F31345F656C656D656E74776973655F62726F6164636173745F325F663332005F6D61696E246173796E635F64697370617463685F345F6D6D7434645F317831783235367831783878315F663332005F6D61696E246173796E635F64697370617463685F31305F656C656D656E74776973655F62726F616463617374005F6D61696E246173796E635F64697370617463685F32345F656C656D656E74776973655F62726F6164636173745F313078325F663332005F6D61696E246173796E635F64697370617463685F32385F656C656D656E74776973655F62726F6164636173745F313078325F663332005F6D61696E246173796E635F64697370617463685F385F656C656D656E74776973655F62726F616463617374005F6D61696E246173796E635F64697370617463685F31355F656C656D656E74776973655F62726F61646361737400636F6D62696E65642E696E7075742E6D6C697200696E74005F6D61696E246173796E635F64697370617463685F355F756E7061636B5F663332005F6D61696E246173796E635F64697370617463685F31325F656C656D656E74776973655F62726F6164636173745F325F663332005F6D61696E246173796E635F64697370617463685F32305F756E7061636B5F656C656D656E74776973655F325F663332005F6D61696E246173796E635F64697370617463685F315F736C6F775F6D656D637079005F6D61696E246173796E635F64697370617463685F31315F656C656D656E74776973655F62726F616463617374005F6D61696E246173796E635F64697370617463685F31365F656C656D656E74776973655F62726F616463617374005F6D61696E246173796E635F64697370617463685F31395F6D6D7434645F31783178327831783878315F663332005F6D61696E246173796E635F64697370617463685F325F636F6E765F347831367831367833783478345F663332002D005F6D61696E246173796E635F64697370617463685F375F656C656D656E74776973655F62726F616463617374005F6D61696E246173796E635F64697370617463685F335F636F6E765F3478387838783278325F663332005F6D61696E246173796E635F64697370617463685F31385F656C656D656E74776973655F3278325F6633325F7061636B005F6D61696E246173796E635F64697370617463685F32325F656C656D656E74776973655F62726F616463617374005F6D61696E246173796E635F64697370617463685F395F656C656D656E74776973655F3178325F6633320049524545003F0000000200000000004B000000260000005F6D61696E246173796E635F64697370617463685F305F656C656D656E74776973655F62726F61646361737400000000003500000002004B00000044000000260000005F6D61696E246173796E635F64697370617463685F315F736C6F775F6D656D63707900000000004000000002008F00000044000000260000005F6D61696E246173796E635F64697370617463685F325F636F6E765F347831367831367833783478345F66333200000000003C0000000200D300000044000000260000005F6D61696E246173796E635F64697370617463685F335F636F6E765F3478387838783278325F66333200000000004100000002001701000044000000260000005F6D61696E246173796E635F64697370617463685F345F6D6D7434645F317831783235367831783878315F66333200000000003400000002005B01000044000000260000005F6D61696E246173796E635F64697370617463685F355F756E7061636B5F66333200000000003F00000002009F01000044000000260000005F6D61696E246173796E635F64697370617463685F365F656C656D656E74776973655F62726F61646361737400000000003F0000000200E301000044000000260000005F6D61696E246173796E635F64697370617463685F375F656C656D656E74776973655F62726F61646361737400000000003F00000002002702000044000000260000005F6D61696E246173796E635F64697370617463685F385F656C656D656E74776973655F62726F61646361737400000000003D00000002006B02000044000000260000005F6D61696E246173796E635F64697370617463685F395F656C656D656E74776973655F3178325F6633320000000000400000000200AF02000044000000260000005F6D61696E246173796E635F64697370617463685F31305F656C656D656E74776973655F62726F6164636173740000000000400000000200F302000044000000260000005F6D61696E246173796E635F64697370617463685F31315F656C656D656E74776973655F62726F61646361737400000000004600000002003703000044000000260000005F6D61696E246173796E635F64697370617463685F31325F656C656D656E74776973655F62726F6164636173745F325F66333200000000004000000002007B03000044000000260000005F6D61696E246173796E635F64697370617463685F31335F656C656D656E74776973655F62726F6164636173740000000000460000000200BF03000044000000260000005F6D61696E246173796E635F64697370617463685F31345F656C656D656E74776973655F62726F6164636173745F325F66333200000000004000000002000304000044000000260000005F6D61696E246173796E635F64697370617463685F31355F656C656D656E74776973655F62726F61646361737400000000004000000002004704000044000000260000005F6D61696E246173796E635F64697370617463685F31365F656C656D656E74776973655F62726F61646361737400000000004000000002008B04000044000000260000005F6D61696E246173796E635F64697370617463685F31375F656C656D656E74776973655F62726F6164636173740000000000430000000200CF04000044000000260000005F6D61696E246173796E635F64697370617463685F31385F656C656D656E74776973655F3278325F6633325F7061636B00000000004000000002001305000044000000260000005F6D61696E246173796E635F64697370617463685F31395F6D6D7434645F31783178327831783878315F66333200000000004300000002005705000044000000260000005F6D61696E246173796E635F64697370617463685F32305F756E7061636B5F656C656D656E74776973655F325F66333200000000003A00000002009B05000044000000260000005F6D61696E246173796E635F64697370617463685F32315F726564756374696F6E5F325F6633320000000000400000000200DF05000044000000260000005F6D61696E246173796E635F64697370617463685F32325F656C656D656E74776973655F62726F61646361737400000000004000000002002306000044000000260000005F6D61696E246173796E635F64697370617463685F32335F656C656D656E74776973655F62726F61646361737400000000004900000002006706000044000000260000005F6D61696E246173796E635F64697370617463685F32345F656C656D656E74776973655F62726F6164636173745F313078325F66333200000000003C0000000200AB06000044000000260000005F6D61696E246173796E635F64697370617463685F32375F656C656D656E74776973655F325F6633320000000000490000000200EF06000044000000260000005F6D61696E246173796E635F64697370617463685F32385F656C656D656E74776973655F62726F6164636173745F313078325F66333200000000004800000002003307000044000000260000005F6D61696E246173796E635F64697370617463685F32395F656C656D656E74776973655F62726F6164636173745F3978325F6633320000000000160000000200000000004B00000043000000696E7400000000000E00000002004B00000044000000000000000E00000002008F00000044000000000000000E0000000200D300000044000000000000000E00000002001701000044000000000000000E00000002005B01000044000000000000000E00000002009F01000044000000000000000E0000000200E301000044000000000000000E00000002002702000044000000000000000E00000002006B02000044000000000000000E0000000200AF02000044000000000000000E0000000200F302000044000000000000000E00000002003703000044000000000000000E00000002007B03000044000000000000000E0000000200BF03000044000000000000000E00000002000304000044000000000000000E00000002004704000044000000000000000E00000002008B04000044000000000000000E0000000200CF04000044000000000000000E00000002001305000044000000000000000E00000002005705000044000000000000000E00000002009B05000044000000000000000E0000000200DF05000044000000000000000E00000002002306000044000000000000000E00000002006706000044000000000000000E0000000200AB06000044000000000000000E0000000200EF06000044000000000000000E0000000200330700004400000000000000BF000000040019000000010101FB0E0D000101010100000001000001002D000000000000090230330000000000000105140A03A5054A051508D40511500603D67A02440103AA05F203D67A6603AA05F203D67A6603AA05F203D67A6603AA05F203D67A6603AA05084A03D67A2E0603AA05580603D67A0241010603AA054A0603D67A025E010603AA05022C01060B02551203D67A2E03AA05083C03D67A6603AA05083C03D67A6603AA05083C03D67A6603AA05083C03D67A6603AA050882020B0001014A000000040019000000010101FB0E0D000101010100000001000001002D0000000000000902D0350000000000000105130A03AC054A0603D37A0222010603AD05022A01060B024712020500010163000000040019000000010101FB0E0D000101010100000001000001002D000000000000090270360000000000000105130A03AC0508740603D37A0260010603AD050238010603D37A0227010603AD050239010603D37A0280010103AD05580B0890020E0001016D000000040019000000010101FB0E0D000101010100000001000001002D000000000000090230380000000000000105130A03AC05740603D37A02460103AD058203D37A022E0103AD05082E03D37ABA03AD05D603D37A900603AD05086608900603D37A08D603AD05660B2E020800010146000000040019000000010101FB0E0D000101010100000001000001002D000000000000090250390000000000000105130A03AC054A0603D37A02340103AD05820B02491202050001013C000000040019000000010101FB0E0D000101010100000001000001002D0000000000000902E0390000000000000105130A03AC054A060B022212020500010151000000040019000000010101FB0E0D000101010100000001000001002D0000000000000902103A0000000000000105200A03B0054A05164B05202D05163D0603CE7A0241010603B2054A060B0270120202000101B3000000040019000000010101FB0E0D000101010100000001000001002D0000000000000902E03A0000000000000105200A03B0054A051608670603CE7A02390103B205083C03CE7A6603B205083C03CE7A6603B205083C03CE7A6603B205084A03CE7A6603B205C803CE7A2E0603B205820603CE7A0259010603B205022C01060B023C1203CE7A2E03B205088203CE7A6603B205087403CE7A6603B205087403CE7A6603B205088203CE7A6603B2050820020B000101C8000000040019000000010101FB0E0D000101010100000001000001002D0000000000000902103D0000000000000105200A03B0054A051608670603CE7A02320103B205083C03CE7A6603B205083C03CE7A6603B205083C03CE7A6603B205084A03CE7A6603B205C803CE7A2E0603B205820603CE7A0231010603B205580603CE7A08AC0603B205022C010603CE7A022A010603B2054A060BD603CE7A2E03B205087403CE7A6603B205087403CE7A6603B205087403CE7A6603B205088203CE7A6603B2050820020B00010144000000040019000000010101FB0E0D000101010100000001000001002D0000000000000902303F0000000000000105130A03AC054A05167905130837051687060B9E0202000101BE000000040019000000010101FB0E0D000101010100000001000001002D0000000000000902703F0000000000000105200A03B0054A051608670603CE7A02390103B205083C03CE7A6603B205083C03CE7A6603B205083C03CE7A6603B205084A03CE7A6603B205C803CE7A2E0603B205820603CE7A0231010603B205580603CE7A08AC0603B205022C01060B023D1203CE7A2E03B205087403CE7A6603B205087403CE7A6603B205087403CE7A6603B205088203CE7A6603B2050820020B00010151000000040019000000010101FB0E0D000101010100000001000001002D0000000000000902A0410000000000000105200A03B0054A05164B05202D05163D0603CE7A0240010603B2054A060B02731202020001013B000000040019000000010101FB0E0D000101010100000001000001002D000000000000090270420000000000000105160A03B1054A060B089002020001013B000000040019000000010101FB0E0D000101010100000001000001002D000000000000090290420000000000000105160A03B1054A060B089002020001013B000000040019000000010101FB0E0D000101010100000001000001002D0000000000000902B0420000000000000105160A03B1054A060B08BA02020001013B000000040019000000010101FB0E0D000101010100000001000001002D0000000000000902E0420000000000000105160A03B1054A060B08BA02020001013B000000040019000000010101FB0E0D000101010100000001000001002D000000000000090210430000000000000105160A03B1054A060B089E02020001013B000000040019000000010101FB0E0D000101010100000001000001002D000000000000090240430000000000000105160A03B1054A060B08C802020001014F000000040019000000010101FB0E0D000101010100000001000001002D000000000000090270430000000000000105160A03B105BA0603CE7A02430103B2052003CE7A089003B205660B024312020500010145000000040019000000010101FB0E0D000101010100000001000001002D000000000000090230440000000000000105160A03B1054A0603CE7A02260103B205660B08BA020500010147000000040019000000010101FB0E0D000101010100000001000001002D000000000000090290440000000000000105160A03B1054A05000603CE7A083C051603B2054A0BBA02020001015B00000004002B000000010101FB0E0D00010101010000000100000100636F6D62696E65642E696E7075742E6D6C69720000000000000902C0440000000000000105160A03B1054A0520730519030A4A0510F305190881060B2E0202000101B5000000040019000000010101FB0E0D000101010100000001000001002D000000000000090200450000000000000105150A03B0054A0511032208660603AD7A02380103D305083C03AD7A6603D305083C03AD7A6603D305083C03AD7A6603D305084A03AD7A6603D305C803AD7A2E0603D305820603AD7A0259010603D305022C01060B02381203AD7A2E03D305088203AD7A6603D305087403AD7A6603D305087403AD7A6603D305088203AD7A6603D3050820020B000101CA000000040019000000010101FB0E0D000101010100000001000001002D000000000000090230470000000000000105150A03B0054A0511032208660603AD7A02320103D305083C03AD7A6603D305083C03AD7A6603D305083C03AD7A6603D305084A03AD7A6603D305C803AD7A2E0603D305820603AD7A0231010603D305580603AD7A08AC0603D305022C010603AD7A022A010603D3054A060BAC03AD7A2E03D305087403AD7A6603D305087403AD7A6603D305087403AD7A6603D305088203AD7A6603D3050820020B0001014B000000040019000000010101FB0E0D000101010100000001000001002D000000000000090250490000000000000105110A03D2054A0518084C0511480603AD7AD603D305580B02261202020001013C000000040019000000010101FB0E0D000101010100000001000001002D0000000000000902B0490000000000000105110A03DB054A060B022212020200010146000000040019000000010101FB0E0D000101010100000001000001002D0000000000000902E0490000000000000105110A03DB054A0603A47A02240103DC05820B022612020200010146000000040019000000010101FB0E0D000101010100000001000001002D0000000000000902404A0000000000000105110A03DB054A0603A47A02280103DC054A0B02281202020001014952454500000000000000000000000000000000000000000000000000002300000000020900686100000000000000000000000000000100000012000700A04A0000000000001100000000000000002E64796E73796D002E68617368002E64796E737472002E72656C612E64796E002E726F64617461002E65685F6672616D65002E74657874002E646174612E72656C2E726F002E64796E616D6963002E72656C726F5F70616464696E67002E64656275675F616262726576002E64656275675F696E666F002E64656275675F737472002E64656275675F7075626E616D6573002E64656275675F7075627479706573002E64656275675F6C696E65002E636F6D6D656E74002E73796D746162002E7368737472746162002E7374727461620000697265655F68616C5F65786563757461626C655F6C6962726172795F7175657279005F44594E414D494300000000000000000000000000000000000000000000000000000000000000000000000000000000000000000000000000000000000000000000000000000000000000010000000B0000000200000000000000C801000000000000C801000000000000300000000000000003000000010000000800000000000000180000000000000009000000050000000200000000000000F801000000000000F80100000000000018000000000000000100000000000000040000000000000004000000000000000F0000000300000002000000000000001002000000000000100200000000000023000000000000000000000000000000010000000000000000000000000000001700000004000000020000000000000038020000000000003802000000000000C80D0000000000000100000000000000080000000000000018000000000000002100000001000000120000000000000000100000000000000010000000000000500F00000000000000000000000000004000000000000000000000000000000029000000010000000200000000000000501F000000000000501F000000000000D8030000000000000000000000000000080000000000000000000000000000003300000001000000060000000000000030330000000000003023000000000000811700000000000000000000000000001000000000000000000000000000000039000000010000000300000000000000C05A000000000000C03A000000000000A8060000000000000000000000000000100000000000000000000000000000004600000006000000030000000000000068610000000000006841000000000000C0000000000000000300000000000000080000000000000010000000000000004F00000008000000030000000000000028620000000000002842000000000000D80D0000000000000000000000000000010000000000000000000000000000005E000000010000000000000000000000000000000000000028420000000000004E000000000000000000000000000000010000000000000000000000000000006C000000010000000000000000000000000000000000000076420000000000007707000000000000000000000000000001000000000000000000000000000000780000000100000030000000000000000000000000000000ED490000000000002805000000000000000000000000000001000000000000000100000000000000830000000100000000000000000000000000000000000000154F000000000000710700000000000000000000000000000100000000000000000000000000000093000000010000000000000000000000000000000000000086560000000000000002000000000000000000000000000001000000000000000000000000000000A300000001000000000000000000000000000000000000008658000000000000140B000000000000000000000000000001000000000000000000000000000000AF00000001000000300000000000000000000000000000009A630000000000000500000000000000000000000000000001000000000000000100000000000000B80000000200000000000000000000000000000000000000A0630000000000004800000000000000140000000200000008000000000000001800000000000000C00000000300000000000000000000000000000000000000E863000000000000D200000000000000000000000000000001000000000000000000000000000000CA0000000300000000000000000000000000000000000000BA640000000000002C00000000000000000000000000000001000000000000000000000000000000"> : vector<27176xi8>, format = "embedded-elf-x86_64", mime_type = "application/x-elf"}
  }
  util.global private @__device_0 : !hal.device
  util.initializer {
    %c18_i32 = arith.constant 18 : i32
    %false = arith.constant false
    %c0 = arith.constant 0 : index
    %c1 = arith.constant 1 : index
    %0 = util.null : !hal.device
    %device_count = hal.devices.count : index
    cf.br ^bb1(%c0, %c0, %0 : index, index, !hal.device)
  ^bb1(%1: index, %2: index, %3: !hal.device):  // 2 preds: ^bb0, ^bb4
    %4 = util.cmp.eq %3, %0 : !hal.device
    %5 = arith.cmpi slt, %1, %device_count : index
    %6 = arith.andi %4, %5 : i1
    cf.cond_br %6, ^bb2, ^bb5
  ^bb2:  // pred: ^bb1
    %device_n = hal.devices.get %1 : !hal.device
    %ok, %value = hal.device.query<%device_n : !hal.device> key("hal.device.id" :: "local*") : i1, i1 = false
    cf.cond_br %value, ^bb3, ^bb4(%false : i1)
  ^bb3:  // pred: ^bb2
    %ok_0, %value_1 = hal.device.query<%device_n : !hal.device> key("hal.executable.format" :: "embedded-elf-x86_64") : i1, i1 = false
    cf.br ^bb4(%value_1 : i1)
  ^bb4(%7: i1):  // 2 preds: ^bb2, ^bb3
    %8 = arith.cmpi eq, %2, %c0 : index
    %9 = arith.select %7, %c1, %c0 : index
    %10 = arith.addi %2, %9 : index
    %11 = arith.andi %7, %8 : i1
    %12 = arith.select %11, %device_n, %0 : !hal.device
    %13 = arith.addi %1, %c1 : index
    cf.br ^bb1(%13, %10, %12 : index, index, !hal.device)
  ^bb5:  // pred: ^bb1
    cf.cond_br %4, ^bb6, ^bb7
  ^bb6:  // pred: ^bb5
    util.status.check_ok %c18_i32, "HAL device `__device_0` not found or unavailable: #hal.device.target<\22local\22, [#hal.executable.target<\22llvm-cpu\22, \22embedded-elf-x86_64\22, {cpu = \22znver3\22, cpu_features = \22+prfchw,-cldemote,+avx,+aes,+sahf,+pclmul,-xop,+crc32,-amx-fp8,+xsaves,-avx512fp16,-usermsr,-sm4,-egpr,+sse4.1,-avx512ifma,+xsave,+sse4.2,-tsxldtrk,-sm3,-ptwrite,-widekl,-movrs,+invpcid,+64bit,+xsavec,-avx10.1-512,-avx512vpopcntdq,+cmov,-avx512vp2intersect,-avx512cd,+movbe,-avxvnniint8,-ccmp,-amx-int8,-kl,-avx10.1-256,-sha512,-avxvnni,-rtm,+adx,+avx2,-hreset,-movdiri,-serialize,+vpclmulqdq,-avx512vl,-uintr,-cf,+clflushopt,-raoint,-cmpccxadd,+bmi,-amx-tile,+sse,-avx10.2-256,-gfni,-avxvnniint16,-amx-fp16,-zu,-ndd,+xsaveopt,+rdrnd,-avx512f,-amx-bf16,-avx512bf16,-avx512vnni,-push2pop2,+cx8,-avx512bw,+sse3,+pku,-nf,-amx-tf32,-amx-avx512,+fsgsbase,+clzero,+mwaitx,-lwp,+lzcnt,+sha,-movdir64b,-ppx,+wbnoinvd,-enqcmd,-amx-transpose,-avx10.2-512,-avxneconvert,-tbm,-pconfig,-amx-complex,+ssse3,+cx16,+bmi2,+fma,+popcnt,-avxifma,+f16c,-avx512bitalg,+rdpru,+clwb,+mmx,+sse2,+rdseed,-avx512vbmi2,-prefetchi,-amx-movrs,+rdpid,-fma4,-avx512vbmi,+shstk,+vaes,-waitpkg,-sgx,+fxsr,-avx512dq,+sse4a\22, data_layout = \22e-m:e-p270:32:32-p271:32:32-p272:64:64-i64:64-i128:128-f80:128-n8:16:32:64-S128\22, iree.encoding.resolver = #iree_cpu.cpu_encoding_resolver<>, max_stack_allocation_size = 32768 : i64, native_vector_size = 32 : i64, target_triple = \22x86_64-unknown-unknown-eabi-elf\22}>]>"
    cf.br ^bb7
  ^bb7:  // 2 preds: ^bb5, ^bb6
    util.global.store %3, @__device_0 : !hal.device
    util.return
  }
  util.global private @__device_0_query_0_hal_executable_format_embedded_elf_x86_64 : i1
  util.initializer {
    %__device_0 = util.global.load @__device_0 : !hal.device
    %ok, %value = hal.device.query<%__device_0 : !hal.device> key("hal.executable.format" :: "embedded-elf-x86_64") : i1, i1 = false
    util.global.store %value, @__device_0_query_0_hal_executable_format_embedded_elf_x86_64 : i1
    util.return
  }
  util.global private @__device_0_executable_0_integrated_robot_application_linked : !hal.executable
  util.initializer {
    %c-1_i64 = arith.constant -1 : i64
    %c-1 = arith.constant -1 : index
    %c0 = arith.constant 0 : index
    %c14_i32 = arith.constant 14 : i32
    %0 = util.null : !hal.executable
    %__device_0_query_0_hal_executable_format_embedded_elf_x86_64 = util.global.load @__device_0_query_0_hal_executable_format_embedded_elf_x86_64 : i1
    %__device_0 = util.global.load @__device_0 : !hal.device
    %1 = arith.select %__device_0_query_0_hal_executable_format_embedded_elf_x86_64, %c0, %c-1 : index
    %2 = arith.cmpi eq, %1, %c0 : index
    cf.cond_br %2, ^bb1, ^bb2
  ^bb1:  // pred: ^bb0
    %executable = hal.executable.create device(%__device_0 : !hal.device) affinity(%c-1_i64) target(@integrated_robot_application_linked::@embedded_elf_x86_64) : !hal.executable
    cf.br ^bb3(%executable : !hal.executable)
  ^bb2:  // pred: ^bb0
    util.status.check_ok %c14_i32, "HAL device `__device_0` does not support any variant of executable `integrated_robot_application_linked`; available formats: [embedded-elf-x86_64]"
    cf.br ^bb3(%0 : !hal.executable)
  ^bb3(%3: !hal.executable):  // 2 preds: ^bb1, ^bb2
    util.global.store %3, @__device_0_executable_0_integrated_robot_application_linked : !hal.executable
    util.return
  }
  util.func public @main$async(%arg0: !hal.buffer_view, %arg1: !hal.buffer_view, %arg2: !hal.buffer_view, %arg3: !hal.buffer_view, %arg4: !hal.fence, %arg5: !hal.fence, %arg6: !hal.fence, %arg7: !hal.fence) -> (!hal.buffer_view, !hal.buffer_view) attributes {iree.abi.stub, iree.reflection = {iree.abi.declaration = "async func @main$async(%input0: !hal.buffer_view, %input1: !hal.buffer_view, %input2: !hal.buffer_view, %input3: !hal.buffer_view, %input4: !hal.fence, %input5: !hal.fence) -> (%output0: !hal.buffer_view, %output1: !hal.buffer_view)", iree.abi.model = "coarse-fences"}} {
    %0:2 = util.call @_main$async(%arg0, %arg1, %arg2, %arg3, %arg4, %arg5) : (!hal.buffer_view, !hal.buffer_view, !hal.buffer_view, !hal.buffer_view, !hal.fence, !hal.fence) -> (!hal.buffer_view, !hal.buffer_view)
    hal.fence.signal<%arg7 : !hal.fence>
    util.return %0#0, %0#1 : !hal.buffer_view, !hal.buffer_view
  }
  util.global private @__constant_tensor_4x3x4x4xf32 : !hal.buffer
  util.initializer {
    %c-1_i32 = arith.constant -1 : i32
    %c0_i32 = arith.constant 0 : i32
    %c-1_i64 = arith.constant -1 : i64
    %memory_type = hal.memory_type<"DeviceVisible|DeviceLocal"> : i32
    %buffer_usage = hal.buffer_usage<"TransferSource|TransferTarget|Transfer|DispatchStorageRead|DispatchStorageWrite|DispatchStorage|SharingImmutable"> : i32
    %c0 = arith.constant 0 : index
    %c0_i64 = arith.constant 0 : i64
    %c8960 = arith.constant 8960 : index
    %0 = util.null : !hal.fence
    %__device_0 = util.global.load immutable @__device_0 : !hal.device
    %buffer_cst = util.buffer.constant {alignment = 64 : index} : !util.buffer = #composite_of_8960b
    %allocator = hal.device.allocator<%__device_0 : !hal.device> : !hal.allocator
    %did_import, %mapped = hal.allocator.import<%allocator : !hal.allocator> source(%buffer_cst : !util.buffer)[%c0, %c8960] affinity(%c-1_i64) type(%memory_type) usage(%buffer_usage) : i1, !hal.buffer
    cf.cond_br %did_import, ^bb2(%0, %mapped : !hal.fence, !hal.buffer), ^bb1
  ^bb1:  // pred: ^bb0
    %buffer = hal.allocator.allocate<%allocator : !hal.allocator> affinity(%c-1_i64) type(%memory_type) usage(%buffer_usage) : !hal.buffer{%c8960}
    %memory_file = hal.ex.file.from_memory device(%__device_0 : !hal.device) affinity(%c-1_i64) access(Read) buffer(%buffer_cst : !util.buffer)[%c0 for %c8960] flags(%c0_i32) : !hal.file
    %fence = hal.fence.create device(%__device_0 : !hal.device) flags("None") : !hal.fence
    hal.device.queue.read<%__device_0 : !hal.device> affinity(%c-1_i64) wait(%0) signal(%fence) source(%memory_file : !hal.file)[%c0_i64] target(%buffer : !hal.buffer)[%c0] length(%c8960) flags("None")
    cf.br ^bb2(%fence, %buffer : !hal.fence, !hal.buffer)
  ^bb2(%1: !hal.fence, %2: !hal.buffer):  // 2 preds: ^bb0, ^bb1
    %status = hal.fence.await until([%1]) timeout_millis(%c-1_i32) flags("None") : i32
    util.status.check_ok %status, "failed to wait on timepoint"
    util.global.store %2, @__constant_tensor_4x3x4x4xf32 : !hal.buffer
    util.return
  }
  util.func private @___main$async_memoize_apply() -> !hal.command_buffer attributes {inlining_policy = #util.inline.never} {
    %c-1_i64 = arith.constant -1 : i64
    %c16 = arith.constant 16 : index
    %c6 = arith.constant 6 : index
    %c0 = arith.constant 0 : index
    %c1 = arith.constant 1 : index
    %c3 = arith.constant 3 : index
    %c8 = arith.constant 8 : index
    %c12 = arith.constant 12 : index
    %c5 = arith.constant 5 : index
    %c52272 = arith.constant 52272 : index
    %c0_i8 = arith.constant 0 : i8
    %c2 = arith.constant 2 : index
    %c49152 = arith.constant 49152 : index
    %c56384 = arith.constant 56384 : index
    %c8960 = arith.constant 8960 : index
    %c4 = arith.constant 4 : index
    %__device_0 = util.global.load immutable @__device_0 : !hal.device
    %__constant_tensor_4x3x4x4xf32 = util.global.load immutable @__constant_tensor_4x3x4x4xf32 : !hal.buffer
    %__device_0_executable_0_integrated_robot_application_linked = util.global.load immutable @__device_0_executable_0_integrated_robot_application_linked : !hal.executable
    %cmd = hal.command_buffer.create device(%__device_0 : !hal.device) mode("None") categories("Transfer|Dispatch") affinity(%c-1_i64) bindings(%c6) : !hal.command_buffer
    hal.command_buffer.dispatch<%cmd : !hal.command_buffer> target(%__device_0_executable_0_integrated_robot_application_linked : !hal.executable)[%c0] workgroups([%c1, %c1, %c1]) bindings([
      (%c0 : index)[%c0, %c8], 
      (%c1 : index)[%c0, %c12], 
      (%c3 : index)[%c0, %c12], 
      (%c3 : index)[%c0, %c12], 
      (%c3 : index)[%c0, %c12]
    ]) flags("None")
    hal.command_buffer.fill_buffer<%cmd : !hal.command_buffer> target(%c5 : index)[%c0, %c52272] pattern(%c0_i8 : i8) flags("None")
    hal.command_buffer.execution_barrier<%cmd : !hal.command_buffer> source("Dispatch|Transfer|CommandRetire") target("CommandIssue|Dispatch|Transfer") flags("None")
    hal.command_buffer.dispatch<%cmd : !hal.command_buffer> target(%__device_0_executable_0_integrated_robot_application_linked : !hal.executable)[%c1] workgroups([%c2, %c1, %c1]) bindings([
      (%c2 : index)[%c0, %c49152], 
      (%c5 : index)[%c0, %c56384]
    ]) flags("None")
    hal.command_buffer.execution_barrier<%cmd : !hal.command_buffer> source("Dispatch|Transfer|CommandRetire") target("CommandIssue|Dispatch|Transfer") flags("None")
    hal.command_buffer.dispatch<%cmd : !hal.command_buffer> target(%__device_0_executable_0_integrated_robot_application_linked : !hal.executable)[%c2] workgroups([%c16, %c1, %c1]) bindings([
      (%c5 : index)[%c0, %c56384], 
      (%__constant_tensor_4x3x4x4xf32 : !hal.buffer)[%c0, %c8960], 
      (%c5 : index)[%c0, %c56384]
    ]) flags("None")
    hal.command_buffer.execution_barrier<%cmd : !hal.command_buffer> source("Dispatch|Transfer|CommandRetire") target("CommandIssue|Dispatch|Transfer") flags("None")
    hal.command_buffer.dispatch<%cmd : !hal.command_buffer> target(%__device_0_executable_0_integrated_robot_application_linked : !hal.executable)[%c3] workgroups([%c16, %c1, %c1]) bindings([
      (%c5 : index)[%c0, %c56384], 
      (%c5 : index)[%c0, %c56384]
    ]) flags("None")
    hal.command_buffer.execution_barrier<%cmd : !hal.command_buffer> source("Dispatch|Transfer|CommandRetire") target("CommandIssue|Dispatch|Transfer") flags("None")
    hal.command_buffer.dispatch<%cmd : !hal.command_buffer> target(%__device_0_executable_0_integrated_robot_application_linked : !hal.executable)[%c4] workgroups([%c1, %c1, %c1]) bindings([
      (%c5 : index)[%c0, %c56384], 
      (%__constant_tensor_4x3x4x4xf32 : !hal.buffer)[%c0, %c8960], 
      (%c5 : index)[%c0, %c56384]
    ]) flags("None")
    hal.command_buffer.execution_barrier<%cmd : !hal.command_buffer> source("Dispatch|Transfer|CommandRetire") target("CommandIssue|Dispatch|Transfer") flags("None")
    hal.command_buffer.dispatch<%cmd : !hal.command_buffer> target(%__device_0_executable_0_integrated_robot_application_linked : !hal.executable)[%c5] workgroups([%c1, %c1, %c1]) bindings([
      (%c5 : index)[%c0, %c56384], 
      (%c4 : index)[%c0, %c8]
    ]) flags("None")
    hal.command_buffer.execution_barrier<%cmd : !hal.command_buffer> source("Dispatch|Transfer|CommandRetire") target("CommandIssue|Dispatch|Transfer") flags("None")
    hal.command_buffer.finalize<%cmd : !hal.command_buffer>
    util.return %cmd : !hal.command_buffer
  }
  util.global private @___main$async_memoize_result_0_device_0 : !hal.command_buffer
  util.initializer {
    %0 = util.call @___main$async_memoize_apply() : () -> !hal.command_buffer
    util.global.store %0, @___main$async_memoize_result_0_device_0 : !hal.command_buffer
    util.return
  }
  util.func private @___main$async_memoize_apply_0() -> !hal.command_buffer attributes {inlining_policy = #util.inline.never} {
    %c-1_i64 = arith.constant -1 : i64
    %c21 = arith.constant 21 : index
    %c20 = arith.constant 20 : index
    %c19 = arith.constant 19 : index
    %c18 = arith.constant 18 : index
    %c16 = arith.constant 16 : index
    %c15 = arith.constant 15 : index
    %c13 = arith.constant 13 : index
    %c17 = arith.constant 17 : index
    %c14 = arith.constant 14 : index
    %c12 = arith.constant 12 : index
    %c11 = arith.constant 11 : index
    %c10 = arith.constant 10 : index
    %c9 = arith.constant 9 : index
    %c6 = arith.constant 6 : index
    %c7 = arith.constant 7 : index
    %c5 = arith.constant 5 : index
    %c0 = arith.constant 0 : index
    %c4 = arith.constant 4 : index
    %c8 = arith.constant 8 : index
    %c64 = arith.constant 64 : index
    %c384 = arith.constant 384 : index
    %c128 = arith.constant 128 : index
    %c1 = arith.constant 1 : index
    %c192 = arith.constant 192 : index
    %c136 = arith.constant 136 : index
    %c256 = arith.constant 256 : index
    %c320 = arith.constant 320 : index
    %c328 = arith.constant 328 : index
    %c2 = arith.constant 2 : index
    %c3 = arith.constant 3 : index
    %__device_0 = util.global.load immutable @__device_0 : !hal.device
    %__device_0_executable_0_integrated_robot_application_linked = util.global.load immutable @__device_0_executable_0_integrated_robot_application_linked : !hal.executable
    %cmd = hal.command_buffer.create device(%__device_0 : !hal.device) mode("None") categories("Transfer|Dispatch") affinity(%c-1_i64) bindings(%c5) : !hal.command_buffer
    hal.command_buffer.copy_buffer<%cmd : !hal.command_buffer> source(%c0 : index)[%c0] target(%c4 : index)[%c0] length(%c8) flags("None")
    hal.command_buffer.execution_barrier<%cmd : !hal.command_buffer> source("Dispatch|Transfer|CommandRetire") target("CommandIssue|Dispatch|Transfer") flags("None")
    hal.command_buffer.copy_buffer<%cmd : !hal.command_buffer> source(%c0 : index)[%c0] target(%c4 : index)[%c64] length(%c8) flags("None")
    hal.command_buffer.execution_barrier<%cmd : !hal.command_buffer> source("Dispatch|Transfer|CommandRetire") target("CommandIssue|Dispatch|Transfer") flags("None")
    hal.command_buffer.dispatch<%cmd : !hal.command_buffer> target(%__device_0_executable_0_integrated_robot_application_linked : !hal.executable)[%c7] workgroups([%c1, %c1, %c1]) bindings([
      (%c4 : index)[%c0, %c384], 
      (%c4 : index)[%c0, %c384]
    ]) flags("None")
    hal.command_buffer.execution_barrier<%cmd : !hal.command_buffer> source("Dispatch|Transfer|CommandRetire") target("CommandIssue|Dispatch|Transfer") flags("None")
    hal.command_buffer.copy_buffer<%cmd : !hal.command_buffer> source(%c4 : index)[%c128] target(%c4 : index)[%c64] length(%c4) flags("None")
    hal.command_buffer.execution_barrier<%cmd : !hal.command_buffer> source("Dispatch|Transfer|CommandRetire") target("CommandIssue|Dispatch|Transfer") flags("None")
    hal.command_buffer.dispatch<%cmd : !hal.command_buffer> target(%__device_0_executable_0_integrated_robot_application_linked : !hal.executable)[%c6] workgroups([%c1, %c1, %c1]) bindings([
      (%c4 : index)[%c0, %c384], 
      (%c4 : index)[%c0, %c384]
    ]) flags("None")
    hal.command_buffer.execution_barrier<%cmd : !hal.command_buffer> source("Dispatch|Transfer|CommandRetire") target("CommandIssue|Dispatch|Transfer") flags("None")
    hal.command_buffer.copy_buffer<%cmd : !hal.command_buffer> source(%c0 : index)[%c0] target(%c4 : index)[%c0] length(%c8) flags("None")
    hal.command_buffer.execution_barrier<%cmd : !hal.command_buffer> source("Dispatch|Transfer|CommandRetire") target("CommandIssue|Dispatch|Transfer") flags("None")
    hal.command_buffer.copy_buffer<%cmd : !hal.command_buffer> source(%c4 : index)[%c64] target(%c4 : index)[%c128] length(%c8) flags("None")
    hal.command_buffer.execution_barrier<%cmd : !hal.command_buffer> source("Dispatch|Transfer|CommandRetire") target("CommandIssue|Dispatch|Transfer") flags("None")
    hal.command_buffer.dispatch<%cmd : !hal.command_buffer> target(%__device_0_executable_0_integrated_robot_application_linked : !hal.executable)[%c8] workgroups([%c1, %c1, %c1]) bindings([
      (%c4 : index)[%c0, %c384], 
      (%c4 : index)[%c0, %c384]
    ]) flags("None")
    hal.command_buffer.execution_barrier<%cmd : !hal.command_buffer> source("Dispatch|Transfer|CommandRetire") target("CommandIssue|Dispatch|Transfer") flags("None")
    hal.command_buffer.dispatch<%cmd : !hal.command_buffer> target(%__device_0_executable_0_integrated_robot_application_linked : !hal.executable)[%c9] workgroups([%c1, %c1, %c1]) bindings([
      (%c1 : index)[%c0, %c8], 
      (%c4 : index)[%c0, %c384], 
      (%c4 : index)[%c0, %c384]
    ]) flags("None")
    hal.command_buffer.execution_barrier<%cmd : !hal.command_buffer> source("Dispatch|Transfer|CommandRetire") target("CommandIssue|Dispatch|Transfer") flags("None")
    hal.command_buffer.copy_buffer<%cmd : !hal.command_buffer> source(%c0 : index)[%c0] target(%c4 : index)[%c128] length(%c8) flags("None")
    hal.command_buffer.execution_barrier<%cmd : !hal.command_buffer> source("Dispatch|Transfer|CommandRetire") target("CommandIssue|Dispatch|Transfer") flags("None")
    hal.command_buffer.dispatch<%cmd : !hal.command_buffer> target(%__device_0_executable_0_integrated_robot_application_linked : !hal.executable)[%c10] workgroups([%c1, %c1, %c1]) bindings([
      (%c4 : index)[%c0, %c384], 
      (%c4 : index)[%c0, %c384]
    ]) flags("None")
    hal.command_buffer.execution_barrier<%cmd : !hal.command_buffer> source("Dispatch|Transfer|CommandRetire") target("CommandIssue|Dispatch|Transfer") flags("None")
    hal.command_buffer.copy_buffer<%cmd : !hal.command_buffer> source(%c0 : index)[%c0] target(%c4 : index)[%c128] length(%c8) flags("None")
    hal.command_buffer.execution_barrier<%cmd : !hal.command_buffer> source("Dispatch|Transfer|CommandRetire") target("CommandIssue|Dispatch|Transfer") flags("None")
    hal.command_buffer.dispatch<%cmd : !hal.command_buffer> target(%__device_0_executable_0_integrated_robot_application_linked : !hal.executable)[%c11] workgroups([%c1, %c1, %c1]) bindings([
      (%c4 : index)[%c0, %c384], 
      (%c4 : index)[%c0, %c384]
    ]) flags("None")
    hal.command_buffer.execution_barrier<%cmd : !hal.command_buffer> source("Dispatch|Transfer|CommandRetire") target("CommandIssue|Dispatch|Transfer") flags("None")
    hal.command_buffer.copy_buffer<%cmd : !hal.command_buffer> source(%c4 : index)[%c192] target(%c4 : index)[%c128] length(%c8) flags("None")
    hal.command_buffer.execution_barrier<%cmd : !hal.command_buffer> source("Dispatch|Transfer|CommandRetire") target("CommandIssue|Dispatch|Transfer") flags("None")
    hal.command_buffer.copy_buffer<%cmd : !hal.command_buffer> source(%c4 : index)[%c64] target(%c4 : index)[%c136] length(%c8) flags("None")
    hal.command_buffer.execution_barrier<%cmd : !hal.command_buffer> source("Dispatch|Transfer|CommandRetire") target("CommandIssue|Dispatch|Transfer") flags("None")
    hal.command_buffer.dispatch<%cmd : !hal.command_buffer> target(%__device_0_executable_0_integrated_robot_application_linked : !hal.executable)[%c12] workgroups([%c1, %c1, %c1]) bindings([
      (%c4 : index)[%c0, %c384], 
      (%c4 : index)[%c0, %c384]
    ]) flags("None")
    hal.command_buffer.execution_barrier<%cmd : !hal.command_buffer> source("Dispatch|Transfer|CommandRetire") target("CommandIssue|Dispatch|Transfer") flags("None")
    hal.command_buffer.dispatch<%cmd : !hal.command_buffer> target(%__device_0_executable_0_integrated_robot_application_linked : !hal.executable)[%c14] workgroups([%c1, %c1, %c1]) bindings([
      (%c4 : index)[%c0, %c384], 
      (%c4 : index)[%c0, %c384]
    ]) flags("None")
    hal.command_buffer.execution_barrier<%cmd : !hal.command_buffer> source("Dispatch|Transfer|CommandRetire") target("CommandIssue|Dispatch|Transfer") flags("None")
    hal.command_buffer.dispatch<%cmd : !hal.command_buffer> target(%__device_0_executable_0_integrated_robot_application_linked : !hal.executable)[%c17] workgroups([%c1, %c1, %c1]) bindings([
      (%c4 : index)[%c0, %c384], 
      (%c4 : index)[%c0, %c384]
    ]) flags("None")
    hal.command_buffer.execution_barrier<%cmd : !hal.command_buffer> source("Dispatch|Transfer|CommandRetire") target("CommandIssue|Dispatch|Transfer") flags("None")
    hal.command_buffer.copy_buffer<%cmd : !hal.command_buffer> source(%c4 : index)[%c128] target(%c4 : index)[%c256] length(%c4) flags("None")
    hal.command_buffer.execution_barrier<%cmd : !hal.command_buffer> source("Dispatch|Transfer|CommandRetire") target("CommandIssue|Dispatch|Transfer") flags("None")
    hal.command_buffer.dispatch<%cmd : !hal.command_buffer> target(%__device_0_executable_0_integrated_robot_application_linked : !hal.executable)[%c13] workgroups([%c1, %c1, %c1]) bindings([
      (%c4 : index)[%c0, %c384], 
      (%c4 : index)[%c0, %c384]
    ]) flags("None")
    hal.command_buffer.execution_barrier<%cmd : !hal.command_buffer> source("Dispatch|Transfer|CommandRetire") target("CommandIssue|Dispatch|Transfer") flags("None")
    hal.command_buffer.dispatch<%cmd : !hal.command_buffer> target(%__device_0_executable_0_integrated_robot_application_linked : !hal.executable)[%c15] workgroups([%c1, %c1, %c1]) bindings([
      (%c4 : index)[%c0, %c384], 
      (%c4 : index)[%c0, %c384]
    ]) flags("None")
    hal.command_buffer.execution_barrier<%cmd : !hal.command_buffer> source("Dispatch|Transfer|CommandRetire") target("CommandIssue|Dispatch|Transfer") flags("None")
    hal.command_buffer.dispatch<%cmd : !hal.command_buffer> target(%__device_0_executable_0_integrated_robot_application_linked : !hal.executable)[%c16] workgroups([%c1, %c1, %c1]) bindings([
      (%c4 : index)[%c0, %c384], 
      (%c4 : index)[%c0, %c384]
    ]) flags("None")
    hal.command_buffer.execution_barrier<%cmd : !hal.command_buffer> source("Dispatch|Transfer|CommandRetire") target("CommandIssue|Dispatch|Transfer") flags("None")
    hal.command_buffer.copy_buffer<%cmd : !hal.command_buffer> source(%c4 : index)[%c128] target(%c4 : index)[%c320] length(%c8) flags("None")
    hal.command_buffer.execution_barrier<%cmd : !hal.command_buffer> source("Dispatch|Transfer|CommandRetire") target("CommandIssue|Dispatch|Transfer") flags("None")
    hal.command_buffer.copy_buffer<%cmd : !hal.command_buffer> source(%c4 : index)[%c256] target(%c4 : index)[%c328] length(%c8) flags("None")
    hal.command_buffer.execution_barrier<%cmd : !hal.command_buffer> source("Dispatch|Transfer|CommandRetire") target("CommandIssue|Dispatch|Transfer") flags("None")
    hal.command_buffer.dispatch<%cmd : !hal.command_buffer> target(%__device_0_executable_0_integrated_robot_application_linked : !hal.executable)[%c18] workgroups([%c1, %c1, %c1]) bindings([
      (%c4 : index)[%c0, %c384], 
      (%c4 : index)[%c0, %c384]
    ]) flags("None")
    hal.command_buffer.execution_barrier<%cmd : !hal.command_buffer> source("Dispatch|Transfer|CommandRetire") target("CommandIssue|Dispatch|Transfer") flags("None")
    hal.command_buffer.dispatch<%cmd : !hal.command_buffer> target(%__device_0_executable_0_integrated_robot_application_linked : !hal.executable)[%c19] workgroups([%c1, %c1, %c1]) bindings([
      (%c4 : index)[%c0, %c384], 
      (%c4 : index)[%c0, %c384]
    ]) flags("None")
    hal.command_buffer.execution_barrier<%cmd : !hal.command_buffer> source("Dispatch|Transfer|CommandRetire") target("CommandIssue|Dispatch|Transfer") flags("None")
    hal.command_buffer.copy_buffer<%cmd : !hal.command_buffer> source(%c0 : index)[%c0] target(%c4 : index)[%c0] length(%c8) flags("None")
    hal.command_buffer.execution_barrier<%cmd : !hal.command_buffer> source("Dispatch|Transfer|CommandRetire") target("CommandIssue|Dispatch|Transfer") flags("None")
    hal.command_buffer.dispatch<%cmd : !hal.command_buffer> target(%__device_0_executable_0_integrated_robot_application_linked : !hal.executable)[%c20] workgroups([%c1, %c1, %c1]) bindings([
      (%c4 : index)[%c0, %c384], 
      (%c2 : index)[%c0, %c8]
    ]) flags("None")
    hal.command_buffer.execution_barrier<%cmd : !hal.command_buffer> source("Dispatch|Transfer|CommandRetire") target("CommandIssue|Dispatch|Transfer") flags("None")
    hal.command_buffer.copy_buffer<%cmd : !hal.command_buffer> source(%c0 : index)[%c0] target(%c4 : index)[%c0] length(%c8) flags("None")
    hal.command_buffer.execution_barrier<%cmd : !hal.command_buffer> source("Dispatch|Transfer|CommandRetire") target("CommandIssue|Dispatch|Transfer") flags("None")
    hal.command_buffer.dispatch<%cmd : !hal.command_buffer> target(%__device_0_executable_0_integrated_robot_application_linked : !hal.executable)[%c21] workgroups([%c1, %c1, %c1]) bindings([
      (%c2 : index)[%c0, %c8], 
      (%c4 : index)[%c0, %c384], 
      (%c4 : index)[%c0, %c384]
    ]) flags("None")
    hal.command_buffer.execution_barrier<%cmd : !hal.command_buffer> source("Dispatch|Transfer|CommandRetire") target("CommandIssue|Dispatch|Transfer") flags("None")
    hal.command_buffer.copy_buffer<%cmd : !hal.command_buffer> source(%c4 : index)[%c64] target(%c3 : index)[%c0] length(%c4) flags("None")
    hal.command_buffer.execution_barrier<%cmd : !hal.command_buffer> source("Dispatch|Transfer|CommandRetire") target("CommandIssue|Dispatch|Transfer") flags("None")
    hal.command_buffer.finalize<%cmd : !hal.command_buffer>
    util.return %cmd : !hal.command_buffer
  }
  util.global private @___main$async_memoize_result_0_device_0_1 : !hal.command_buffer
  util.initializer {
    %0 = util.call @___main$async_memoize_apply_0() : () -> !hal.command_buffer
    util.global.store %0, @___main$async_memoize_result_0_device_0_1 : !hal.command_buffer
    util.return
  }
  util.func private @___main$async_memoize_apply_3() -> !hal.command_buffer attributes {inlining_policy = #util.inline.never} {
    %c-1_i64 = arith.constant -1 : i64
    %c3 = arith.constant 3 : index
    %c0 = arith.constant 0 : index
    %c4 = arith.constant 4 : index
    %c2 = arith.constant 2 : index
    %c1 = arith.constant 1 : index
    %__device_0 = util.global.load immutable @__device_0 : !hal.device
    %cmd = hal.command_buffer.create device(%__device_0 : !hal.device) mode("None") categories(Transfer) affinity(%c-1_i64) bindings(%c3) : !hal.command_buffer
    hal.command_buffer.copy_buffer<%cmd : !hal.command_buffer> source(%c0 : index)[%c4] target(%c2 : index)[%c0] length(%c4) flags("None")
    hal.command_buffer.execution_barrier<%cmd : !hal.command_buffer> source("Dispatch|Transfer|CommandRetire") target("CommandIssue|Dispatch|Transfer") flags("None")
